{
  "version": "1.0",
  "truncation": null,
  "padding": null,
  "added_tokens": [
    {
      "id": 0,
      "content": "<|bos|>",
      "single_word": false,
      "lstrip": false,
      "rstrip": false,
      "normalized": false,
      "special": true
    },
    {
      "id": 1,
      "content": "<|user_start|>",
      "single_word": false,
      "lstrip": false,
      "rstrip": false,
      "normalized": false,
      "special": true
    },
    {
      "id": 2,
      "content": "<|user_end|>",
      "single_word": false,
      "lstrip": false,
      "rstrip": false,
      "normalized": false,
      "special": true
    },
    {
      "id": 3,
      "content": "<|assistant_start|>",
      "single_word": false,
      "lstrip": false,
      "rstrip": false,
      "normalized": false,
      "special": true
    },
    {
      "id": 4,
      "content": "<|assistant_end|>",
      "single_word": false,
      "lstrip": false,
      "rstrip": false,
      "normalized": false,
      "special": true
    },
    {
      "id": 5,
      "content": "<|python_start|>",
      "single_word": false,
      "lstrip": false,
      "rstrip": false,
      "normalized": false,
      "special": true
    },
    {
      "id": 6,
      "content": "<|python_end|>",
      "single_word": false,
      "lstrip": false,
      "rstrip": false,
      "normalized": false,
      "special": true
    },
    {
      "id": 7,
      "content": "<|output_start|>",
      "single_word": false,
      "lstrip": false,
      "rstrip": false,
      "normalized": false,
      "special": true
    },
    {
      "id": 8,
      "content": "<|output_end|>",
      "single_word": false,
      "lstrip": false,
      "rstrip": false,
      "normalized": false,
      "special": true
    }
  ],
  "normalizer": null,
  "pre_tokenizer": {
    "type": "Sequence",
    "pretokenizers": [
      {
        "type": "Split",
        "pattern": {
          "Regex": "'(?i:[sdmt]|ll|ve|re)|[^\\r\\n\\p{L}\\p{N}]?+\\p{L}+|\\p{N}{1,2}| ?[^\\s\\p{L}\\p{N}]++[\\r\\n]*|\\s*[\\r\\n]|\\s+(?!\\S)|\\s+"
        },
        "behavior": "Isolated",
        "invert": false
      },
      {
        "type": "ByteLevel",
        "add_prefix_space": false,
        "trim_offsets": true,
        "use_regex": false
      }
    ]
  },
  "post_processor": null,
  "decoder": {
    "type": "ByteLevel",
    "add_prefix_space": true,
    "trim_offsets": true,
    "use_regex": true
  },
  "model": {
    "type": "BNE",
    "dropout": null,
    "unk_token": null,
    "continuing_subword_prefix": null,
    "end_of_word_suffix": null,
    "fuse_unk": false,
    "byte_fallback": true,
    "ignore_merges": false,
    "vocab": {
      "<|bos|>": 0,
      "<|user_start|>": 1,
      "<|user_end|>": 2,
      "<|assistant_start|>": 3,
      "<|assistant_end|>": 4,
      "<|python_start|>": 5,
      "<|python_end|>": 6,
      "<|output_start|>": 7,
      "<|output_end|>": 8,
      "!": 9,
      "\"": 10,
      "#": 11,
      "$": 12,
      "%": 13,
      "&": 14,
      "'": 15,
      "(": 16,
      ")": 17,
      "*": 18,
      "+": 19,
      ",": 20,
      "-": 21,
      ".": 22,
      "/": 23,
      "0": 24,
      "1": 25,
      "2": 26,
      "3": 27,
      "4": 28,
      "5": 29,
      "6": 30,
      "7": 31,
      "8": 32,
      "9": 33,
      ":": 34,
      ";": 35,
      "<": 36,
      "=": 37,
      ">": 38,
      "?": 39,
      "@": 40,
      "A": 41,
      "B": 42,
      "C": 43,
      "D": 44,
      "E": 45,
      "F": 46,
      "G": 47,
      "H": 48,
      "I": 49,
      "J": 50,
      "K": 51,
      "L": 52,
      "M": 53,
      "N": 54,
      "O": 55,
      "P": 56,
      "Q": 57,
      "R": 58,
      "S": 59,
      "T": 60,
      "U": 61,
      "V": 62,
      "W": 63,
      "X": 64,
      "Y": 65,
      "Z": 66,
      "[": 67,
      "\\": 68,
      "]": 69,
      "^": 70,
      "_": 71,
      "`": 72,
      "a": 73,
      "b": 74,
      "c": 75,
      "d": 76,
      "e": 77,
      "f": 78,
      "g": 79,
      "h": 80,
      "i": 81,
      "j": 82,
      "k": 83,
      "l": 84,
      "m": 85,
      "n": 86,
      "o": 87,
      "p": 88,
      "q": 89,
      "r": 90,
      "s": 91,
      "t": 92,
      "u": 93,
      "v": 94,
      "w": 95,
      "x": 96,
      "y": 97,
      "z": 98,
      "{": 99,
      "|": 100,
      "}": 101,
      "~": 102,
      "¡": 103,
      "¢": 104,
      "£": 105,
      "¤": 106,
      "¥": 107,
      "¦": 108,
      "§": 109,
      "¨": 110,
      "©": 111,
      "ª": 112,
      "«": 113,
      "¬": 114,
      "®": 115,
      "¯": 116,
      "°": 117,
      "±": 118,
      "²": 119,
      "³": 120,
      "´": 121,
      "µ": 122,
      "¶": 123,
      "·": 124,
      "¸": 125,
      "¹": 126,
      "º": 127,
      "»": 128,
      "¼": 129,
      "½": 130,
      "¾": 131,
      "¿": 132,
      "À": 133,
      "Á": 134,
      "Â": 135,
      "Ã": 136,
      "Ä": 137,
      "Å": 138,
      "Æ": 139,
      "Ç": 140,
      "È": 141,
      "É": 142,
      "Ê": 143,
      "Ë": 144,
      "Ì": 145,
      "Í": 146,
      "Î": 147,
      "Ï": 148,
      "Ð": 149,
      "Ñ": 150,
      "Ò": 151,
      "Ó": 152,
      "Ô": 153,
      "Õ": 154,
      "Ö": 155,
      "×": 156,
      "Ø": 157,
      "Ù": 158,
      "Ú": 159,
      "Û": 160,
      "Ü": 161,
      "Ý": 162,
      "Þ": 163,
      "ß": 164,
      "à": 165,
      "á": 166,
      "â": 167,
      "ã": 168,
      "ä": 169,
      "å": 170,
      "æ": 171,
      "ç": 172,
      "è": 173,
      "é": 174,
      "ê": 175,
      "ë": 176,
      "ì": 177,
      "í": 178,
      "î": 179,
      "ï": 180,
      "ð": 181,
      "ñ": 182,
      "ò": 183,
      "ó": 184,
      "ô": 185,
      "õ": 186,
      "ö": 187,
      "÷": 188,
      "ø": 189,
      "ù": 190,
      "ú": 191,
      "û": 192,
      "ü": 193,
      "ý": 194,
      "þ": 195,
      "ÿ": 196,
      "Ā": 197,
      "ā": 198,
      "Ă": 199,
      "ă": 200,
      "Ą": 201,
      "ą": 202,
      "Ć": 203,
      "ć": 204,
      "Ĉ": 205,
      "ĉ": 206,
      "Ċ": 207,
      "ċ": 208,
      "Č": 209,
      "č": 210,
      "Ď": 211,
      "ď": 212,
      "Đ": 213,
      "đ": 214,
      "Ē": 215,
      "ē": 216,
      "Ĕ": 217,
      "ĕ": 218,
      "Ė": 219,
      "ė": 220,
      "Ę": 221,
      "ę": 222,
      "Ě": 223,
      "ě": 224,
      "Ĝ": 225,
      "ĝ": 226,
      "Ğ": 227,
      "ğ": 228,
      "Ġ": 229,
      "ġ": 230,
      "Ģ": 231,
      "ģ": 232,
      "Ĥ": 233,
      "ĥ": 234,
      "Ħ": 235,
      "ħ": 236,
      "Ĩ": 237,
      "ĩ": 238,
      "Ī": 239,
      "ī": 240,
      "Ĭ": 241,
      "ĭ": 242,
      "Į": 243,
      "į": 244,
      "İ": 245,
      "ı": 246,
      "Ĳ": 247,
      "ĳ": 248,
      "Ĵ": 249,
      "ĵ": 250,
      "Ķ": 251,
      "ķ": 252,
      "ĸ": 253,
      "Ĺ": 254,
      "ĺ": 255,
      "Ļ": 256,
      "ļ": 257,
      "Ľ": 258,
      "ľ": 259,
      "Ŀ": 260,
      "ŀ": 261,
      "Ł": 262,
      "ł": 263,
      "Ń": 264,
      "Ġthe": 265,
      "Ġa": 266,
      "in": 267,
      "er": 268,
      "Ġt": 269,
      "tion": 270,
      "re": 271,
      "Ġo": 272,
      "Ġand": 273,
      "Ġs": 274,
      "Ġc": 275,
      "en": 276,
      "es": 277,
      "at": 278,
      "Ġw": 279,
      "Ġyou": 280,
      "ing": 281,
      "an": 282,
      "is": 283,
      "Ġp": 284,
      "it": 285,
      "or": 286,
      "Ġb": 287,
      "Ġf": 288,
      "al": 289,
      "ed": 290,
      "Ġm": 291,
      "Ġto": 292,
      "on": 293,
      "ar": 294,
      "Ġof": 295,
      "Ġin": 296,
      "Ġd": 297,
      "ro": 298,
      "ic": 299,
      "Ġh": 300,
      "le": 301,
      "as": 302,
      "Ġth": 303,
      "ou": 304,
      "ent": 305,
      "Ġe": 306,
      "Ġl": 307,
      "ĠTh": 308,
      "il": 309,
      "el": 310,
      "Ġre": 311,
      "om": 312,
      "us": 313,
      "Ġis": 314,
      "Ġwith": 315,
      ".Ċ": 316,
      "et": 317,
      "Ġn": 318,
      "ac": 319,
      "ec": 320,
      "Ġg": 321,
      "ve": 322,
      "ight": 323,
      "ow": 324,
      "ly": 325,
      "im": 326,
      "id": 327,
      "th": 328,
      "ol": 329,
      "ĠAnswer": 330,
      "Ġfor": 331,
      "st": 332,
      "ut": 333,
      "ur": 334,
      "Ġbe": 335,
      "ation": 336,
      "Ġon": 337,
      "Ġst": 338,
      "un": 339,
      "ĠI": 340,
      "Ġthat": 341,
      "ir": 342,
      "Ġwh": 343,
      "ot": 344,
      "ver": 345,
      "ay": 346,
      "Ġit": 347,
      "Ġare": 348,
      "am": 349,
      "ul": 350,
      "Ġhave": 351,
      "ce": 352,
      "Ġpro": 353,
      "ĠA": 354,
      "Ġfrom": 355,
      "ch": 356,
      "ad": 357,
      "if": 358,
      "Ġan": 359,
      "ter": 360,
      "ĠS": 361,
      "Ġor": 362,
      "Ġas": 363,
      "Ġcon": 364,
      ".ĊĊ": 365,
      "Ġal": 366,
      "od": 367,
      "se": 368,
      "Question": 369,
      "ĠC": 370,
      "ig": 371,
      "ts": 372,
      "ĊĊ": 373,
      "ould": 374,
      "Ġcan": 375,
      "ers": 376,
      "em": 377,
      "ke": 378,
      "ab": 379,
      "ag": 380,
      "ain": 381,
      "ess": 382,
      "Ġwill": 383,
      "ĠWh": 384,
      "ure": 385,
      "Ġcomp": 386,
      "um": 387,
      "Ġabout": 388,
      "Ġex": 389,
      "ore": 390,
      "Ġch": 391,
      "qu": 392,
      "Ġr": 393,
      "'s": 394,
      "ate": 395,
      "Ġyour": 396,
      "Ġv": 397,
      "op": 398,
      "Ġus": 399,
      "ct": 400,
      "ies": 401,
      "ap": 402,
      "ity": 403,
      "ĠThe": 404,
      "The": 405,
      "Ġsh": 406,
      "os": 407,
      "ive": 408,
      "ĠP": 409,
      "ĠM": 410,
      "up": 411,
      "ant": 412,
      "and": 413,
      "Ġimp": 414,
      "ĠB": 415,
      "iv": 416,
      "Ġen": 417,
      "Ġ(": 418,
      "Ġthrough": 419,
      "est": 420,
      "Ġwhich": 421,
      "ment": 422,
      "Ġinclud": 423,
      "Ġat": 424,
      "Ġsp": 425,
      "Ġknow": 426,
      "Ġne": 427,
      "ial": 428,
      "Ġalso": 429,
      "ion": 430,
      "ist": 431,
      "Ġle": 432,
      "Ġdo": 433,
      "ere": 434,
      "ect": 435,
      "Ġdiffer": 436,
      "ook": 437,
      "ome": 438,
      "Ġapp": 439,
      "Ġde": 440,
      "Ġyear": 441,
      "ĠD": 442,
      "Ġtr": 443,
      "Ġpl": 444,
      "Ġwe": 445,
      "Ġby": 446,
      "res": 447,
      "ĠH": 448,
      "Ġse": 449,
      "uc": 450,
      "Ġunder": 451,
      "oc": 452,
      "Ġother": 453,
      "all": 454,
      "Ġnot": 455,
      "ip": 456,
      "ust": 457,
      "ĠF": 458,
      "Ġhe": 459,
      "Ġbetween": 460,
      "ell": 461,
      "Ġthis": 462,
      "ical": 463,
      "Ġpeople": 464,
      "ort": 465,
      "Ġwork": 466,
      "Ġbecause": 467,
      "ĠT": 468,
      "ib": 469,
      "art": 470,
      "Ġsystem": 471,
      "oun": 472,
      "Ġinto": 473,
      "ĠE": 474,
      "ine": 475,
      "ost": 476,
      "og": 477,
      "per": 478,
      "ard": 479,
      "Ġlike": 480,
      "ak": 481,
      "Ġtime": 482,
      "ide": 483,
      "our": 484,
      "ge": 485,
      "form": 486,
      "ĠR": 487,
      "Ġhelp": 488,
      "act": 489,
      "âĢ": 490,
      "Ġthey": 491,
      "Ġtheir": 492,
      "ff": 493,
      "ood": 494,
      "iz": 495,
      "Ġcomm": 496,
      "ill": 497,
      "Ġsu": 498,
      "ast": 499,
      "are": 500,
      "av": 501,
      "ater": 502,
      "ach": 503,
      "ĠW": 504,
      "Ġad": 505,
      "ĠN": 506,
      "round": 507,
      "Ġstud": 508,
      "Ġdevelop": 509,
      "Ġhigh": 510,
      "able": 511,
      "Ġall": 512,
      "ĠL": 513,
      "ep": 514,
      "ake": 515,
      "age": 516,
      "Ġmore": 517,
      "Ġwas": 518,
      "ated": 519,
      "end": 520,
      "ough": 521,
      "Ġacc": 522,
      "Ġenvironment": 523,
      "ĠG": 524,
      "Ġcont": 525,
      "Ġtechn": 526,
      "Ġbut": 527,
      "pl": 528,
      "ack": 529,
      "ally": 530,
      "Ġso": 531,
      "ious": 532,
      "ans": 533,
      "ind": 534,
      "ence": 535,
      "ĠO": 536,
      "ition": 537,
      "ĠIn": 538,
      "Ġj": 539,
      "Ġcl": 540,
      "ong": 541,
      "Ġres": 542,
      "Ġdesign": 543,
      "ance": 544,
      "Ġdis": 545,
      "Ġhas": 546,
      "Ġresearch": 547,
      "Ġun": 548,
      "ire": 549,
      "Ġout": 550,
      "Ġ\"": 551,
      "Ġtyp": 552,
      "Ġme": 553,
      "ations": 554,
      "ens": 555,
      "oth": 556,
      "ents": 557,
      "Ġmany": 558,
      "Ġincreas": 559,
      "Ġro": 560,
      "Ġpre": 561,
      "'t": 562,
      "Ġhealth": 563,
      "ult": 564,
      "one": 565,
      "her": 566,
      "reat": 567,
      "Ġone": 568,
      "Ġfe": 569,
      "Ġworld": 570,
      "ely": 571,
      "very": 572,
      "ace": 573,
      "ue": 574,
      "Ġindividual": 575,
      "Ġup": 576,
      "ry": 577,
      "Ġtwo": 578,
      "20": 579,
      "Ġthem": 580,
      "ice": 581,
      "ass": 582,
      "Ġfollow": 583,
      "ie": 584,
      "ĠU": 585,
      "ors": 586,
      "Ġproblem": 587,
      "Ġper": 588,
      "Ġtemperature": 589,
      "Ġfirst": 590,
      "ary": 591,
      "ose": 592,
      "ish": 593,
      "ress": 594,
      "Ġenergy": 595,
      "Ġpr": 596,
      "ild": 597,
      "Ġwhen": 598,
      "Ġqu": 599,
      "ĠIt": 600,
      "Ġsome": 601,
      "Ġfl": 602,
      "ile": 603,
      "tions": 604,
      "Ġprocess": 605,
      "Ġcaus": 606,
      "Ġev": 607,
      "Ġelectr": 608,
      "Ġif": 609,
      "ia": 610,
      "Ġsign": 611,
      "Ġsc": 612,
      "ail": 613,
      "ame": 614,
      "Ġgrow": 615,
      "ord": 616,
      "Ġconsider": 617,
      "Ġneed": 618,
      "duc": 619,
      "ays": 620,
      "ting": 621,
      "ase": 622,
      "ĠWhat": 623,
      "Ġuse": 624,
      "ite": 625,
      "Ġcol": 626,
      "Ġhow": 627,
      "ĠThis": 628,
      "ren": 629,
      "ĠY": 630,
      "Ġlearn": 631,
      "Ġsupp": 632,
      "ound": 633,
      "Ġmay": 634,
      "ick": 635,
      "Ġte": 636,
      "Ġmuch": 637,
      "Ġsomething": 638,
      "Ġthan": 639,
      "Ġits": 640,
      "Ġbl": 641,
      "Ġk": 642,
      "ang": 643,
      "ber": 644,
      "Ġar": 645,
      "Ġthere": 646,
      "ra": 647,
      "ology": 648,
      "Ġover": 649,
      "Ġpossib": 650,
      "Ġbenefit": 651,
      "Ġimportant": 652,
      "ĠâĢĵ": 653,
      "ri": 654,
      "Ġany": 655,
      "Ġrec": 656,
      "ating": 657,
      "Ġprogram": 658,
      "ub": 659,
      "les": 660,
      "ree": 661,
      "Ġgener": 662,
      "Ġsmall": 663,
      "ific": 664,
      "ks": 665,
      "Ġspec": 666,
      "Ġgo": 667,
      "Ġab": 668,
      "Ġthese": 669,
      "enc": 670,
      "Ġget": 671,
      "Ġmethod": 672,
      "Ġafter": 673,
      "Ġpart": 674,
      "ings": 675,
      "ond": 676,
      "Ġsa": 677,
      "Ġop": 678,
      "Ġco": 679,
      "Ġwater": 680,
      "ĠUniversity": 681,
      "ru": 682,
      "te": 683,
      "Ġph": 684,
      "Ġdown": 685,
      "Ġinter": 686,
      "Ġused": 687,
      "Ġour": 688,
      "Wh": 689,
      "ten": 690,
      "Ġwhat": 691,
      "Ġexample": 692,
      "ons": 693,
      "ower": 694,
      "Ġbefore": 695,
      "als": 696,
      "Ġeff": 697,
      "Ġown": 698,
      "Ġduring": 699,
      "Ġschool": 700,
      "ory": 701,
      "Ġlevel": 702,
      "ular": 703,
      "Ġespecially": 704,
      "Ġmost": 705,
      "Ġmo": 706,
      "Ġoff": 707,
      "erv": 708,
      "Ġsymptoms": 709,
      "ĠJ": 710,
      "ll": 711,
      "Ġbr": 712,
      "Ġmake": 713,
      "ĠHowever": 714,
      "Ġpotential": 715,
      "Ġkeep": 716,
      "Ġwho": 717,
      "Ġexperi": 718,
      "Ġlife": 719,
      "Ġnew": 720,
      "Ġsuch": 721,
      "Ġprov": 722,
      "Ġam": 723,
      "Ġmaterial": 724,
      "ient": 725,
      "Ġbody": 726,
      "ous": 727,
      "Ġshould": 728,
      "ud": 729,
      "Ġadd": 730,
      "Ġgr": 731,
      "Ġag": 732,
      "Th": 733,
      "Ġcar": 734,
      "ear": 735,
      "ric": 736,
      "ink": 737,
      "Ġmade": 738,
      "oint": 739,
      "ys": 740,
      "duce": 741,
      "ful": 742,
      "erm": 743,
      "ates": 744,
      "Ġperson": 745,
      "Ġac": 746,
      "Ġwere": 747,
      "xt": 748,
      "ĠSt": 749,
      "ility": 750,
      "ne": 751,
      "Ġnatural": 752,
      "Ġcurrent": 753,
      "Ġbeen": 754,
      "Ġem": 755,
      "Ġwould": 756,
      "Ġact": 757,
      "ount": 758,
      "Ġdata": 759,
      "ark": 760,
      "Ġunderstand": 761,
      "anc": 762,
      "Ġfunction": 763,
      "Ġcondition": 764,
      "Ġjust": 765,
      "ĠAmeric": 766,
      "Ġno": 767,
      "ug": 768,
      "Ġrequire": 769,
      "Ġlittle": 770,
      "Ġdi": 771,
      "ics": 772,
      "Ġonly": 773,
      "ĠAn": 774,
      "10": 775,
      "Ġinformation": 776,
      "rop": 777,
      "ities": 778,
      "ĠCh": 779,
      "duct": 780,
      "ange": 781,
      "ĠK": 782,
      "Ġorgan": 783,
      "out": 784,
      "Ġcom": 785,
      "aking": 786,
      "Ġsur": 787,
      "ograph": 788,
      "ield": 789,
      "In": 790,
      "ĠV": 791,
      "Ġwell": 792,
      "ures": 793,
      "Ġavailable": 794,
      "Ġvari": 795,
      "ise": 796,
      "Ġnumber": 797,
      "ĠThese": 798,
      "Ġdoes": 799,
      "ants": 800,
      "Ġmy": 801,
      "old": 802,
      "Ġbetter": 803,
      "Ġreg": 804,
      "lic": 805,
      "Ġrep": 806,
      "Ġrel": 807,
      "Ġessential": 808,
      "Ġman": 809,
      "Ġdifficult": 810,
      "...": 811,
      "tain": 812,
      "vers": 813,
      "Ġdifferent": 814,
      "ments": 815,
      "Ġbuild": 816,
      "Ġexp": 817,
      "Ġrem": 818,
      "arm": 819,
      "ob": 820,
      "ath": 821,
      "olution": 822,
      "Ġcre": 823,
      "Ġwhere": 824,
      "?Ċ": 825,
      "Ġoccur": 826,
      "urn": 827,
      "Ġlong": 828,
      "19": 829,
      "ually": 830,
      "Ġind": 831,
      "Ġ-": 832,
      "ects": 833,
      "get": 834,
      "Ġform": 835,
      "Ġway": 836,
      "ize": 837,
      "Ġins": 838,
      "Ġdec": 839,
      "Ġcr": 840,
      "Ġmod": 841,
      "Ġhapp": 842,
      "Ġim": 843,
      "der": 844,
      "Ġcharacter": 845,
      "Ġcons": 846,
      "pt": 847,
      "ross": 848,
      "Ġrecommend": 849,
      "Ġtrans": 850,
      "Ġfood": 851,
      "Ġsim": 852,
      "ft": 853,
      "ative": 854,
      "Ġbehavi": 855,
      "Ġhuman": 856,
      "Ġusing": 857,
      "ĠIf": 858,
      "Ġfamily": 859,
      "Ġcould": 860,
      "Ġob": 861,
      "Ġgroup": 862,
      "Ġcontrol": 863,
      "Ġsuccess": 864,
      "ph": 865,
      "Ġthen": 866,
      "fer": 867,
      "Ġinvolv": 868,
      "Ġchildren": 869,
      "Ġlarge": 870,
      "Ġevery": 871,
      "Ġeven": 872,
      "Ġinst": 873,
      "Ġlook": 874,
      "ions": 875,
      "Ġdr": 876,
      "Ġstr": 877,
      "lect": 878,
      "atter": 879,
      "Ġdet": 880,
      "Ġmain": 881,
      "ĠThey": 882,
      "Ġass": 883,
      "Ġproduc": 884,
      "Ġdescrib": 885,
      "ov": 886,
      "ique": 887,
      "ual": 888,
      "Ġcalled": 889,
      "iss": 890,
      "Ġlikely": 891,
      "ically": 892,
      "its": 893,
      "Ġinf": 894,
      "Ġclean": 895,
      "Ġvery": 896,
      "'re": 897,
      "Ġsee": 898,
      "Ġbusiness": 899,
      "ich": 900,
      "ian": 901,
      "Ġprofession": 902,
      "Ġidentif": 903,
      "aw": 904,
      "Ġlight": 905,
      "ines": 906,
      "ning": 907,
      "Ġissues": 908,
      "ove": 909,
      "Ġsk": 910,
      "ĠYou": 911,
      "Ġavoid": 912,
      "Ġsec": 913,
      "cl": 914,
      "Ġback": 915,
      "Ġsub": 916,
      "Ġmajor": 917,
      "air": 918,
      "ject": 919,
      "Ġbas": 920,
      "Ġext": 921,
      "ith": 922,
      "ness": 923,
      "Ġint": 924,
      "?ĊĊ": 925,
      "Ġmin": 926,
      "Ġdon": 927,
      "Ġgood": 928,
      "orm": 929,
      "Ġeach": 930,
      "ple": 931,
      "00": 932,
      "ock": 933,
      "Ġprevent": 934,
      "Ġanother": 935,
      "Ġbecome": 936,
      "Ġyears": 937,
      "elf": 938,
      "Ġshow": 939,
      "Ġdog": 940,
      "Ġfind": 941,
      "ices": 942,
      "Ġvarious": 943,
      "Ġset": 944,
      "oy": 945,
      "ied": 946,
      "Ġalways": 947,
      "Ġcells": 948,
      "ety": 949,
      "ources": 950,
      "Ġwhile": 951,
      "Ġhad": 952,
      "akes": 953,
      "red": 954,
      "he": 955,
      "Ġdisc": 956,
      "Ġear": 957,
      "Ġgl": 958,
      ").": 959,
      "row": 960,
      "ont": 961,
      "work": 962,
      "ands": 963,
      "Ġtake": 964,
      "Ġair": 965,
      "ven": 966,
      "Ġmed": 967,
      "Ġstruct": 968,
      "Ġhis": 969,
      "Ġeducation": 970,
      "Ġwant": 971,
      "Ġfound": 972,
      "Ġfocus": 973,
      "ometimes": 974,
      "Ġpres": 975,
      "Ġauthor": 976,
      "Ġart": 977,
      "ists": 978,
      "ages": 979,
      "gg": 980,
      "ality": 981,
      "ĠAs": 982,
      "ern": 983,
      "els": 984,
      "Ġsignificant": 985,
      "Ġpo": 986,
      "Ġy": 987,
      "Ġbeing": 988,
      "Ġbre": 989,
      "Ġensure": 990,
      "Ġeas": 991,
      "Ġvehic": 992,
      "Ġseveral": 993,
      "Ġatt": 994,
      "Ġcirc": 995,
      "Ġdisease": 996,
      "Ġaround": 997,
      "Ġdirect": 998,
      "ix": 999,
      "ins": 1000,
      "),": 1001,
      "Ġanimals": 1002,
      "Ġher": 1003,
      "ible": 1004,
      "Ġtimes": 1005,
      "Ġrisk": 1006,
      "io": 1007,
      "Ġkey": 1008,
      "Ġresp": 1009,
      "ĠWe": 1010,
      "Ġsl": 1011,
      "ement": 1012,
      "Ġallow": 1013,
      "Ġnecessary": 1014,
      "Ġfurther": 1015,
      "atch": 1016,
      "ribut": 1017,
      "Ġmonth": 1018,
      "rit": 1019,
      "Ġbo": 1020,
      "Ġmanufactur": 1021,
      "Ġcomple": 1022,
      "ted": 1023,
      "ew": 1024,
      "Ġbel": 1025,
      "Ġloc": 1026,
      "Ġengine": 1027,
      "Ġstart": 1028,
      "ium": 1029,
      "ives": 1030,
      "Ġdep": 1031,
      "Ġcor": 1032,
      "Ġalready": 1033,
      "Ġsame": 1034,
      "Ġestablish": 1035,
      "Ġmechan": 1036,
      "Ġdist": 1037,
      "Ġexpl": 1038,
      "Ġprotect": 1039,
      "ized": 1040,
      "ets": 1041,
      "olog": 1042,
      "Ġsurface": 1043,
      "Ġoften": 1044,
      "view": 1045,
      "ection": 1046,
      "Ġval": 1047,
      "Ġcertain": 1048,
      "ger": 1049,
      "Ġboth": 1050,
      "Ġthose": 1051,
      "Ġlead": 1052,
      "Ġpower": 1053,
      "ational": 1054,
      "Ġknowledge": 1055,
      "Ġbird": 1056,
      "Ġadv": 1057,
      "ĠâĢ": 1058,
      ".\"": 1059,
      "Ġpartic": 1060,
      "Ġchalleng": 1061,
      "Ġimprove": 1062,
      "Ġend": 1063,
      "ward": 1064,
      "Ġanswer": 1065,
      "Ġthemselves": 1066,
      "Ġent": 1067,
      "Ġpressure": 1068,
      "Ġbest": 1069,
      "rom": 1070,
      ":Ċ": 1071,
      "Ġtogether": 1072,
      "Ġfact": 1073,
      "ather": 1074,
      "Ġright": 1075,
      "oss": 1076,
      "Ġuntil": 1077,
      "Ġtoo": 1078,
      "Ġopportun": 1079,
      "Ġpar": 1080,
      "Ġvis": 1081,
      "Ġread": 1082,
      "Ġsince": 1083,
      "ism": 1084,
      "ale": 1085,
      "Ġprovid": 1086,
      "Ġsw": 1087,
      "Ġaway": 1088,
      "What": 1089,
      "Ġmet": 1090,
      "tern": 1091,
      "Ġplant": 1092,
      "ull": 1093,
      "Ġgu": 1094,
      "ats": 1095,
      "ature": 1096,
      "Ġcommon": 1097,
      "ty": 1098,
      "Ġless": 1099,
      "Ġcare": 1100,
      "Ġcheck": 1101,
      "Ġpop": 1102,
      "Ġeffect": 1103,
      "Ġcap": 1104,
      "ience": 1105,
      "reen": 1106,
      "Ġtechniques": 1107,
      "Ġplay": 1108,
      "ĠPro": 1109,
      "Ġfr": 1110,
      "ign": 1111,
      "ĠFor": 1112,
      "iciency": 1113,
      "iving": 1114,
      "Ġaffect": 1115,
      "str": 1116,
      "Ġhaving": 1117,
      "Ġresults": 1118,
      "Ġthink": 1119,
      "ash": 1120,
      "Ġhome": 1121,
      "ax": 1122,
      "Ġday": 1123,
      "Ġgarden": 1124,
      "Ġsol": 1125,
      "ier": 1126,
      "ld": 1127,
      "ave": 1128,
      "Ġperiod": 1129,
      "Ġothers": 1130,
      "Ġcourse": 1131,
      "ef": 1132,
      "-b": 1133,
      "ains": 1134,
      "gr": 1135,
      "Ġsaid": 1136,
      "ĠHe": 1137,
      "Ġ'": 1138,
      "Ġtreatment": 1139,
      "Ġchanges": 1140,
      "ases": 1141,
      "How": 1142,
      "Ġpatients": 1143,
      "Ġsocial": 1144,
      "Ġassociated": 1145,
      "eed": 1146,
      "ĠEn": 1147,
      "Ġstrength": 1148,
      "Ġinv": 1149,
      "Ġdef": 1150,
      "ited": 1151,
      "ugh": 1152,
      "Ġcustom": 1153,
      "Ġapproach": 1154,
      "ĠTo": 1155,
      "ason": 1156,
      "Ġmeasure": 1157,
      "Ġhand": 1158,
      "Ġsimilar": 1159,
      "Ġcommun": 1160,
      "Ġgen": 1161,
      "lec": 1162,
      "Ġproper": 1163,
      "Ġspecies": 1164,
      "-s": 1165,
      "âĢĻs": 1166,
      "ily": 1167,
      "ĠAl": 1168,
      "Ġfun": 1169,
      "over": 1170,
      "Ġeconom": 1171,
      "Ġrelationship": 1172,
      "Ġpositive": 1173,
      "ids": 1174,
      "Ġeye": 1175,
      "Ġclear": 1176,
      "any": 1177,
      "Ġmight": 1178,
      "Ġdraw": 1179,
      "Ġprobably": 1180,
      "ush": 1181,
      "Ġfriend": 1182,
      "12": 1183,
      "Ġmultiple": 1184,
      "Ġequ": 1185,
      "king": 1186,
      "Ġfuture": 1187,
      "ots": 1188,
      "cent": 1189,
      "Ġnow": 1190,
      "Ġprovide": 1191,
      "Ġplan": 1192,
      "erg": 1193,
      "ade": 1194,
      ",\"": 1195,
      "Ġstudy": 1196,
      "Ġsaf": 1197,
      "Ġserv": 1198,
      "Ġactiv": 1199,
      "Ġtraditional": 1200,
      "Ġdamage": 1201,
      "Ġfew": 1202,
      "Ġfrequ": 1203,
      "This": 1204,
      "Ġmarket": 1205,
      "day": 1206,
      "Ġpaper": 1207,
      "ability": 1208,
      "Ġaccording": 1209,
      "ences": 1210,
      "Ġpol": 1211,
      "Ġhouse": 1212,
      "ym": 1213,
      "Ġcho": 1214,
      "Ġbegin": 1215,
      "Ġtop": 1216,
      "Ġlength": 1217,
      "Ġagainst": 1218,
      "Ġpur": 1219,
      "Ġstudents": 1220,
      "ead": 1221,
      "Ġcent": 1222,
      "Ġgreat": 1223,
      "Ġwithout": 1224,
      "yn": 1225,
      "ump": 1226,
      "Ġdid": 1227,
      "Ġclass": 1228,
      "ĠUn": 1229,
      "Ġcreat": 1230,
      "Ġpublished": 1231,
      "Ġpublic": 1232,
      "Ġpiec": 1233,
      "Ġgiven": 1234,
      "Ġstill": 1235,
      "An": 1236,
      "Ġchemical": 1237,
      "Ġplants": 1238,
      "br": 1239,
      "ars": 1240,
      "Ġconnect": 1241,
      "Ġbacteria": 1242,
      "Ġview": 1243,
      "Ġphysical": 1244,
      "Ġmaking": 1245,
      "---------": 1246,
      "Ġecosystem": 1247,
      "Ġachie": 1248,
      "Ġsingle": 1249,
      "Ġincluding": 1250,
      "Ġshe": 1251,
      "Ġsm": 1252,
      "inal": 1253,
      "Ġdiscuss": 1254,
      "Ġmentioned": 1255,
      "If": 1256,
      "Ġchange": 1257,
      "Ġbi": 1258,
      "ĠEurope": 1259,
      "line": 1260,
      "Ġmicro": 1261,
      "Ġstandard": 1262,
      "Ġweek": 1263,
      "aining": 1264,
      ":ĊĊ": 1265,
      "Ġpain": 1266,
      "Ġtext": 1267,
      "Ġsource": 1268,
      "Ġsummer": 1269,
      "ĠBut": 1270,
      "Ġtest": 1271,
      "Ġclimate": 1272,
      "ĠThere": 1273,
      "orth": 1274,
      "Ġcreate": 1275,
      "ulation": 1276,
      "ared": 1277,
      "Ġanimal": 1278,
      "Ġlanguage": 1279,
      "Ġskills": 1280,
      "Ġoxygen": 1281,
      "Ġsoftware": 1282,
      "etic": 1283,
      "Ġtype": 1284,
      "ĠAnd": 1285,
      "It": 1286,
      "Ġpattern": 1287,
      "Ġref": 1288,
      "Ġknown": 1289,
      "ering": 1290,
      "Ġdigital": 1291,
      "crip": 1292,
      "Ġser": 1293,
      "Ġparen": 1294,
      "Ġeither": 1295,
      "less": 1296,
      "com": 1297,
      "agn": 1298,
      "ecause": 1299,
      "Ġhy": 1300,
      "Ġide": 1301,
      "Ġrequires": 1302,
      "Ġingredients": 1303,
      "-f": 1304,
      "ccording": 1305,
      "Ġquestion": 1306,
      "Ġmem": 1307,
      "ying": 1308,
      "ately": 1309,
      "Ġcarbon": 1310,
      "bs": 1311,
      "Ġpract": 1312,
      "to": 1313,
      "15": 1314,
      "Ġsupport": 1315,
      "ips": 1316,
      "ape": 1317,
      "Ġbeautiful": 1318,
      "ex": 1319,
      "ner": 1320,
      "ĠCalifornia": 1321,
      "ĠCom": 1322,
      "Ġwhether": 1323,
      "Ġenjoy": 1324,
      "Ġcause": 1325,
      "Ġrun": 1326,
      "Ġanalysis": 1327,
      "ĠSp": 1328,
      "Ġveget": 1329,
      "Ġhours": 1330,
      "uring": 1331,
      "Ġcomputer": 1332,
      "ters": 1333,
      "Ġthough": 1334,
      "ues": 1335,
      "Ġfeel": 1336,
      "Ġthree": 1337,
      "ĠResearch": 1338,
      "ased": 1339,
      "'ll": 1340,
      "Ġposition": 1341,
      "Ġsure": 1342,
      "ert": 1343,
      "eg": 1344,
      "wh": 1345,
      "ively": 1346,
      "Ġperform": 1347,
      "amp": 1348,
      "ĠHow": 1349,
      "ator": 1350,
      "ever": 1351,
      "Ġthings": 1352,
      "outh": 1353,
      "30": 1354,
      "ved": 1355,
      "Ġcal": 1356,
      "Ġhistory": 1357,
      "Ġindustry": 1358,
      "18": 1359,
      "Ġcombin": 1360,
      "erc": 1361,
      "ĠAd": 1362,
      "Ġmust": 1363,
      "Ġdel": 1364,
      "ustr": 1365,
      "tim": 1366,
      "Ġfeatures": 1367,
      "Ġhard": 1368,
      "ĠWhen": 1369,
      "Ġarea": 1370,
      "Ġplace": 1371,
      "ĠSchool": 1372,
      "iver": 1373,
      "Ġcost": 1374,
      "Ġlow": 1375,
      "Ġele": 1376,
      "Ġexc": 1377,
      "Ġincorpor": 1378,
      "Ġtools": 1379,
      "ĠAr": 1380,
      "ural": 1381,
      "ĠSo": 1382,
      "Ġbu": 1383,
      "Ġleaves": 1384,
      "Ġsustain": 1385,
      "Ġphot": 1386,
      "az": 1387,
      "ental": 1388,
      "Ġdev": 1389,
      "Ġarticle": 1390,
      "ently": 1391,
      "Ġcontin": 1392,
      "Ġcountries": 1393,
      "Ġwithin": 1394,
      "pos": 1395,
      "Ġwhy": 1396,
      "Ġdes": 1397,
      "Ġhumans": 1398,
      "Ġquestions": 1399,
      "Ġstrateg": 1400,
      "Ġmusc": 1401,
      "Ġstep": 1402,
      "Ġresult": 1403,
      "Ġturn": 1404,
      "'ve": 1405,
      "like": 1406,
      "Ġperfect": 1407,
      "Ġbecom": 1408,
      "Ġexperience": 1409,
      "Ġreal": 1410,
      "Ġmove": 1411,
      "-c": 1412,
      "Ġnumbers": 1413,
      "Ġcamera": 1414,
      "itch": 1415,
      "ee": 1416,
      "of": 1417,
      "cept": 1418,
      "amples": 1419,
      "ute": 1420,
      "Ġmonitor": 1421,
      "Ġinclude": 1422,
      "par": 1423,
      "Ġbott": 1424,
      "Ġtrees": 1425,
      "Ġable": 1426,
      "Ġcancer": 1427,
      "Ġsit": 1428,
      "Ġyoung": 1429,
      "Ġspecific": 1430,
      "ank": 1431,
      "Ġcorrect": 1432,
      "Ġfish": 1433,
      "Ġreally": 1434,
      "Ġdue": 1435,
      "arg": 1436,
      "ior": 1437,
      "Ġimm": 1438,
      "ract": 1439,
      "Ġfollowing": 1440,
      "Ġrest": 1441,
      "Ġterm": 1442,
      "ĠSh": 1443,
      "Ġminutes": 1444,
      "orts": 1445,
      "ĠSc": 1446,
      "ycle": 1447,
      "Ġprin": 1448,
      "Ġpossible": 1449,
      "the": 1450,
      "Ġmillion": 1451,
      "Ġvideo": 1452,
      "Ġpoint": 1453,
      "Ġaddition": 1454,
      "lu": 1455,
      "ling": 1456,
      "Ġcolor": 1457,
      "Ġcrucial": 1458,
      "aces": 1459,
      "50": 1460,
      "Ġmoney": 1461,
      "Ġel": 1462,
      "Ġprimary": 1463,
      "Ġgoing": 1464,
      "Ġhead": 1465,
      "ĠPl": 1466,
      "Ġconf": 1467,
      "Ġcome": 1468,
      "pr": 1469,
      "Ġput": 1470,
      "read": 1471,
      "ems": 1472,
      "ization": 1473,
      "rap": 1474,
      "Ġsoil": 1475,
      "Ġoper": 1476,
      "ests": 1477,
      "Ġlot": 1478,
      "ving": 1479,
      "Ġlim": 1480,
      "Ġsleep": 1481,
      "Ġhere": 1482,
      "Ġetc": 1483,
      "Ġquickly": 1484,
      "ides": 1485,
      "Ġblood": 1486,
      "St": 1487,
      "Ġmanagement": 1488,
      "11": 1489,
      "Ġexperim": 1490,
      "ildlife": 1491,
      "Ġrecogn": 1492,
      "Ġdemonstr": 1493,
      "Ġgovernment": 1494,
      "Ġyourself": 1495,
      "Ġfil": 1496,
      "ech": 1497,
      "Ġcomfort": 1498,
      "Ġopen": 1499,
      "Ġmeans": 1500,
      "thing": 1501,
      "oot": 1502,
      "ances": 1503,
      "Ġconcern": 1504,
      "Ġneeds": 1505,
      "Ġlet": 1506,
      "Ġeyes": 1507,
      "land": 1508,
      "Ġsecond": 1509,
      "ones": 1510,
      "ĠWhich": 1511,
      "Ġnut": 1512,
      "ict": 1513,
      "Ġappropriate": 1514,
      "put": 1515,
      "Ġed": 1516,
      "Ġextrem": 1517,
      "Ġfree": 1518,
      "Ġteach": 1519,
      "aste": 1520,
      "Ġpass": 1521,
      "Ġaverage": 1522,
      "Ġwomen": 1523,
      "Ġheat": 1524,
      "ĠIs": 1525,
      "Ġlo": 1526,
      "Ġoutside": 1527,
      "Ġant": 1528,
      "ton": 1529,
      "ane": 1530,
      "Ġbook": 1531,
      "Ġsense": 1532,
      "Ġflow": 1533,
      "Ġsay": 1534,
      "Ġprotein": 1535,
      "Ġalgorithm": 1536,
      "action": 1537,
      "Ġtypes": 1538,
      "ember": 1539,
      "Ġcut": 1540,
      "Ġissue": 1541,
      "Ġsimply": 1542,
      "Ġfin": 1543,
      "Ġsize": 1544,
      "Ġdirection": 1545,
      "Ġhalf": 1546,
      "Ġnormal": 1547,
      "af": 1548,
      "ĠTr": 1549,
      "Ġrepresent": 1550,
      "Ġtarget": 1551,
      "ĠOn": 1552,
      "oes": 1553,
      "Ġmachine": 1554,
      "Ġcat": 1555,
      "-d": 1556,
      "ribution": 1557,
      "Ġlast": 1558,
      "Ġreduc": 1559,
      "Ġareas": 1560,
      "Ġscientists": 1561,
      "ency": 1562,
      "own": 1563,
      "ident": 1564,
      "Ġvol": 1565,
      "Ġcannot": 1566,
      "Ġalcohol": 1567,
      "Ġlearning": 1568,
      "Ġalmost": 1569,
      "ode": 1570,
      "Ġret": 1571,
      "Ġlay": 1572,
      "Ġwinter": 1573,
      "Ġmean": 1574,
      "ox": 1575,
      "Ġspace": 1576,
      "Ġdevelopment": 1577,
      "Ġrange": 1578,
      "Ġfresh": 1579,
      "Ġattention": 1580,
      "Ġprom": 1581,
      "Ġpresent": 1582,
      "Ġteam": 1583,
      "ined": 1584,
      "ĠEx": 1585,
      "ending": 1586,
      "Ġbattery": 1587,
      "As": 1588,
      "Ġglobal": 1589,
      "aring": 1590,
      "Ġoil": 1591,
      "eter": 1592,
      "Ġemploy": 1593,
      "Ġmakes": 1594,
      "Ġobserv": 1595,
      "Ġfuel": 1596,
      "Ġintegr": 1597,
      "Ġenough": 1598,
      "Ġapplications": 1599,
      "Ġusually": 1600,
      "Ġlarger": 1601,
      "Ġgive": 1602,
      "Ġsuggest": 1603,
      "Ġautom": 1604,
      "Ġcountry": 1605,
      "port": 1606,
      "eth": 1607,
      "ev": 1608,
      "Ġquality": 1609,
      "amm": 1610,
      "Ġbig": 1611,
      "Ġfield": 1612,
      "Ġefficient": 1613,
      "Ġconstruction": 1614,
      "Ġhabit": 1615,
      "ping": 1616,
      "Ġbro": 1617,
      "âĢĶ": 1618,
      "Ġorder": 1619,
      "Ġaccess": 1620,
      "Ġsal": 1621,
      "Ġdetermine": 1622,
      "Ġspecial": 1623,
      "Ġbased": 1624,
      "Ġsystems": 1625,
      "We": 1626,
      "oci": 1627,
      "Ġsens": 1628,
      "Ġconditions": 1629,
      "ision": 1630,
      "Ġtechnology": 1631,
      "Ġchild": 1632,
      "atic": 1633,
      "ese": 1634,
      "-p": 1635,
      "ĠCl": 1636,
      "arch": 1637,
      "Ġmaterials": 1638,
      "Ġfac": 1639,
      "'m": 1640,
      "Ġatmosphere": 1641,
      "Ġtotal": 1642,
      "Ġpost": 1643,
      "Ġliquid": 1644,
      "ring": 1645,
      "Ġequipment": 1646,
      "rogen": 1647,
      "Ġtravel": 1648,
      "ĠEarth": 1649,
      "Ġ$": 1650,
      "pect": 1651,
      "alk": 1652,
      "16": 1653,
      "Ġlist": 1654,
      "Ġcook": 1655,
      "jects": 1656,
      "Ġcomponents": 1657,
      "Ġside": 1658,
      "igh": 1659,
      "Ġtaken": 1660,
      "Ġsup": 1661,
      "ories": 1662,
      "und": 1663,
      "Ġfeed": 1664,
      "uck": 1665,
      "Ġsn": 1666,
      "Ġparticular": 1667,
      "ah": 1668,
      "Ġpurpose": 1669,
      "ological": 1670,
      "aster": 1671,
      "14": 1672,
      "roduc": 1673,
      "Ġdocument": 1674,
      "ĠAf": 1675,
      "Ġmil": 1676,
      "Ġadjust": 1677,
      "Ġnon": 1678,
      "Ġsound": 1679,
      "yl": 1680,
      "ĠInd": 1681,
      "When": 1682,
      "ĠAdditionally": 1683,
      "Ġwind": 1684,
      "Ġdaily": 1685,
      "ĠPh": 1686,
      "ĠWith": 1687,
      "Ġplastic": 1688,
      "Ġjourney": 1689,
      "orn": 1690,
      "Ġencour": 1691,
      "ĠHealth": 1692,
      "Ġprevious": 1693,
      "clusion": 1694,
      "Ġcomprehensive": 1695,
      "Ġcollabor": 1696,
      "Ġwords": 1697,
      "Ġz": 1698,
      "Ġimpact": 1699,
      "Ġbehind": 1700,
      ")Ċ": 1701,
      "Ġcover": 1702,
      "Ġproblems": 1703,
      "ables": 1704,
      "Ġproperties": 1705,
      "Ġbelieve": 1706,
      "sh": 1707,
      "Ġdrug": 1708,
      "let": 1709,
      "_____": 1710,
      "Ġweight": 1711,
      "ves": 1712,
      "..": 1713,
      "Ġpsych": 1714,
      "aging": 1715,
      "Ġinterest": 1716,
      "Ġlevels": 1717,
      "led": 1718,
      "Ġsymbol": 1719,
      "ĠBy": 1720,
      "Ġline": 1721,
      "be": 1722,
      "Ġcur": 1723,
      "oor": 1724,
      "Ġfamil": 1725,
      "load": 1726,
      "Ġdiseases": 1727,
      "iting": 1728,
      "Ġnear": 1729,
      "Ġapproximately": 1730,
      "ication": 1731,
      "Ġsun": 1732,
      "ik": 1733,
      "Ġbeneficial": 1734,
      "ĠCan": 1735,
      "use": 1736,
      "eds": 1737,
      "Ġ&": 1738,
      "Ġamount": 1739,
      "Ġspeak": 1740,
      "ope": 1741,
      "amin": 1742,
      "Ġproject": 1743,
      "ĠNew": 1744,
      "ron": 1745,
      "Ġproducts": 1746,
      "Ġ=": 1747,
      "Ġdegrees": 1748,
      "13": 1749,
      "ĠDNA": 1750,
      "Ġtowards": 1751,
      "oll": 1752,
      "Ġworking": 1753,
      "ital": 1754,
      "Ġinc": 1755,
      "Ġcell": 1756,
      "Ġmaintain": 1757,
      "ote": 1758,
      "other": 1759,
      "Ġeggs": 1760,
      "Ġdays": 1761,
      "Ġmiddle": 1762,
      "You": 1763,
      "ury": 1764,
      "Ġfore": 1765,
      "Ġrepl": 1766,
      "Ġcomes": 1767,
      "Ġsugar": 1768,
      "board": 1769,
      "Ġstate": 1770,
      "Ġnext": 1771,
      "Ġproduct": 1772,
      "Ġcult": 1773,
      "Ġweeks": 1774,
      "Ġleg": 1775,
      "ĠEnvironment": 1776,
      "Ġaware": 1777,
      "tional": 1778,
      "Ġalong": 1779,
      "ored": 1780,
      "Ġkind": 1781,
      "Ġincrease": 1782,
      "Ġoffer": 1783,
      "Ġshort": 1784,
      "ired": 1785,
      "Ġeasy": 1786,
      "ble": 1787,
      "ĠEnglish": 1788,
      "Ġrele": 1789,
      "Ġresponse": 1790,
      "Ġearly": 1791,
      "Ġpoints": 1792,
      "osed": 1793,
      "-m": 1794,
      "Ġname": 1795,
      "ames": 1796,
      "Ġmaxim": 1797,
      "Ġcase": 1798,
      "Ġreduce": 1799,
      "une": 1800,
      "Ġhealthy": 1801,
      "17": 1802,
      "ĠThat": 1803,
      "Ġlocal": 1804,
      "There": 1805,
      "Ġstrong": 1806,
      "mission": 1807,
      "ced": 1808,
      "Ġrad": 1809,
      "Ġfull": 1810,
      "Ġdoesn": 1811,
      "light": 1812,
      "Ġred": 1813,
      "uch": 1814,
      "Ġhigher": 1815,
      "Ġgrowth": 1816,
      "ĠAt": 1817,
      "Ġold": 1818,
      "âĢ¦": 1819,
      "Ġlower": 1820,
      "Ġmembers": 1821,
      "Ġdogs": 1822,
      "Ġwarm": 1823,
      "ration": 1824,
      "Ġlab": 1825,
      "Ch": 1826,
      "Ġgreen": 1827,
      "Ġapplication": 1828,
      "Ġestim": 1829,
      "ped": 1830,
      "ators": 1831,
      "Ġground": 1832,
      "Ġevidence": 1833,
      "Ġappear": 1834,
      "ird": 1835,
      "Ġdry": 1836,
      "Ġexercise": 1837,
      "Ġactually": 1838,
      "ivers": 1839,
      "Ġimplement": 1840,
      "Ġdiabetes": 1841,
      "itive": 1842,
      "Ġwebsite": 1843,
      "Ġinstruc": 1844,
      "Ġrole": 1845,
      "Ġsimple": 1846,
      "Ġi": 1847,
      "Ġcompletely": 1848,
      "ams": 1849,
      "ising": 1850,
      "gan": 1851,
      "Ġleast": 1852,
      "ĠInstitute": 1853,
      "ised": 1854,
      "Ġconst": 1855,
      "Ġorig": 1856,
      "Ġtreat": 1857,
      "err": 1858,
      "Ġcontain": 1859,
      "Ġrece": 1860,
      "Ġbalance": 1861,
      "Ġreason": 1862,
      "Ġmodel": 1863,
      "Ġeat": 1864,
      "Ġdiet": 1865,
      "Ġways": 1866,
      "ene": 1867,
      "ivity": 1868,
      "Ġchallenge": 1869,
      "ruct": 1870,
      "ule": 1871,
      "ann": 1872,
      "Ġpatient": 1873,
      "Ġ[": 1874,
      "ery": 1875,
      "Ġage": 1876,
      "tle": 1877,
      "Ġir": 1878,
      "Ġvir": 1879,
      "Ġcalcul": 1880,
      "Ġpe": 1881,
      "Ġunique": 1882,
      "izing": 1883,
      "Ġmind": 1884,
      "Ġskin": 1885,
      "Ġanalyz": 1886,
      "Ġocc": 1887,
      "ilities": 1888,
      "Ġinvest": 1889,
      "atory": 1890,
      "Ġprogress": 1891,
      "Ġstyle": 1892,
      "Ġacross": 1893,
      "ified": 1894,
      "Ġmusic": 1895,
      "Ġproduction": 1896,
      "Ġinnov": 1897,
      "Ġspeed": 1898,
      "Ġwrit": 1899,
      "25": 1900,
      "Ġimmediately": 1901,
      "Ġgreater": 1902,
      "Ġpred": 1903,
      "Ġcritical": 1904,
      "ails": 1905,
      "Ġthing": 1906,
      "Ġbuilt": 1907,
      "ĠJohn": 1908,
      "Ġprincip": 1909,
      "Ġlifestyle": 1910,
      "Ġinitial": 1911,
      "ret": 1912,
      "ĠYour": 1913,
      "Ġscientific": 1914,
      "Ġreach": 1915,
      "Ġdone": 1916,
      "room": 1917,
      "Ġreasons": 1918,
      "ches": 1919,
      "though": 1920,
      "Ġvalue": 1921,
      "Ġnever": 1922,
      "Ġnetwork": 1923,
      "Ġfour": 1924,
      "Ġgas": 1925,
      "Ġabsor": 1926,
      "ĠSome": 1927,
      "Ġmotor": 1928,
      "Ġcompanies": 1929,
      "40": 1930,
      "aps": 1931,
      "Ġhim": 1932,
      "Ġcontroll": 1933,
      "Ġbreak": 1934,
      "Ġsays": 1935,
      "ĠBe": 1936,
      "Ġhelps": 1937,
      "Ġregular": 1938,
      "Ġfruit": 1939,
      "Ġintern": 1940,
      "Ġprot": 1941,
      "derstanding": 1942,
      "anced": 1943,
      "Ġloss": 1944,
      "we": 1945,
      "Ġpast": 1946,
      "Ġbenefits": 1947,
      "Ġcelebr": 1948,
      "ral": 1949,
      "Ġpopular": 1950,
      "Ġcool": 1951,
      "Ġheart": 1952,
      "Ġmaintenance": 1953,
      "Ġflu": 1954,
      "Ġenhance": 1955,
      "ules": 1956,
      "Ġcall": 1957,
      "Ġtry": 1958,
      "Ġlive": 1959,
      "Ġmar": 1960,
      "Ġvacc": 1961,
      "Ġmen": 1962,
      "To": 1963,
      "Ġste": 1964,
      "avor": 1965,
      "Ġbit": 1966,
      "!ĊĊ": 1967,
      "Ġlaw": 1968,
      "Ġwhite": 1969,
      "ĠWorld": 1970,
      "ĠCon": 1971,
      "aff": 1972,
      "Ġelectric": 1973,
      "Ġbaby": 1974,
      "Ġparts": 1975,
      "ĠAustral": 1976,
      "Ġimportance": 1977,
      "Ġabove": 1978,
      "Ġrecord": 1979,
      "sc": 1980,
      "ĠQ": 1981,
      "Ġworks": 1982,
      "ĠZ": 1983,
      "Ġlooking": 1984,
      "ived": 1985,
      "Ġpretty": 1986,
      "Ġeffects": 1987,
      "Ġappreci": 1988,
      "Ġrespons": 1989,
      "Ġdangerous": 1990,
      "co": 1991,
      "Ġreport": 1992,
      "ĠDepartment": 1993,
      "ĠBl": 1994,
      "Ġleft": 1995,
      "Ġland": 1996,
      "fficient": 1997,
      "Ġnegative": 1998,
      "Ġfar": 1999,
      "Ġunderstanding": 2000,
      "Ġclaim": 2001,
      "ards": 2002,
      ")ĊĊ": 2003,
      "Ġdesigned": 2004,
      "cep": 2005,
      "ows": 2006,
      "Ġfactors": 2007,
      "ume": 2008,
      "Ġutil": 2009,
      "uth": 2010,
      "Ġeng": 2011,
      "Ġfabric": 2012,
      "so": 2013,
      "Ġwr": 2014,
      "ĠâĢĶ": 2015,
      "ected": 2016,
      "Ġresistance": 2017,
      "itude": 2018,
      "Ġlandsc": 2019,
      "int": 2020,
      "ening": 2021,
      "Ġnumerous": 2022,
      "pe": 2023,
      "ression": 2024,
      "Ġanxiety": 2025,
      "Ġfarm": 2026,
      "Ġgraph": 2027,
      "Ġtherm": 2028,
      "pro": 2029,
      "Ġdisplay": 2030,
      "Ġtraining": 2031,
      "Ġcomplex": 2032,
      "ained": 2033,
      "utions": 2034,
      "eck": 2035,
      "Ġonce": 2036,
      "ĠRe": 2037,
      "Ġtoday": 2038,
      "yst": 2039,
      "ĠOr": 2040,
      "Ġpet": 2041,
      "Ġhold": 2042,
      "lection": 2043,
      "Ġwood": 2044,
      "Ġproduce": 2045,
      "Ġallows": 2046,
      "!Ċ": 2047,
      "ends": 2048,
      "Ġsmo": 2049,
      "Ġpregnancy": 2050,
      "hy": 2051,
      "acy": 2052,
      "Ġstress": 2053,
      "Ġensuring": 2054,
      "Ġevalu": 2055,
      "mit": 2056,
      "Ġconcrete": 2057,
      "Ġpercent": 2058,
      "Ġgetting": 2059,
      "mon": 2060,
      "For": 2061,
      "ensive": 2062,
      "Ġplatform": 2063,
      "Ġability": 2064,
      "Ġadapt": 2065,
      "Ġstop": 2066,
      "ournal": 2067,
      "Ġmass": 2068,
      "Ġprovides": 2069,
      "por": 2070,
      "Ġsatisf": 2071,
      "Ġrock": 2072,
      "Ġamong": 2073,
      "ĠDr": 2074,
      "Ġblack": 2075,
      "Ġfall": 2076,
      "ĠUS": 2077,
      "rown": 2078,
      "ime": 2079,
      "Ġnutrients": 2080,
      "Ġeffective": 2081,
      "ER": 2082,
      "Ġsuitable": 2083,
      "ĠĠĠ": 2084,
      "Ġvers": 2085,
      "Ġbreath": 2086,
      "Ġvariety": 2087,
      "Ġharvest": 2088,
      "ination": 2089,
      "fore": 2090,
      "Ġmatter": 2091,
      "Answer": 2092,
      "Ġrefer": 2093,
      "Ġbrain": 2094,
      "ĠAll": 2095,
      "Ġscience": 2096,
      "ener": 2097,
      "Ġdifference": 2098,
      "Ġprimarily": 2099,
      "Ġnutrition": 2100,
      "Ġroom": 2101,
      "ification": 2102,
      "ership": 2103,
      "Ġaircraft": 2104,
      "Ġhot": 2105,
      "ina": 2106,
      "ales": 2107,
      "ĠCOVID": 2108,
      "Ġyellow": 2109,
      "Ġheavy": 2110,
      "istic": 2111,
      "Ġnothing": 2112,
      "Ġtell": 2113,
      "ining": 2114,
      "Ġsafety": 2115,
      "Ġnaturally": 2116,
      "aged": 2117,
      "Ġgame": 2118,
      "ĠIm": 2119,
      "inc": 2120,
      "ĠOne": 2121,
      "Ġstat": 2122,
      "21": 2123,
      "Ġbelow": 2124,
      "ibr": 2125,
      "for": 2126,
      "lying": 2127,
      "Ġperformance": 2128,
      "aving": 2129,
      "Ġneeded": 2130,
      "Ġpersonal": 2131,
      "fl": 2132,
      "ught": 2133,
      "Ġsafe": 2134,
      "Ġcommunity": 2135,
      "Ġill": 2136,
      "ĠAI": 2137,
      "Ġhorse": 2138,
      ",Ċ": 2139,
      "Ġresearchers": 2140,
      "Ġpot": 2141,
      "Ġhyd": 2142,
      "Ġfully": 2143,
      "Ġevent": 2144,
      "Ġocean": 2145,
      "Ġdoing": 2146,
      "Ġindic": 2147,
      "ask": 2148,
      "Ġstorage": 2149,
      "ae": 2150,
      "Ġtree": 2151,
      "ores": 2152,
      "Ġmoment": 2153,
      "semb": 2154,
      "Ġliter": 2155,
      "ider": 2156,
      "Ġstructure": 2157,
      "ole": 2158,
      "Ġstraight": 2159,
      "oring": 2160,
      "Ġever": 2161,
      "Ġinside": 2162,
      "Ġmix": 2163,
      "acks": 2164,
      "Ġprof": 2165,
      "ream": 2166,
      "ming": 2167,
      "Ġexactly": 2168,
      "Ġsecurity": 2169,
      "Ġrapid": 2170,
      "Ġcontent": 2171,
      "ĠNOT": 2172,
      "60": 2173,
      "Ġwonder": 2174,
      "Ġagricult": 2175,
      "ĠCol": 2176,
      "Ġcharge": 2177,
      "Ġbeauty": 2178,
      "Ġsituation": 2179,
      "ĠFlorida": 2180,
      "Ġfat": 2181,
      "ĠNo": 2182,
      "Ġmixture": 2183,
      "ycl": 2184,
      "man": 2185,
      "Ġask": 2186,
      "Ġapplied": 2187,
      "Ġonline": 2188,
      "ension": 2189,
      "Ġactivities": 2190,
      "Ġimage": 2191,
      "Ġexist": 2192,
      "Ġexpert": 2193,
      "Ġexcellent": 2194,
      "24": 2195,
      "Ġlonger": 2196,
      "Ġdemand": 2197,
      "Ġarr": 2198,
      "Ġcommercial": 2199,
      "Ġmoisture": 2200,
      "Ġbuilding": 2201,
      "ĠTechn": 2202,
      "Ġaff": 2203,
      ".,": 2204,
      "ises": 2205,
      "Ġrequired": 2206,
      "Ġcircuit": 2207,
      "Ġseen": 2208,
      "-term": 2209,
      "Ġpath": 2210,
      "ther": 2211,
      "aced": 2212,
      "rel": 2213,
      "Ġdoctor": 2214,
      "ding": 2215,
      "Ġbirth": 2216,
      "Ġexposure": 2217,
      "Ġprefer": 2218,
      "fully": 2219,
      "Ġfunctions": 2220,
      "vert": 2221,
      "Ġcompany": 2222,
      "Ġlove": 2223,
      "ift": 2224,
      "Ġminim": 2225,
      "Ġintellig": 2226,
      "Ġantibiot": 2227,
      "Ġcontribute": 2228,
      "-friendly": 2229,
      "ouse": 2230,
      "ung": 2231,
      "ĠGoogle": 2232,
      "Ġpay": 2233,
      "Ġenvironmental": 2234,
      "umb": 2235,
      "Ġdeep": 2236,
      "Ġrate": 2237,
      "Ġaddress": 2238,
      "Ġsyn": 2239,
      "ĠAp": 2240,
      "Ġself": 2241,
      "Ġtherapy": 2242,
      "Ġflex": 2243,
      "Ġlaunch": 2244,
      "Ġtaking": 2245,
      "Ġprec": 2246,
      "Ġbecame": 2247,
      "Ġliving": 2248,
      "Ġmethods": 2249,
      "Ġtypically": 2250,
      "Ġpicture": 2251,
      "ections": 2252,
      "Ġinstall": 2253,
      "ites": 2254,
      "Ġtissue": 2255,
      "Ġuser": 2256,
      "Ġidea": 2257,
      "Ġisn": 2258,
      "Ġsomeone": 2259,
      "Ġcapacity": 2260,
      "by": 2261,
      "Ġmonths": 2262,
      "aling": 2263,
      "Ġfertil": 2264,
      "Ġseason": 2265,
      "Ġselect": 2266,
      "Ġagain": 2267,
      "way": 2268,
      "ibility": 2269,
      "Ġwhole": 2270,
      "âĢĻ": 2271,
      "Ġactivity": 2272,
      "-t": 2273,
      "ĠAmerican": 2274,
      "illed": 2275,
      "urs": 2276,
      "Ġbeyond": 2277,
      "erve": 2278,
      "ĠPeople": 2279,
      "Ġbar": 2280,
      "Ġeasily": 2281,
      "ĠCent": 2282,
      "Ġnature": 2283,
      "Ġfit": 2284,
      "inary": 2285,
      "ades": 2286,
      "urb": 2287,
      "22": 2288,
      "ief": 2289,
      "Ġremov": 2290,
      "Ġconsumption": 2291,
      "Ġobject": 2292,
      "Ġ.": 2293,
      "Ġbehavior": 2294,
      "Ġche": 2295,
      "Ġsqu": 2296,
      "Ġsubst": 2297,
      "Ġcold": 2298,
      "anging": 2299,
      "Ġindividuals": 2300,
      "âĢĵ": 2301,
      "Ġnucle": 2302,
      "Ġsevere": 2303,
      "Ġgeneral": 2304,
      "Ġolder": 2305,
      "ike": 2306,
      "ended": 2307,
      "Ġharm": 2308,
      "acts": 2309,
      "evelop": 2310,
      "TION": 2311,
      "Ġgrowing": 2312,
      "Ġdiscovered": 2313,
      "osing": 2314,
      "Ġbring": 2315,
      "Ġpack": 2316,
      "Ġtasks": 2317,
      "Ġjob": 2318,
      "mer": 2319,
      "Ġimpro": 2320,
      "Ġinj": 2321,
      "ĠGr": 2322,
      "Ġconservation": 2323,
      "uff": 2324,
      "Ġemissions": 2325,
      "Ġcases": 2326,
      "Ġslightly": 2327,
      "ext": 2328,
      "Ġcreating": 2329,
      "Ġlargest": 2330,
      "dd": 2331,
      "Ġentire": 2332,
      "Al": 2333,
      "Ġfigure": 2334,
      "Ġmedical": 2335,
      "-l": 2336,
      "So": 2337,
      "Ġmagn": 2338,
      "Ġmeet": 2339,
      "oles": 2340,
      "Ġgot": 2341,
      "Ġwall": 2342,
      "enn": 2343,
      ".\"Ċ": 2344,
      "Ġproteins": 2345,
      ").Ċ": 2346,
      "Ġstay": 2347,
      "Ġvaluable": 2348,
      "Ġresources": 2349,
      "Ġadults": 2350,
      ".\"ĊĊ": 2351,
      "Ġoverall": 2352,
      "ĠChrist": 2353,
      "Ġalternative": 2354,
      "elling": 2355,
      "Ġconsidered": 2356,
      "ians": 2357,
      "ĠAc": 2358,
      "eat": 2359,
      "ĠWhile": 2360,
      "ify": 2361,
      "Ġvoltage": 2362,
      "Ġuses": 2363,
      "Ġfascinating": 2364,
      "Ġfemale": 2365,
      "ork": 2366,
      "Ġhuge": 2367,
      "Ġcontact": 2368,
      "Ġnetworks": 2369,
      "Ġsolution": 2370,
      "IN": 2371,
      "ered": 2372,
      "ulations": 2373,
      "Ġaud": 2374,
      "Ġrather": 2375,
      "isc": 2376,
      "osis": 2377,
      "Ġthroughout": 2378,
      "Ġtrend": 2379,
      "Ġrelatively": 2380,
      "eng": 2381,
      "Ġchoose": 2382,
      "Ġcharacteristics": 2383,
      "Ġadvantage": 2384,
      "Ġlater": 2385,
      "Ġtool": 2386,
      "Ġtechnologies": 2387,
      "80": 2388,
      "Ġsetting": 2389,
      "Ġbirds": 2390,
      "Ġprofessional": 2391,
      "Ġcateg": 2392,
      "ĠFebruary": 2393,
      "ĠFirst": 2394,
      "Ġinflu": 2395,
      "ms": 2396,
      "Ġpan": 2397,
      "Ġsweet": 2398,
      "ool": 2399,
      "Ġconnection": 2400,
      "-based": 2401,
      "arent": 2402,
      "Ġinflammation": 2403,
      "Ġmolec": 2404,
      "ival": 2405,
      "Ġchocolate": 2406,
      "Ġarchitect": 2407,
      "Ġmeasures": 2408,
      "Ġann": 2409,
      "Ġclose": 2410,
      "Ġsch": 2411,
      "ĠCar": 2412,
      "Ġphys": 2413,
      "Ġhowever": 2414,
      "ened": 2415,
      "Ġtakes": 2416,
      "Ġdistinct": 2417,
      "Ġbackground": 2418,
      "Ġoptions": 2419,
      "Ġwor": 2420,
      "urthermore": 2421,
      "Ġthought": 2422,
      "Ġwar": 2423,
      "Ġsepar": 2424,
      "Ġservice": 2425,
      "Ġbad": 2426,
      "Ġfoot": 2427,
      "On": 2428,
      "Ġcapture": 2429,
      "Ġpractice": 2430,
      "Ġcreated": 2431,
      "Ġaspects": 2432,
      "Ġpopulation": 2433,
      "Ġtw": 2434,
      "actions": 2435,
      "ense": 2436,
      "sp": 2437,
      "ĠNorth": 2438,
      "Ġhistor": 2439,
      "Ġfashion": 2440,
      "ps": 2441,
      "Ġnight": 2442,
      "Ġindepend": 2443,
      "Ġfeet": 2444,
      "Ġtend": 2445,
      "Ġfoods": 2446,
      "lease": 2447,
      "ills": 2448,
      "Ġcauses": 2449,
      "Ġaccur": 2450,
      "Ġmodern": 2451,
      "Ġdeveloped": 2452,
      "ĠDo": 2453,
      "Ġrefriger": 2454,
      "ĠJapan": 2455,
      "**": 2456,
      "Ġrob": 2457,
      "ti": 2458,
      "Ġdrop": 2459,
      "Ġcop": 2460,
      "Ġchicken": 2461,
      "Ġconsist": 2462,
      "Ġwaste": 2463,
      "Ġmult": 2464,
      "Ġfinancial": 2465,
      "Ġbreed": 2466,
      "Ġslow": 2467,
      "Ġacid": 2468,
      "ĠX": 2469,
      "Ġmiss": 2470,
      "osp": 2471,
      "Ġfast": 2472,
      "oid": 2473,
      "Ġjoin": 2474,
      "ĠSeptember": 2475,
      "Ġsil": 2476,
      "Ġservices": 2477,
      "iation": 2478,
      "Ġrelated": 2479,
      "ried": 2480,
      "Ġincreased": 2481,
      "Ġincludes": 2482,
      "ĠPr": 2483,
      "ler": 2484,
      "Ġcompet": 2485,
      "Ġinstead": 2486,
      "esp": 2487,
      "ince": 2488,
      "Ġdynam": 2489,
      "Ġregion": 2490,
      "Ġweather": 2491,
      "ES": 2492,
      "ĠSouth": 2493,
      "Ġspecifically": 2494,
      "Ġtiny": 2495,
      "Ġparticip": 2496,
      "Ġoptim": 2497,
      "ges": 2498,
      "ĠUnited": 2499,
      "onic": 2500,
      "Ġcorrespond": 2501,
      "ounds": 2502,
      "Ġquant": 2503,
      "ĠSe": 2504,
      "Ġcomponent": 2505,
      "Ġdevice": 2506,
      "val": 2507,
      "verse": 2508,
      "ished": 2509,
      "Ġfossil": 2510,
      "-w": 2511,
      "Ġfurniture": 2512,
      "Ġinfrastructure": 2513,
      "Ġshape": 2514,
      "acing": 2515,
      "Ġrisks": 2516,
      "Ġnavig": 2517,
      "AR": 2518,
      "Ġguidelines": 2519,
      "fortunately": 2520,
      "Ġanswers": 2521,
      "Ġfive": 2522,
      "Ġelimin": 2523,
      "Ġspread": 2524,
      "ife": 2525,
      "Ġstudies": 2526,
      "Ġphenomen": 2527,
      "Ġmathemat": 2528,
      "eep": 2529,
      "Ġcouple": 2530,
      "Ġconsum": 2531,
      ".S": 2532,
      "oph": 2533,
      "Ġwide": 2534,
      "ĠMed": 2535,
      "Ġenthusi": 2536,
      "ĠNational": 2537,
      "Ġsuggests": 2538,
      "Ġremove": 2539,
      "ĠFr": 2540,
      "ĠUsing": 2541,
      "ads": 2542,
      "Ġincreasing": 2543,
      "Ġcarbohydr": 2544,
      "Un": 2545,
      "Ġdegree": 2546,
      "oms": 2547,
      "Ġmark": 2548,
      "izes": 2549,
      "Ġelements": 2550,
      "Ġra": 2551,
      "AS": 2552,
      "Ġhomes": 2553,
      "Ġsometimes": 2554,
      "Ġmon": 2555,
      "ether": 2556,
      "ĠOctober": 2557,
      "Ġdig": 2558,
      "Ġoffers": 2559,
      "Ġbasic": 2560,
      "ison": 2561,
      "Ġapart": 2562,
      "emistry": 2563,
      "Ġcounter": 2564,
      "Ġeverything": 2565,
      "ĠHere": 2566,
      "ĠBr": 2567,
      "Ġstar": 2568,
      "cess": 2569,
      "Ġcollect": 2570,
      "Ġbodies": 2571,
      "Ġdefinitely": 2572,
      "iven": 2573,
      "23": 2574,
      "ĠAfrica": 2575,
      "âĢĿ": 2576,
      "Ġcardiovascular": 2577,
      "Ġproviding": 2578,
      "Ġwon": 2579,
      "Ġnecessarily": 2580,
      "Ġreturn": 2581,
      "Ġcompared": 2582,
      "Pro": 2583,
      "Ġstory": 2584,
      "Ġmanufacture": 2585,
      "Ġcaused": 2586,
      "Ġprep": 2587,
      "Ġchoice": 2588,
      "Ġanything": 2589,
      "Ġfavorite": 2590,
      "Ġyet": 2591,
      "ED": 2592,
      "ires": 2593,
      "ĠCont": 2594,
      "eral": 2595,
      "Ġshows": 2596,
      "-in": 2597,
      "ĠAm": 2598,
      "Ġdevices": 2599,
      "Ġsample": 2600,
      "Â·Â·Â·Â·Â·Â·Â·Â·Â·Â·Â·Â·Â·Â·Â·Â·Â·Â·Â·Â·Â·Â·Â·Â·Â·Â·Â·Â·Â·": 2601,
      "Ġface": 2602,
      "Ġfruits": 2603,
      "Ġhundred": 2604,
      "Ġmetal": 2605,
      "Ġexhib": 2606,
      "ided": 2607,
      "Ġexperienced": 2608,
      "Ġdom": 2609,
      "Ġlog": 2610,
      "ĠJanuary": 2611,
      "Ġones": 2612,
      "Ġsurv": 2613,
      "Ġbuy": 2614,
      "Ġperspective": 2615,
      "Ġfundamental": 2616,
      "Ġregarding": 2617,
      "Ġmedic": 2618,
      "Ġquite": 2619,
      "Ġsite": 2620,
      "Ġbox": 2621,
      "One": 2622,
      "Ġseem": 2623,
      "ipe": 2624,
      "ably": 2625,
      "Ġfib": 2626,
      "Ġgenerally": 2627,
      "Ġang": 2628,
      "Ġstarted": 2629,
      "Ġclos": 2630,
      "ights": 2631,
      "ography": 2632,
      "Ġcomplete": 2633,
      "Ġcloth": 2634,
      "Ġsurgery": 2635,
      "where": 2636,
      "Ġfront": 2637,
      "au": 2638,
      "Ġamounts": 2639,
      "Ġdark": 2640,
      "Ġsociety": 2641,
      "Ġconduct": 2642,
      "Ġkids": 2643,
      "Ġtrue": 2644,
      "raw": 2645,
      "agram": 2646,
      "Ġmeat": 2647,
      "Ġshare": 2648,
      "Ġtem": 2649,
      "Ġfire": 2650,
      "Ġartificial": 2651,
      "Ġencounter": 2652,
      "iding": 2653,
      "Ġtrying": 2654,
      "ĠCons": 2655,
      "isms": 2656,
      "Ġdedicated": 2657,
      "Ġpupp": 2658,
      "Ġpollution": 2659,
      "ley": 2660,
      "90": 2661,
      "Ġextra": 2662,
      "Research": 2663,
      "reg": 2664,
      "ulate": 2665,
      "After": 2666,
      "Ġlayer": 2667,
      "Ġlink": 2668,
      "ource": 2669,
      "Ġge": 2670,
      "Ġglass": 2671,
      "known": 2672,
      "Ġchanged": 2673,
      "Ġsearch": 2674,
      "Ġemo": 2675,
      "Why": 2676,
      "oon": 2677,
      "Ġhealthcare": 2678,
      "Ġdouble": 2679,
      "Ġago": 2680,
      "Ġveterinarian": 2681,
      "Ġitself": 2682,
      "illing": 2683,
      "ials": 2684,
      "eal": 2685,
      "Ġball": 2686,
      "Ġacceler": 2687,
      "Ġrot": 2688,
      "Ġcontinu": 2689,
      "Ġterms": 2690,
      "Ġachieve": 2691,
      "Ġreading": 2692,
      "Ġgroups": 2693,
      "ino": 2694,
      "Ġwatch": 2695,
      "att": 2696,
      "time": 2697,
      "Ġmilk": 2698,
      "ĠAfter": 2699,
      "Com": 2700,
      "Ġsteps": 2701,
      "Ġexperts": 2702,
      "Ġice": 2703,
      "ns": 2704,
      "70": 2705,
      "Ġassess": 2706,
      "Ġconsequ": 2707,
      "ister": 2708,
      "Ġiniti": 2709,
      "Sh": 2710,
      "Ġcode": 2711,
      "alking": 2712,
      "Ġsurfaces": 2713,
      "iness": 2714,
      "iff": 2715,
      "Ġstand": 2716,
      "Ġeating": 2717,
      "Ġtable": 2718,
      "Ġheld": 2719,
      ").ĊĊ": 2720,
      "·Â·Â·Â·Â·Â·Â·Â·Â·Â·Â·Â·Â·Â·Â·Â·Â·Â·Â·Â·Â·Â·Â·Â·Â·Â·Â·Â·Â·Â": 2721,
      "aves": 2722,
      "Ġdish": 2723,
      "-h": 2724,
      "Ġintroduc": 2725,
      "Ġcolors": 2726,
      "Ġmachines": 2727,
      "go": 2728,
      "ĠMan": 2729,
      "ĠCo": 2730,
      "Ġsmaller": 2731,
      "Ġbase": 2732,
      "Ġhumidity": 2733,
      "Ġindustrial": 2734,
      "uss": 2735,
      "Ġadded": 2736,
      "Ġancient": 2737,
      "Ġpick": 2738,
      "rum": 2739,
      "Ġteeth": 2740,
      "Ġdecisions": 2741,
      "ĠShe": 2742,
      "Ġdeterm": 2743,
      "-year": 2744,
      "aur": 2745,
      "Ġdiv": 2746,
      "Ġparticularly": 2747,
      "Ġblue": 2748,
      "emic": 2749,
      "ĠYes": 2750,
      "aries": 2751,
      "Ġdiagn": 2752,
      "Ġhair": 2753,
      "Ġwild": 2754,
      "Ġparents": 2755,
      "Ġoption": 2756,
      "ops": 2757,
      "ĠStates": 2758,
      "Ġleading": 2759,
      "Ġassist": 2760,
      "Ġwidely": 2761,
      "Ġinsp": 2762,
      "ĠAssociation": 2763,
      "'d": 2764,
      "Ġcats": 2765,
      "vention": 2766,
      "Ġforce": 2767,
      "Ġcryst": 2768,
      "Ġadditional": 2769,
      "Ġprovided": 2770,
      "Ġblock": 2771,
      "Ġaction": 2772,
      "Ġsharp": 2773,
      "Ġwheel": 2774,
      "Ġvehicle": 2775,
      "Ġcontr": 2776,
      "iring": 2777,
      "Ġshown": 2778,
      "Ġlatest": 2779,
      "But": 2780,
      "Ġnamed": 2781,
      "Ġfail": 2782,
      "Ġdirectly": 2783,
      "Ġvacuum": 2784,
      "Ġexplore": 2785,
      "Ġbatteries": 2786,
      "arb": 2787,
      "Ġcameras": 2788,
      "Ex": 2789,
      "Ġhun": 2790,
      "min": 2791,
      "vel": 2792,
      "Ġstudent": 2793,
      "Ġvitamins": 2794,
      "Ġwear": 2795,
      "Ġtroub": 2796,
      "Ġadvantages": 2797,
      "ĠStud": 2798,
      "Ġhighly": 2799,
      "Ġmess": 2800,
      "rol": 2801,
      "Ġcourses": 2802,
      "Ġemb": 2803,
      "Ġdestroy": 2804,
      "AT": 2805,
      "Ġearlier": 2806,
      "ĠMay": 2807,
      "Ġpurch": 2808,
      "Ġlives": 2809,
      "Ġemerg": 2810,
      "Ġgrad": 2811,
      "Ġcontinue": 2812,
      "Ġmorning": 2813,
      "Ġconcentr": 2814,
      "Ġeveryone": 2815,
      "Ġsolar": 2816,
      "Ġinvolved": 2817,
      "Ġtrack": 2818,
      "ners": 2819,
      "unction": 2820,
      "Ġkitchen": 2821,
      "Ġsea": 2822,
      "Ġtoxic": 2823,
      "Ġthousands": 2824,
      "rew": 2825,
      "Ġimages": 2826,
      "ai": 2827,
      "Ġburn": 2828,
      "omet": 2829,
      "Ġsources": 2830,
      "Ġcomb": 2831,
      "Ġrecommended": 2832,
      "Ġdetailed": 2833,
      "Ġparallel": 2834,
      "Ġstrugg": 2835,
      "ĠNovember": 2836,
      "Is": 2837,
      "Ġneighb": 2838,
      "na": 2839,
      "Ġeasier": 2840,
      "Ġreview": 2841,
      "Ġidentify": 2842,
      "ging": 2843,
      "Ġaut": 2844,
      "Ġrenewable": 2845,
      "Ġbul": 2846,
      "Ġgoal": 2847,
      "Ġultim": 2848,
      "Ġelectro": 2849,
      "Ġabsolutely": 2850,
      "med": 2851,
      "ody": 2852,
      "Ġsituations": 2853,
      "Ġitems": 2854,
      "-quality": 2855,
      "oud": 2856,
      "Ġproduced": 2857,
      "vant": 2858,
      "Ġer": 2859,
      "Ġtreated": 2860,
      "Ġguide": 2861,
      "Ġobvious": 2862,
      "-st": 2863,
      "ey": 2864,
      "Ġoutdoor": 2865,
      "Ġvisit": 2866,
      "ĠNot": 2867,
      "Ġtips": 2868,
      "anks": 2869,
      "uly": 2870,
      "hold": 2871,
      "Ġsuper": 2872,
      "ĠAre": 2873,
      "ait": 2874,
      "ĠOf": 2875,
      "Ġbed": 2876,
      "Ġgenetic": 2877,
      "Ġdefinition": 2878,
      "now": 2879,
      "Ġrecent": 2880,
      "-to": 2881,
      "Ġmodels": 2882,
      "Ġsand": 2883,
      "Ġcomposition": 2884,
      "Ġcrop": 2885,
      "Ġtouch": 2886,
      "Ġstore": 2887,
      "Ġdidn": 2888,
      "Ġorganizations": 2889,
      "Ġearth": 2890,
      "Ġforest": 2891,
      "Ġreliable": 2892,
      "Ġaim": 2893,
      "Â°": 2894,
      "ĠFrench": 2895,
      "cription": 2896,
      "Ġcomput": 2897,
      "ĠGu": 2898,
      "Ġtemperatures": 2899,
      "Ġbillion": 2900,
      "ĠFl": 2901,
      "Ġcoffee": 2902,
      "asing": 2903,
      "Ġensures": 2904,
      "Ġrunning": 2905,
      "Ġelse": 2906,
      "app": 2907,
      "Ġpolicy": 2908,
      "li": 2909,
      "Ġtransform": 2910,
      "ray": 2911,
      "Ġcognitive": 2912,
      "ĠCanada": 2913,
      "ata": 2914,
      "umm": 2915,
      "ĠScience": 2916,
      "iate": 2917,
      "Ġrain": 2918,
      "Ġflowers": 2919,
      "Ġproperly": 2920,
      "Ġkept": 2921,
      "Ġvitamin": 2922,
      "ĠPre": 2923,
      "Ġdeath": 2924,
      "Ġkn": 2925,
      "Ġscreen": 2926,
      "Ġshapes": 2927,
      "Ġpictures": 2928,
      "Ġpoly": 2929,
      "Ġswitch": 2930,
      "Con": 2931,
      "Ġevents": 2932,
      "ĠMy": 2933,
      "Ġthorough": 2934,
      "...ĊĊ": 2935,
      "ocks": 2936,
      "Ġseeds": 2937,
      "Ġamazing": 2938,
      "water": 2939,
      "Ġcampaign": 2940,
      "ware": 2941,
      "Ġmeaning": 2942,
      "ĠMost": 2943,
      "itation": 2944,
      "-being": 2945,
      "Ġword": 2946,
      "ĠLe": 2947,
      "esc": 2948,
      "Ġexternal": 2949,
      "Ġx": 2950,
      "ma": 2951,
      "Ġemphas": 2952,
      "Ġserious": 2953,
      "Ġreveal": 2954,
      "Ġroutine": 2955,
      "Ġdecre": 2956,
      "Ġhands": 2957,
      "Ġvelocity": 2958,
      "Ġpiece": 2959,
      "Ġconstant": 2960,
      "Ġprocesses": 2961,
      "urrent": 2962,
      "AN": 2963,
      "Ġmovement": 2964,
      "Ġchallenges": 2965,
      "Ġuseful": 2966,
      "ok": 2967,
      "Ġ/": 2968,
      "Ġsubject": 2969,
      "come": 2970,
      "ĠBritish": 2971,
      "yp": 2972,
      "Ġenzym": 2973,
      "Ġlines": 2974,
      "Ġspring": 2975,
      "Ġprivate": 2976,
      "oo": 2977,
      "iles": 2978,
      "olve": 2979,
      "ĠApril": 2980,
      "Ġactive": 2981,
      "ĠMore": 2982,
      "Ġfix": 2983,
      "AC": 2984,
      "Ġlif": 2985,
      "Ġprior": 2986,
      "Ġpowder": 2987,
      "Ġthreat": 2988,
      "Ġparameters": 2989,
      "inks": 2990,
      "raft": 2991,
      "Ġcross": 2992,
      "ĠDesign": 2993,
      "Ġratio": 2994,
      "onom": 2995,
      "Ġtransport": 2996,
      "ĠMexico": 2997,
      "Ġwash": 2998,
      "ĠâĢľ": 2999,
      "Ġplenty": 3000,
      "Ġsupply": 3001,
      "Ġefficiency": 3002,
      "Ġsurrounding": 3003,
      "Ġmedia": 3004,
      "Ġprocedure": 3005,
      "amb": 3006,
      "Ġvisual": 3007,
      "acter": 3008,
      "Ġmetabol": 3009,
      "Ġmoving": 3010,
      "rough": 3011,
      "Ġforces": 3012,
      "Ġremember": 3013,
      "ĠProfess": 3014,
      "atives": 3015,
      "Ġcarry": 3016,
      "Ġgoes": 3017,
      "Ġpump": 3018,
      "Ġminerals": 3019,
      "ĠFrom": 3020,
      "Ġseries": 3021,
      "Ġ+": 3022,
      "Ġexpect": 3023,
      "Ġbag": 3024,
      "ĠWhy": 3025,
      "Can": 3026,
      "Ġvirus": 3027,
      "Ġprojects": 3028,
      "Ġhappens": 3029,
      "Ġusers": 3030,
      "Ġsus": 3031,
      "ĠâĢ¦": 3032,
      "Ġ--": 3033,
      "Ġtalk": 3034,
      "Ġrandom": 3035,
      "ured": 3036,
      "elt": 3037,
      "ĠMar": 3038,
      "Ġsix": 3039,
      "Ġcontains": 3040,
      "Ġthick": 3041,
      "Ġallowing": 3042,
      "urt": 3043,
      "Ġcosts": 3044,
      "Ġaluminum": 3045,
      "Ġtow": 3046,
      "Ġfeature": 3047,
      "rup": 3048,
      "Ġwaters": 3049,
      "Ġdeveloping": 3050,
      "back": 3051,
      "Ġpatterns": 3052,
      "Ġprice": 3053,
      "Ġorganic": 3054,
      "-g": 3055,
      "Ġaccom": 3056,
      "Ġforms": 3057,
      "Ġdepending": 3058,
      "ĠEnergy": 3059,
      "ĠSystem": 3060,
      "ils": 3061,
      "Ġmobile": 3062,
      "Ġdensity": 3063,
      "head": 3064,
      "Ġcommonly": 3065,
      "Ġpurposes": 3066,
      "Ġprograms": 3067,
      "Ġleave": 3068,
      "Ġchronic": 3069,
      "Ġgets": 3070,
      "Cl": 3071,
      "Ġevolution": 3072,
      "Ġmental": 3073,
      "Ġdeal": 3074,
      "Ġtomat": 3075,
      "Ġvideos": 3076,
      "Ġep": 3077,
      "Ġlack": 3078,
      "Ġhidden": 3079,
      "aly": 3080,
      "Ġlocation": 3081,
      "Ġdatabase": 3082,
      "ĠUse": 3083,
      "uzz": 3084,
      "Ġframe": 3085,
      "ĠInternational": 3086,
      "Ġperhaps": 3087,
      "ĠAg": 3088,
      "Ġoutput": 3089,
      "Ġunit": 3090,
      "ĠMany": 3091,
      "OR": 3092,
      "Ġdur": 3093,
      "Ġprotection": 3094,
      "Ġsuff": 3095,
      "Ġtrigger": 3096,
      "Ġconcentration": 3097,
      "Ġcooking": 3098,
      "ĠEducation": 3099,
      "icate": 3100,
      "overy": 3101,
      "ĠWashington": 3102,
      "Ġconven": 3103,
      "Ġdrive": 3104,
      "ĠAmerica": 3105,
      "Ġvision": 3106,
      "EN": 3107,
      "Ġenter": 3108,
      "Ġtradition": 3109,
      "Ġfamiliar": 3110,
      "Ġsigns": 3111,
      "Ġgirl": 3112,
      "Ġdrink": 3113,
      "Ġcommunication": 3114,
      "ube": 3115,
      "ĠEm": 3116,
      "IS": 3117,
      "thesis": 3118,
      "Ġdam": 3119,
      "Ġessay": 3120,
      "Ġsave": 3121,
      "ĠAb": 3122,
      "Ġconcepts": 3123,
      "ĠEng": 3124,
      "Ġscr": 3125,
      "set": 3126,
      "Ġmotiv": 3127,
      "Ġgrass": 3128,
      "Ġload": 3129,
      "Ġtheory": 3130,
      "Ġspirit": 3131,
      "Ġhoney": 3132,
      "irt": 3133,
      "Ġcoll": 3134,
      "Ġobjects": 3135,
      "While": 3136,
      "Ġcard": 3137,
      "airs": 3138,
      "book": 3139,
      "Ġfrozen": 3140,
      "Ġcurriculum": 3141,
      "Ġsequ": 3142,
      "Ġ,": 3143,
      "Ġseems": 3144,
      "ony": 3145,
      "ĠThen": 3146,
      "Ġhorses": 3147,
      "-related": 3148,
      "Ġsyndrome": 3149,
      "Ġbiodiversity": 3150,
      "Ġelectrical": 3151,
      "Ġseed": 3152,
      "ĠRep": 3153,
      "ĠInst": 3154,
      "Ġzero": 3155,
      "ĠCommun": 3156,
      "Ġinfection": 3157,
      "ways": 3158,
      "Ġren": 3159,
      "oe": 3160,
      "Ġpage": 3161,
      "Ġclinical": 3162,
      "icks": 3163,
      "arr": 3164,
      "Ġdisorders": 3165,
      "Ġlimited": 3166,
      "ially": 3167,
      "Ġlikelihood": 3168,
      "Ġuniverse": 3169,
      "\",": 3170,
      "Ġhearing": 3171,
      "Ġcame": 3172,
      "Ġcenter": 3173,
      "Ġbottom": 3174,
      "ĠAfrican": 3175,
      "Ġbecomes": 3176,
      "Ġdoub": 3177,
      "Ġexcess": 3178,
      "Ġdistance": 3179,
      "Ġlens": 3180,
      "Ġhorizontal": 3181,
      "Ġoriginal": 3182,
      "Ġstates": 3183,
      "ze": 3184,
      "Ġnormally": 3185,
      "Ġsoon": 3186,
      "Ġstretch": 3187,
      "Ġvirtual": 3188,
      "Ġaccount": 3189,
      "Ġotherwise": 3190,
      "Ġcolleagues": 3191,
      "Ġport": 3192,
      "Ġsouth": 3193,
      "Ġready": 3194,
      "Ġideas": 3195,
      "Ġpractices": 3196,
      "Ġwavelength": 3197,
      "With": 3198,
      "Ġbudget": 3199,
      "Ġvarieties": 3200,
      "ged": 3201,
      "asts": 3202,
      "Ġorigin": 3203,
      "Ġvary": 3204,
      "ĠRec": 3205,
      "Ġargument": 3206,
      "Ġtim": 3207,
      "ula": 3208,
      "Ġimmune": 3209,
      "Ġsustainable": 3210,
      "Ġsignal": 3211,
      "ector": 3212,
      "ĠRes": 3213,
      "Ġinput": 3214,
      "Ġroot": 3215,
      "Ġrich": 3216,
      "Ġvulnerable": 3217,
      "Ġcity": 3218,
      "clud": 3219,
      "Ġoccasion": 3220,
      "Ġdiamond": 3221,
      "Ġideal": 3222,
      "Ġlate": 3223,
      "Ġurban": 3224,
      "Ġreducing": 3225,
      "By": 3226,
      "Ġrare": 3227,
      "Ġupon": 3228,
      "Ġvoice": 3229,
      "Ġinvolves": 3230,
      "These": 3231,
      "Ġgives": 3232,
      "tr": 3233,
      "Ġvalues": 3234,
      "ĠCO": 3235,
      "Ġcholesterol": 3236,
      "ĠTe": 3237,
      "Ġrespect": 3238,
      "de": 3239,
      "Ġerror": 3240,
      "Ġstomach": 3241,
      "Ġfriends": 3242,
      "Ġadequate": 3243,
      "ĠPer": 3244,
      "En": 3245,
      "active": 3246,
      "Ġwriting": 3247,
      "35": 3248,
      "Ġnorth": 3249,
      "Ġtraffic": 3250,
      "Ph": 3251,
      "ĠComp": 3252,
      "Ġsolutions": 3253,
      "Ġcleaning": 3254,
      "Ġtesting": 3255,
      "Ġgold": 3256,
      "Ġwhatever": 3257,
      "Ġdiscomfort": 3258,
      "Ġpress": 3259,
      "Ġsudden": 3260,
      "Ġbegins": 3261,
      "ĠReg": 3262,
      "ios": 3263,
      "Ġcalcium": 3264,
      "Ġworth": 3265,
      "Ġthr": 3266,
      "Ġmill": 3267,
      "Ġresponsible": 3268,
      "idge": 3269,
      "cer": 3270,
      "Ġourselves": 3271,
      "Ġmatch": 3272,
      "ney": 3273,
      "Ġfine": 3274,
      "At": 3275,
      "troduction": 3276,
      "Ġthinking": 3277,
      "iet": 3278,
      "Ġpoor": 3279,
      "First": 3280,
      "ĠMicro": 3281,
      "Ġpush": 3282,
      "Ġsoft": 3283,
      "Ġpull": 3284,
      "ĠCounty": 3285,
      "Ġbowl": 3286,
      "Ġhappen": 3287,
      "Ġhope": 3288,
      "Ġdiversity": 3289,
      "Ġhost": 3290,
      "Ġroll": 3291,
      "Ġexhaust": 3292,
      "Ġcredit": 3293,
      "Ġaren": 3294,
      "Ġver": 3295,
      "ishing": 3296,
      "Ġaggressive": 3297,
      "Ġur": 3298,
      "ĠSm": 3299,
      "Ġlongevity": 3300,
      "ĠWho": 3301,
      "Ġbroken": 3302,
      "Ġboard": 3303,
      "ĠAugust": 3304,
      "Ġmemory": 3305,
      "AL": 3306,
      "Ġattached": 3307,
      "Ġcollege": 3308,
      "Ġspot": 3309,
      "ball": 3310,
      "Ġscenar": 3311,
      "tic": 3312,
      "vent": 3313,
      "Ġcycle": 3314,
      "Ġsmooth": 3315,
      "Ġlaser": 3316,
      "They": 3317,
      "Ġpor": 3318,
      "ĠOur": 3319,
      "ulated": 3320,
      "Ġfile": 3321,
      "Ġbalanced": 3322,
      "Ġrequirements": 3323,
      "Ġstarting": 3324,
      "Ġhabits": 3325,
      "Ġworldwide": 3326,
      "order": 3327,
      "--": 3328,
      "unch": 3329,
      "ĠGl": 3330,
      "imilar": 3331,
      "ĠAir": 3332,
      "ĠAlso": 3333,
      "Ġtechnique": 3334,
      "Ġinjuries": 3335,
      "Ġfamous": 3336,
      "ĠLet": 3337,
      "Ġet": 3338,
      "âĢ¢": 3339,
      "Ġpregnant": 3340,
      "Ġpoll": 3341,
      "01": 3342,
      "atur": 3343,
      "Ġattract": 3344,
      "Ġbond": 3345,
      "Ġcharg": 3346,
      "Ġadding": 3347,
      "Ġsalt": 3348,
      "Ġillegal": 3349,
      "Ġsignificantly": 3350,
      "Ġpowerful": 3351,
      "Ġingredient": 3352,
      "Ġfacilit": 3353,
      "Ġdeeper": 3354,
      "ster": 3355,
      "Ġbur": 3356,
      "Ġrepresents": 3357,
      "Ġdioxide": 3358,
      "ĠNow": 3359,
      "Ġfinal": 3360,
      "Ġelement": 3361,
      "dom": 3362,
      "oom": 3363,
      "Ġled": 3364,
      "Ġgames": 3365,
      "Ġexpress": 3366,
      "Ġcutting": 3367,
      "Ġvegetables": 3368,
      "Ġpieces": 3369,
      "Ġcommit": 3370,
      "ana": 3371,
      "rib": 3372,
      "Ġrev": 3373,
      "vey": 3374,
      "Ġenhancing": 3375,
      "Ġconnections": 3376,
      "otic": 3377,
      "Ġsent": 3378,
      "Ġprofessor": 3379,
      "ipes": 3380,
      "Ġlimit": 3381,
      "-up": 3382,
      "Ġtook": 3383,
      "Ġgreenhouse": 3384,
      "Ġstage": 3385,
      "ĠPhotoshop": 3386,
      "imate": 3387,
      "Ġbright": 3388,
      "Ġcausing": 3389,
      "ifferent": 3390,
      "Ġplaces": 3391,
      "ĠTheir": 3392,
      "ference": 3393,
      "Ġavailability": 3394,
      "Ġviol": 3395,
      "Ġexam": 3396,
      "Step": 3397,
      "Ġdelicious": 3398,
      "Ġconcept": 3399,
      "And": 3400,
      "Ġweb": 3401,
      "ĠLearning": 3402,
      "-shaped": 3403,
      "Ġattempt": 3404,
      "astic": 3405,
      "Ġinvestig": 3406,
      "Ġsection": 3407,
      "Im": 3408,
      "oration": 3409,
      "Ġprop": 3410,
      "45": 3411,
      "lands": 3412,
      "Ġfaster": 3413,
      "ĠGe": 3414,
      "Ġbutter": 3415,
      "ĠOnce": 3416,
      "Ġchlor": 3417,
      "Ġsimultaneously": 3418,
      "ĠRem": 3419,
      "Ġfactor": 3420,
      "Ġcurrently": 3421,
      "inn": 3422,
      "Ġdead": 3423,
      "Ġcentury": 3424,
      "Ġident": 3425,
      "Ġimag": 3426,
      "Ġbiggest": 3427,
      "Ġcars": 3428,
      "Ġ...": 3429,
      "Ġfirm": 3430,
      "Ġtransfer": 3431,
      "Ġtail": 3432,
      "ros": 3433,
      "Ġindustries": 3434,
      "IC": 3435,
      "Do": 3436,
      "Ġhypothes": 3437,
      "Ġapply": 3438,
      "Ġwoman": 3439,
      "Ġdim": 3440,
      ".com": 3441,
      "Ġmigr": 3442,
      "Ġschedule": 3443,
      "Ġmirror": 3444,
      "Ġiron": 3445,
      "Ġconvers": 3446,
      "aper": 3447,
      "Ġve": 3448,
      "Ġsuccessful": 3449,
      "Ġanyone": 3450,
      "Ġthird": 3451,
      "Ġtaste": 3452,
      "Ġobtain": 3453,
      "Ġclimb": 3454,
      "Ġcircumstances": 3455,
      "28": 3456,
      "Ġflower": 3457,
      "Ġwalk": 3458,
      "Ġquick": 3459,
      "Ġreaction": 3460,
      "ries": 3461,
      "Ġwrong": 3462,
      "Ġmouth": 3463,
      "Ġoutdoors": 3464,
      "Ġwire": 3465,
      "Ġdocuments": 3466,
      "ĠAtlantic": 3467,
      "idence": 3468,
      "Ġbroad": 3469,
      "Ġnews": 3470,
      "ĠChinese": 3471,
      "Ġfloor": 3472,
      "Ġswim": 3473,
      "ĠSup": 3474,
      "Ġlocated": 3475,
      "Ġbrown": 3476,
      "Ġfa": 3477,
      "Ġinform": 3478,
      "ĠWater": 3479,
      "ĠCollege": 3480,
      "Ġinteresting": 3481,
      "Ġopportunity": 3482,
      "ulf": 3483,
      "Ġroad": 3484,
      "26": 3485,
      "\".": 3486,
      "Ġnitrogen": 3487,
      "roll": 3488,
      "me": 3489,
      "ĠOver": 3490,
      "Ġexperiment": 3491,
      "uilding": 3492,
      "Ġgar": 3493,
      "odes": 3494,
      "Ġincredibly": 3495,
      "Ġhaven": 3496,
      "ogen": 3497,
      "Ġpers": 3498,
      "Ġrocks": 3499,
      "Ġpossess": 3500,
      "Ġdespite": 3501,
      "Ġeffectively": 3502,
      "Ġmuscle": 3503,
      "Ġcoming": 3504,
      "Ġpaint": 3505,
      "Ġsolid": 3506,
      "Ġbelieved": 3507,
      "Ġlibrary": 3508,
      "27": 3509,
      "reed": 3510,
      "roc": 3511,
      "Ġround": 3512,
      "ĠToday": 3513,
      "ĠQu": 3514,
      "Ġculture": 3515,
      "iction": 3516,
      "Ġmount": 3517,
      "apter": 3518,
      "Ġforward": 3519,
      "estic": 3520,
      "encies": 3521,
      "Ġaesth": 3522,
      "Ġoccurs": 3523,
      "ĠDec": 3524,
      "Ġfight": 3525,
      "aid": 3526,
      "Ġdirections": 3527,
      "Ġcapabilities": 3528,
      "Pl": 3529,
      "Ġhear": 3530,
      "pers": 3531,
      "Ġemployees": 3532,
      "Ġroof": 3533,
      "hip": 3534,
      "Ġdepend": 3535,
      "Ġinches": 3536,
      "Ġlooks": 3537,
      "Ġtutor": 3538,
      "Ġschools": 3539,
      "ĠCouncil": 3540,
      "agement": 3541,
      "Now": 3542,
      "IT": 3543,
      "Ġscale": 3544,
      "Ġprocedures": 3545,
      "ender": 3546,
      "Ġspeech": 3547,
      "Ġsex": 3548,
      "ĠSw": 3549,
      "Ġsupplement": 3550,
      "ĠProgram": 3551,
      "Ġdriver": 3552,
      "ĠTexas": 3553,
      "Ġcount": 3554,
      "Ġjewelry": 3555,
      "Ġweak": 3556,
      "Ġwet": 3557,
      "efore": 3558,
      "itis": 3559,
      "ugs": 3560,
      "Ġkeeping": 3561,
      "Ġreceive": 3562,
      "Ġadvanced": 3563,
      "Ġstrategies": 3564,
      "charge": 3565,
      "Ġproperty": 3566,
      "Ġnote": 3567,
      "Ġrecycling": 3568,
      "Ġreinfor": 3569,
      "Ġoutcomes": 3570,
      "Ġcup": 3571,
      "Ġinsurance": 3572,
      "Ġcolour": 3573,
      "ĠBecause": 3574,
      "Ġhospital": 3575,
      "Ġaquarium": 3576,
      "Ġflavor": 3577,
      "rict": 3578,
      "Ġelectricity": 3579,
      "orms": 3580,
      "Ġexperiences": 3581,
      "Ġtask": 3582,
      "Ġchance": 3583,
      "Ġdecision": 3584,
      "Ġexpensive": 3585,
      "Ġantioxid": 3586,
      "Ġvia": 3587,
      "ĠRed": 3588,
      "Ġcy": 3589,
      "off": 3590,
      "ĠSociety": 3591,
      "asting": 3592,
      "Ġallerg": 3593,
      "Ġaccept": 3594,
      "bi": 3595,
      "ĠVirginia": 3596,
      "Ġcontribut": 3597,
      "Ġcombination": 3598,
      "Ġfilter": 3599,
      "ĠJust": 3600,
      "Ġdetails": 3601,
      "Ġgiving": 3602,
      "ĠEach": 3603,
      "ĠGerman": 3604,
      "Ġ|": 3605,
      "Ġgain": 3606,
      "Ġprocessing": 3607,
      "ky": 3608,
      "used": 3609,
      "Ġextremely": 3610,
      "Ġrecently": 3611,
      "Ġnutrient": 3612,
      "32": 3613,
      "Ġphotos": 3614,
      "Ġlov": 3615,
      "Ġfrequency": 3616,
      "Ġtank": 3617,
      "Ġstick": 3618,
      "irect": 3619,
      "Ġeffort": 3620,
      "09": 3621,
      "ĠService": 3622,
      "Ġoffic": 3623,
      "Ġship": 3624,
      "roph": 3625,
      "Ġphosph": 3626,
      "Ġopposite": 3627,
      "Ġnotice": 3628,
      "Ġguidance": 3629,
      "Ġatmospheric": 3630,
      "Ġsaw": 3631,
      "Ġacademic": 3632,
      "ĠMe": 3633,
      "Ġsteel": 3634,
      "rim": 3635,
      "Ġtherefore": 3636,
      "Ġgrav": 3637,
      "ĠMake": 3638,
      "acement": 3639,
      "Ġonto": 3640,
      "Ġ#": 3641,
      "Ġreduced": 3642,
      "Ġnative": 3643,
      "usion": 3644,
      "ĠTwo": 3645,
      "Ġreflect": 3646,
      "iqu": 3647,
      "ffective": 3648,
      ".g": 3649,
      "Ġconnected": 3650,
      "ĠAct": 3651,
      "bit": 3652,
      "Ġincluded": 3653,
      "Ġhandle": 3654,
      "Ġnarrow": 3655,
      "Ad": 3656,
      "ĠCenter": 3657,
      "Ġtra": 3658,
      "Ġbrand": 3659,
      "Ġsauce": 3660,
      "Ġwin": 3661,
      "Ġexamples": 3662,
      "Some": 3663,
      "Ġbooks": 3664,
      "Ġwidespread": 3665,
      "Ġwrite": 3666,
      "Ġeth": 3667,
      "onal": 3668,
      "Ġgene": 3669,
      "Ġsmart": 3670,
      "Ġparticles": 3671,
      "Ġexpected": 3672,
      "ĠAntarctic": 3673,
      "Ġsession": 3674,
      "asc": 3675,
      "ament": 3676,
      "tes": 3677,
      "Ġupd": 3678,
      "ĠMiddle": 3679,
      "Ġstructures": 3680,
      "ĠPennsylvania": 3681,
      "Ġstyles": 3682,
      "Ġgardens": 3683,
      "OS": 3684,
      "Ġremain": 3685,
      "Ġmosquit": 3686,
      "-e": 3687,
      "Sc": 3688,
      "Ġtherapeutic": 3689,
      "Ġheight": 3690,
      "Ġstre": 3691,
      "Ġdinosaurs": 3692,
      "Ġpresence": 3693,
      "08": 3694,
      "Ġlost": 3695,
      "ĠÂ": 3696,
      "Ġdebris": 3697,
      "owing": 3698,
      "Ġnoise": 3699,
      "Ġfair": 3700,
      "Ġrespond": 3701,
      "Ġmag": 3702,
      "Ġmap": 3703,
      "Ġcoordin": 3704,
      "Ġplanet": 3705,
      "ĠIts": 3706,
      "NA": 3707,
      "RE": 3708,
      "Ġtests": 3709,
      "Ġdetect": 3710,
      "Ġcommunities": 3711,
      "Ġgenes": 3712,
      "orks": 3713,
      "Ġlivestock": 3714,
      "Ġaffected": 3715,
      "ĠLearn": 3716,
      "Ġattack": 3717,
      "Ġchanging": 3718,
      "estern": 3719,
      "Ġrelease": 3720,
      "Ġcomfortable": 3721,
      "olar": 3722,
      "People": 3723,
      "Ġwrote": 3724,
      "ĠChildren": 3725,
      "Ġsounds": 3726,
      "Ġtooth": 3727,
      "Ġthus": 3728,
      "Ġdeliver": 3729,
      "Ġphone": 3730,
      "Ġfemales": 3731,
      "Ġopportunities": 3732,
      "Ġexercises": 3733,
      "Ġvinegar": 3734,
      "Ġdelivery": 3735,
      "Ġsites": 3736,
      "ĠAcademy": 3737,
      "ĠAccording": 3738,
      "Ġlanguages": 3739,
      "Ġhit": 3740,
      "ĠEven": 3741,
      "Ġtitle": 3742,
      "alt": 3743,
      "Ġgoals": 3744,
      "inding": 3745,
      "ĠNatural": 3746,
      "iant": 3747,
      "Ġdest": 3748,
      "Ġteachers": 3749,
      "Ġvolunte": 3750,
      "Ġdriving": 3751,
      "Ġmembrane": 3752,
      "posed": 3753,
      "ĠNe": 3754,
      "Ġinterpret": 3755,
      "Ġplaced": 3756,
      "Ġarticles": 3757,
      "Ġbranches": 3758,
      "Ġtropical": 3759,
      "Ġmotion": 3760,
      "ĠOcean": 3761,
      "Ġremains": 3762,
      "ells": 3763,
      "ĠHigh": 3764,
      "Ġalthough": 3765,
      "Ġgovern": 3766,
      "Ġmyself": 3767,
      "ds": 3768,
      "esting": 3769,
      "Ġincreases": 3770,
      "Ġmedium": 3771,
      "Ġflight": 3772,
      "ĠTHE": 3773,
      "Ġauthors": 3774,
      "Ġversion": 3775,
      "Ġdepth": 3776,
      "ĠPacific": 3777,
      "Ġthin": 3778,
      "Ġexpand": 3779,
      "Ġmut": 3780,
      "Ġflat": 3781,
      "ĠMediterranean": 3782,
      "Ġmaximum": 3783,
      "anch": 3784,
      "Ġteaching": 3785,
      "Ġsnow": 3786,
      "Ġtissues": 3787,
      "encing": 3788,
      "Ġdepends": 3789,
      "Tr": 3790,
      "Ġcoast": 3791,
      "aught": 3792,
      "Ġcontemporary": 3793,
      "Ġinh": 3794,
      "Ġ:": 3795,
      "Ġpreparation": 3796,
      "Ġmanage": 3797,
      "Ġopinion": 3798,
      "ients": 3799,
      "Ġbone": 3800,
      "Ġstim": 3801,
      "Ġabnormal": 3802,
      "ĠOp": 3803,
      "inter": 3804,
      "Ġdifferences": 3805,
      "ogs": 3806,
      "Ġunnecessary": 3807,
      "Ġinsects": 3808,
      "hood": 3809,
      "rier": 3810,
      "05": 3811,
      "och": 3812,
      "Ġexplain": 3813,
      "onduct": 3814,
      "ĠHistory": 3815,
      "ID": 3816,
      "Ġfoliage": 3817,
      "ĠPar": 3818,
      "eless": 3819,
      "Ġflavors": 3820,
      "Ġadop": 3821,
      "Ġfilm": 3822,
      "Ġvolume": 3823,
      "Ġmid": 3824,
      "aughter": 3825,
      "ĠGroup": 3826,
      "Ġpolitical": 3827,
      "Ġimpossible": 3828,
      "Ġfluid": 3829,
      "Ġmeasuring": 3830,
      "ĠClean": 3831,
      "Ġinstance": 3832,
      "Ġstuff": 3833,
      "iers": 3834,
      "Ġalone": 3835,
      "con": 3836,
      "ĠIndia": 3837,
      "fish": 3838,
      "Ġguarant": 3839,
      "que": 3840,
      "Ġsold": 3841,
      "Ġton": 3842,
      "ÂŃ": 3843,
      "Ġdem": 3844,
      "Ġpromoting": 3845,
      "Ġfeeling": 3846,
      "ceed": 3847,
      "Ġkill": 3848,
      "Using": 3849,
      "Ġmilitary": 3850,
      "Ġphotograph": 3851,
      "Ġdairy": 3852,
      "Ġunivers": 3853,
      "Ġdiameter": 3854,
      "Ġchosen": 3855,
      "Ġcylind": 3856,
      "Ġefforts": 3857,
      "oses": 3858,
      "Here": 3859,
      "Ġund": 3860,
      "Ġlabor": 3861,
      "Ġspect": 3862,
      "itor": 3863,
      "etics": 3864,
      "ĠDevelopment": 3865,
      "Ġdescribed": 3866,
      "07": 3867,
      "Ġbrush": 3868,
      "Ġorgans": 3869,
      "Ġreported": 3870,
      "rig": 3871,
      "ĠMon": 3872,
      "Ġmic": 3873,
      "Ġresulting": 3874,
      "Ġclick": 3875,
      "ĠMuseum": 3876,
      "Ġdoor": 3877,
      "ĠFoundation": 3878,
      "lets": 3879,
      "ded": 3880,
      "Ġdiscover": 3881,
      "Ġsupplies": 3882,
      "clus": 3883,
      "Ġpool": 3884,
      "Ġpat": 3885,
      "uction": 3886,
      "izz": 3887,
      "Ġrules": 3888,
      "...Ċ": 3889,
      "Ġox": 3890,
      "Ġbegan": 3891,
      "Ġrub": 3892,
      "Ġvessels": 3893,
      "gl": 3894,
      "Ġpets": 3895,
      "ta": 3896,
      "Ġcatch": 3897,
      "Ġroots": 3898,
      "Ġchannel": 3899,
      "ĠMod": 3900,
      "Ġdeb": 3901,
      "ĠRo": 3902,
      "Ġresist": 3903,
      "new": 3904,
      "raz": 3905,
      "Ġwent": 3906,
      "aches": 3907,
      "ading": 3908,
      "ON": 3909,
      "Ġinterface": 3910,
      "iling": 3911,
      "Ġegg": 3912,
      "Ġfly": 3913,
      "Ġdate": 3914,
      "Ġsurpr": 3915,
      "AM": 3916,
      "ĠAlthough": 3917,
      "Ġchromos": 3918,
      "All": 3919,
      "29": 3920,
      "Ġrequ": 3921,
      "Ġlights": 3922,
      "ĠState": 3923,
      "ĠEd": 3924,
      "Ġmaintaining": 3925,
      "Ġvertical": 3926,
      "Ġserve": 3927,
      "Ġneutral": 3928,
      "Ġplanning": 3929,
      "Ġcivil": 3930,
      "However": 3931,
      "Sp": 3932,
      "Ġsessions": 3933,
      "ception": 3934,
      "Ã©": 3935,
      "Ġfinding": 3936,
      "idents": 3937,
      "Ġdistingu": 3938,
      "Ġautomatically": 3939,
      "ediatric": 3940,
      "apt": 3941,
      "iter": 3942,
      "Ġmale": 3943,
      "ares": 3944,
      "Ġrise": 3945,
      "Ġexisting": 3946,
      "Ġhighlight": 3947,
      "aks": 3948,
      "Ġappearance": 3949,
      "36": 3950,
      "ĠRead": 3951,
      "Ġpopulations": 3952,
      "Ġmatrix": 3953,
      "Ġpal": 3954,
      "Ġrates": 3955,
      "ĠBi": 3956,
      "Ġelectromagnetic": 3957,
      "Ġinfluence": 3958,
      "Ġsignificance": 3959,
      "Ġowners": 3960,
      "Ġvibrant": 3961,
      "inger": 3962,
      "izer": 3963,
      "Ġarm": 3964,
      "Ġwel": 3965,
      "Ġcontext": 3966,
      "Ġacknowled": 3967,
      "Ġcustomers": 3968,
      "Ġvital": 3969,
      "02": 3970,
      "Ġnoticed": 3971,
      "Ġequivalent": 3972,
      "Ġcovered": 3973,
      "Ġcollection": 3974,
      "75": 3975,
      "Ġregularly": 3976,
      "Ġspend": 3977,
      "yr": 3978,
      "Ġbabies": 3979,
      "ocal": 3980,
      "Ġplease": 3981,
      "Ġstroke": 3982,
      "Ġhelping": 3983,
      "ĠMin": 3984,
      "Ġhabitat": 3985,
      "Ġexecut": 3986,
      "Ġsplit": 3987,
      "key": 3988,
      "lex": 3989,
      "Ġfamilies": 3990,
      "ython": 3991,
      "Ġbeginning": 3992,
      "Ġwritten": 3993,
      "rec": 3994,
      "AD": 3995,
      "rows": 3996,
      "ipped": 3997,
      "Ġpig": 3998,
      "Ġallowed": 3999,
      "ux": 4000,
      "Ġsatellite": 4001,
      "Ġcore": 4002,
      "Ġaccurate": 4003,
      "Ġactual": 4004,
      "PS": 4005,
      "ĠDon": 4006,
      "ĠLab": 4007,
      "Ġhygiene": 4008,
      "Ġhour": 4009,
      "Ġpromote": 4010,
      "Ġversatile": 4011,
      "Ġkid": 4012,
      "ĠGod": 4013,
      "Ġdigestive": 4014,
      "Ġathlet": 4015,
      "Ġmiles": 4016,
      "Ġseparate": 4017,
      "Ġcomplic": 4018,
      "Ġnervous": 4019,
      "ĠSince": 4020,
      "Ġasked": 4021,
      "Ġbacterial": 4022,
      "uses": 4023,
      "can": 4024,
      "Ġnational": 4025,
      "orrect": 4026,
      "Ġconsult": 4027,
      "Ġphase": 4028,
      "Ġstaff": 4029,
      "Ġfill": 4030,
      "Ġqual": 4031,
      "Ġbath": 4032,
      "Ġcitizens": 4033,
      "Ġnearly": 4034,
      "Ġunexpected": 4035,
      "06": 4036,
      "Abstract": 4037,
      "Ġevolved": 4038,
      "ĠLondon": 4039,
      "Ġlighting": 4040,
      "Ġcentral": 4041,
      "EM": 4042,
      "Ġinstructions": 4043,
      "Ġcamp": 4044,
      "Ġtrust": 4045,
      "side": 4046,
      "Ġdrain": 4047,
      "wards": 4048,
      "ĠDis": 4049,
      "Ġgre": 4050,
      "inally": 4051,
      "lines": 4052,
      "etween": 4053,
      "ĠFood": 4054,
      "ĠUK": 4055,
      "Ġchemicals": 4056,
      "ĠHuman": 4057,
      "ĠAss": 4058,
      "ĠOther": 4059,
      "Ġregions": 4060,
      "ued": 4061,
      "Ġelectron": 4062,
      "Ġder": 4063,
      "Ġmolecules": 4064,
      "Ġec": 4065,
      "-like": 4066,
      "Ġstem": 4067,
      "Ġprint": 4068,
      "Ġadminist": 4069,
      "Ġpotatoes": 4070,
      "bl": 4071,
      "Ġbecoming": 4072,
      "Ġlarvae": 4073,
      "Ġadult": 4074,
      "Ġexchange": 4075,
      "uk": 4076,
      "otes": 4077,
      "Ġpen": 4078,
      "Ġcomparison": 4079,
      "04": 4080,
      "Ġtrip": 4081,
      "Ġancest": 4082,
      "ype": 4083,
      "Ġabsorb": 4084,
      "ĠSec": 4085,
      "Ġâ": 4086,
      "ĠInter": 4087,
      "Ġuncomfortable": 4088,
      "ET": 4089,
      "Ġsort": 4090,
      "Ġfrequently": 4091,
      "ements": 4092,
      "Ġmarine": 4093,
      "Ġmovie": 4094,
      "Ġtopic": 4095,
      "Ġcapt": 4096,
      "Ġdrivers": 4097,
      "Ġwildlife": 4098,
      "Ġfeeding": 4099,
      "Ġpractical": 4100,
      "iment": 4101,
      "Ġrepair": 4102,
      "Ġinfections": 4103,
      "itter": 4104,
      "31": 4105,
      "Ġmel": 4106,
      "Ġlearned": 4107,
      "Ġpolicies": 4108,
      "org": 4109,
      "Ġreproductive": 4110,
      "Ġshrub": 4111,
      "lies": 4112,
      "Ġhappy": 4113,
      "Ġvent": 4114,
      "Ar": 4115,
      "unk": 4116,
      "Ġreplace": 4117,
      "Ġcoupl": 4118,
      "met": 4119,
      "Ġequal": 4120,
      "ned": 4121,
      "Ġpainting": 4122,
      "ĠUs": 4123,
      "ĠArt": 4124,
      "Ġwaiting": 4125,
      "ĠDay": 4126,
      "Our": 4127,
      "Ġtrain": 4128,
      "Ġgear": 4129,
      "Ġconver": 4130,
      "itu": 4131,
      "03": 4132,
      "Ġadvice": 4133,
      "Ġplaying": 4134,
      "ĠTrans": 4135,
      "Ġeffectiveness": 4136,
      "tical": 4137,
      "Ġinternal": 4138,
      "Ġtax": 4139,
      "ĠGarden": 4140,
      "oly": 4141,
      "Ġstandards": 4142,
      "ST": 4143,
      "rafts": 4144,
      "wood": 4145,
      "aching": 4146,
      "Ġinternational": 4147,
      "alysis": 4148,
      "Ġconscious": 4149,
      "Ġvehicles": 4150,
      "Ġcustomer": 4151,
      "stand": 4152,
      "Ġinterested": 4153,
      "enefits": 4154,
      "Ġdiverse": 4155,
      "ius": 4156,
      "Ġwave": 4157,
      "Additionally": 4158,
      "ĠDe": 4159,
      "Ġdrawing": 4160,
      "ednesday": 4161,
      "Ġlose": 4162,
      "Ġwindow": 4163,
      "Ġcreative": 4164,
      "ĠAmazon": 4165,
      "Ġmold": 4166,
      "-resistant": 4167,
      "Ġwanted": 4168,
      "Ġintensity": 4169,
      "Ġbasis": 4170,
      "Ġ*": 4171,
      "Ġrid": 4172,
      "Ġpermanent": 4173,
      "-free": 4174,
      "Ġpotentially": 4175,
      "Ġongoing": 4176,
      "ĠInternet": 4177,
      "ĠFalse": 4178,
      "ĠDi": 4179,
      "Ġfields": 4180,
      "aul": 4181,
      "itions": 4182,
      "Ġdie": 4183,
      "Ġeconomic": 4184,
      "Ġmammals": 4185,
      "Ġmuscles": 4186,
      "Ġrespiratory": 4187,
      "Ġmis": 4188,
      "Ġnan": 4189,
      "Ġju": 4190,
      "anger": 4191,
      "Ġaccommod": 4192,
      "ĠBo": 4193,
      "Ġadvance": 4194,
      "Ġwidth": 4195,
      "Ġcuisine": 4196,
      "Ġgeneration": 4197,
      "Ġplayers": 4198,
      "ĠYork": 4199,
      "Ġboost": 4200,
      "Ġbound": 4201,
      "Ġspeaking": 4202,
      "oma": 4203,
      "Ġcotton": 4204,
      "Ġanal": 4205,
      "ulating": 4206,
      "-dimensional": 4207,
      "EC": 4208,
      "alth": 4209,
      "Ġsecure": 4210,
      "Ġimproved": 4211,
      "Ġhelpful": 4212,
      "ĠEgypt": 4213,
      "Ġfed": 4214,
      "ĠTherefore": 4215,
      "Ġmeal": 4216,
      "Ġgenerate": 4217,
      "99": 4218,
      "ĠEvery": 4219,
      "ye": 4220,
      "Ġauthentic": 4221,
      "rich": 4222,
      "That": 4223,
      "ĠInformation": 4224,
      "Ġgentle": 4225,
      "Ġarg": 4226,
      "Ġpilot": 4227,
      "oul": 4228,
      "Ġselection": 4229,
      "ĠPart": 4230,
      "Ġleaf": 4231,
      "ĠSpec": 4232,
      "Ġimmediate": 4233,
      "Ġmist": 4234,
      "Ġdoctors": 4235,
      "Ġoperation": 4236,
      "Ġlayers": 4237,
      "Ġlandscape": 4238,
      "imal": 4239,
      "Ġmaster": 4240,
      "ĠPublic": 4241,
      "Ġcand": 4242,
      "igure": 4243,
      "umn": 4244,
      "ously": 4245,
      "Ġshorter": 4246,
      "Ġanti": 4247,
      "Ġedge": 4248,
      "Ġequilibrium": 4249,
      "Ġworked": 4250,
      "Ġformed": 4251,
      "Ġsodium": 4252,
      "Ġdiss": 4253,
      "eline": 4254,
      "Ġsav": 4255,
      "ott": 4256,
      "âĢĻt": 4257,
      "Ġclassroom": 4258,
      "Ġillustr": 4259,
      "Ġpleas": 4260,
      "Ġrelax": 4261,
      "Ġradio": 4262,
      "Ġchar": 4263,
      "Ġmember": 4264,
      "ancy": 4265,
      "Ġorganization": 4266,
      "Ġsports": 4267,
      "ager": 4268,
      "ĠAustralia": 4269,
      "Ġdistribution": 4270,
      "Ġremoved": 4271,
      "aming": 4272,
      "About": 4273,
      "-r": 4274,
      "My": 4275,
      "Ġteacher": 4276,
      "Ġenvironments": 4277,
      "ĠMassachusetts": 4278,
      "Ġdental": 4279,
      "Ġattemp": 4280,
      "Ġabsolute": 4281,
      "ĠWhether": 4282,
      "add": 4283,
      "Ġlifespan": 4284,
      "Ġtight": 4285,
      "ifying": 4286,
      "Ġpair": 4287,
      "ĠDoes": 4288,
      "Ġsuggestions": 4289,
      "Ġlots": 4290,
      "Ġconcerns": 4291,
      "ĠGener": 4292,
      "Ġholid": 4293,
      "Ġidentified": 4294,
      "ĠSch": 4295,
      "Ġraw": 4296,
      "ING": 4297,
      "ĠEl": 4298,
      "aut": 4299,
      "Ġrestaurant": 4300,
      "ulture": 4301,
      "Ġintroduce": 4302,
      "eration": 4303,
      "Ġwheels": 4304,
      "ought": 4305,
      "aj": 4306,
      "Ġchain": 4307,
      "ĠWar": 4308,
      "Ġheating": 4309,
      "No": 4310,
      "Ġign": 4311,
      "Ġterrit": 4312,
      "Ġconfiguration": 4313,
      "Ġhybrid": 4314,
      "ĠAdd": 4315,
      "Ġsophisticated": 4316,
      "Ġresource": 4317,
      "Ġaffordable": 4318,
      "Ġbusinesses": 4319,
      "ĠGreen": 4320,
      "Ġphilosophy": 4321,
      "Ġgrown": 4322,
      "Ġmother": 4323,
      "Ġobserve": 4324,
      "Ġsettings": 4325,
      "Ġcosm": 4326,
      "ĠPark": 4327,
      "Ġaudio": 4328,
      "Ġsynthetic": 4329,
      "ĠAND": 4330,
      "ĠSte": 4331,
      "Ġrice": 4332,
      "Ġshop": 4333,
      "Ġobesity": 4334,
      "ervation": 4335,
      "Ġmostly": 4336,
      "Ġreality": 4337,
      "Ġharmful": 4338,
      "Ġsupplements": 4339,
      "ĠIntelligence": 4340,
      "-level": 4341,
      "Ġvocabulary": 4342,
      "Ġmaybe": 4343,
      "ss": 4344,
      "Ġsimpl": 4345,
      "Ġtexture": 4346,
      "Ġmitig": 4347,
      "Ġtransparency": 4348,
      "Ġdesigns": 4349,
      "Ġhorm": 4350,
      "Another": 4351,
      "cre": 4352,
      "Ġtold": 4353,
      "ĠDuring": 4354,
      "etting": 4355,
      "Ġtypical": 4356,
      "Re": 4357,
      "Ġsubsequent": 4358,
      "ĠGermany": 4359,
      "Ġdesired": 4360,
      "Ġillness": 4361,
      "ĠFahrenheit": 4362,
      "ĠMedicine": 4363,
      "?\"": 4364,
      "Ġengineering": 4365,
      "Ġtelevision": 4366,
      "Ġlargely": 4367,
      "Ġtur": 4368,
      "Ġunusual": 4369,
      "Ġpep": 4370,
      "Ġheard": 4371,
      "grad": 4372,
      "-specific": 4373,
      "Ġut": 4374,
      "Ġphoto": 4375,
      "ums": 4376,
      "Ġinjury": 4377,
      "ĠKeep": 4378,
      "Ġplans": 4379,
      "Ġafraid": 4380,
      "Ġemp": 4381,
      "Ġestablished": 4382,
      "umin": 4383,
      "ĠAlzheimer": 4384,
      "Ġstarts": 4385,
      "Ġunc": 4386,
      "Ġsquare": 4387,
      "Ġinten": 4388,
      "Ġrepeated": 4389,
      "ĠSur": 4390,
      "Ġpul": 4391,
      "ubl": 4392,
      "iences": 4393,
      "Ġneuro": 4394,
      "Ġexposed": 4395,
      "Ġreleased": 4396,
      "ĠPC": 4397,
      "Ġclasses": 4398,
      "Ġhighest": 4399,
      "Ġcoun": 4400,
      "ĠUp": 4401,
      "Ġemotional": 4402,
      "Ġobserved": 4403,
      "ĠChina": 4404,
      "ĠCr": 4405,
      "Ġplays": 4406,
      "Ġmal": 4407,
      "aker": 4408,
      "mm": 4409,
      "Ġfisher": 4410,
      "Ġbleeding": 4411,
      "Ġstock": 4412,
      "Ġenc": 4413,
      "ĠWindows": 4414,
      "Ġoperations": 4415,
      "Ġwalls": 4416,
      "Ġdrugs": 4417,
      "Ġblog": 4418,
      "Ġterr": 4419,
      "Ġplate": 4420,
      "Bl": 4421,
      "Ġempty": 4422,
      "Ġten": 4423,
      "ica": 4424,
      "Ġhum": 4425,
      "Ġeventually": 4426,
      "Ġregardless": 4427,
      "ĠSocial": 4428,
      "fr": 4429,
      "ĠAv": 4430,
      "yd": 4431,
      "Ġprepared": 4432,
      "Ġhazard": 4433,
      "Ġstream": 4434,
      ".e": 4435,
      "ilt": 4436,
      "Ġupper": 4437,
      "Ġculinary": 4438,
      "Ġtalking": 4439,
      "ĠGovernment": 4440,
      "Ġwaves": 4441,
      "Ġappro": 4442,
      "Ġlegal": 4443,
      "ologist": 4444,
      "Ġalign": 4445,
      "ikipedia": 4446,
      "Ġunits": 4447,
      "Ġfindings": 4448,
      "arn": 4449,
      "ĠII": 4450,
      "Ġinstrum": 4451,
      "word": 4452,
      "Ġflo": 4453,
      "Ġantibodies": 4454,
      "Ġdentist": 4455,
      "ĠCor": 4456,
      "Are": 4457,
      "ĠWell": 4458,
      "Ġarthritis": 4459,
      "ential": 4460,
      "Ġencourage": 4461,
      "vironment": 4462,
      "ĠWill": 4463,
      "Ġreceived": 4464,
      "Ġpurchase": 4465,
      "Ġanimation": 4466,
      "ĠElect": 4467,
      "Be": 4468,
      "Ġcheese": 4469,
      "Ġaltern": 4470,
      "Ġseamless": 4471,
      "RO": 4472,
      ".)": 4473,
      "ĠAC": 4474,
      "Ġprofessionals": 4475,
      "Ġshowed": 4476,
      "oh": 4477,
      "Ġleads": 4478,
      "Ġunwanted": 4479,
      "omb": 4480,
      "Ġsym": 4481,
      "Ġcultural": 4482,
      "umber": 4483,
      "ny": 4484,
      "ĠMichael": 4485,
      "Ġthread": 4486,
      "utrition": 4487,
      "eling": 4488,
      "Ġcert": 4489,
      "Ġassembly": 4490,
      "Ġtreatments": 4491,
      "Ġexpansion": 4492,
      "Ġlegs": 4493,
      "Your": 4494,
      "Ġexplanation": 4495,
      "Ġsensor": 4496,
      "roid": 4497,
      "Ġcarefully": 4498,
      "oin": 4499,
      "Ġmanufacturing": 4500,
      "Ġrelationships": 4501,
      "Ġfishing": 4502,
      "Ġpark": 4503,
      "Ġdefined": 4504,
      "Ġoffice": 4505,
      "Ġbike": 4506,
      "Ġsunlight": 4507,
      "Ġdetail": 4508,
      "Ġincredible": 4509,
      "/or": 4510,
      "Ġcoconut": 4511,
      "Ġsem": 4512,
      "AP": 4513,
      "Ġsaying": 4514,
      "Ġuns": 4515,
      "Ġentreprene": 4516,
      "ĠSun": 4517,
      "Ġdiarrhea": 4518,
      "He": 4519,
      "Ġfro": 4520,
      "Most": 4521,
      "Ġrule": 4522,
      "Ġorganisms": 4523,
      "Ġuniform": 4524,
      "Ġyield": 4525,
      "ĠSafety": 4526,
      "arsh": 4527,
      "ĠPsych": 4528,
      "Ġsignals": 4529,
      "Ġglucose": 4530,
      "Ġhom": 4531,
      "ĠâĢ¢": 4532,
      "Ġstone": 4533,
      "Ġfung": 4534,
      "rate": 4535,
      "Ġstories": 4536,
      "Ġassoci": 4537,
      "Ġmedicine": 4538,
      "ĠEuropean": 4539,
      "Ġshelter": 4540,
      "ĠHer": 4541,
      "Ġgather": 4542,
      "Ġcream": 4543,
      "ĠChar": 4544,
      "33": 4545,
      "Ġalgae": 4546,
      "Ġsell": 4547,
      "Ġtransl": 4548,
      "Ġquantum": 4549,
      "ĠVal": 4550,
      "Ġintricate": 4551,
      "Ġeduc": 4552,
      "Ġchannels": 4553,
      "Ġoffspring": 4554,
      "Ġcenturies": 4555,
      "ĠCal": 4556,
      "Ġstrategy": 4557,
      "ĠMichigan": 4558,
      "Ġjump": 4559,
      "ĠSk": 4560,
      "Ġchoosing": 4561,
      "ĠNASA": 4562,
      "Ġbreast": 4563,
      "Ġhous": 4564,
      "Ġprevents": 4565,
      "Ġjournal": 4566,
      "ĠOlymp": 4567,
      "95": 4568,
      "ellow": 4569,
      "Ġprepare": 4570,
      "Ġcour": 4571,
      "Ġsets": 4572,
      "Ġyounger": 4573,
      "aph": 4574,
      "Ġendangered": 4575,
      "Ġangle": 4576,
      "Ġplanting": 4577,
      "Ġrobot": 4578,
      "-C": 4579,
      "Ġsensitivity": 4580,
      "Ġassign": 4581,
      "Ġhon": 4582,
      "Ġatom": 4583,
      "semble": 4584,
      "Ġdimensions": 4585,
      "Ġchoices": 4586,
      "Ġmath": 4587,
      "Ġneg": 4588,
      "pert": 4589,
      "Ġworkshop": 4590,
      "Ġscientist": 4591,
      "Ġreference": 4592,
      "Ġextreme": 4593,
      "ĠIndian": 4594,
      "Ġremarkable": 4595,
      "Ġax": 4596,
      "Ġmitochondr": 4597,
      "Ġjoint": 4598,
      "Ġrelevant": 4599,
      "Ġfarmers": 4600,
      "Ġshoot": 4601,
      "Ġintroduced": 4602,
      "Ġtoward": 4603,
      "orph": 4604,
      "Ġrough": 4605,
      "Ġeight": 4606,
      "which": 4607,
      "Ġfollowed": 4608,
      "Ġband": 4609,
      "Ġactions": 4610,
      "Ġtall": 4611,
      "Ġcrops": 4612,
      "Ġunlikely": 4613,
      "Ġdrought": 4614,
      "Ġcontamin": 4615,
      "Ġprotocol": 4616,
      "son": 4617,
      "ologists": 4618,
      "piece": 4619,
      "Ġoptimal": 4620,
      "ĠQuestions": 4621,
      "Ġimplications": 4622,
      "Ġcloud": 4623,
      "ĠOff": 4624,
      "Ġhimself": 4625,
      "Ġunderstood": 4626,
      "ĠChoose": 4627,
      "ĠOut": 4628,
      "Ġbreeding": 4629,
      "cel": 4630,
      "abb": 4631,
      "Ġoffering": 4632,
      "Ġbrought": 4633,
      "emperature": 4634,
      "Ġsomewhat": 4635,
      "Ġspin": 4636,
      "Ġfiber": 4637,
      "Ġelectronic": 4638,
      "Ġgrade": 4639,
      "Ġcreates": 4640,
      "Ġelev": 4641,
      "Ġintelligence": 4642,
      "Ġpreparing": 4643,
      "-scale": 4644,
      "ĠRiver": 4645,
      "ancing": 4646,
      "Ġappears": 4647,
      "body": 4648,
      "Ġsamples": 4649,
      "arks": 4650,
      "ĠPres": 4651,
      "ĠBlack": 4652,
      "omes": 4653,
      "Ġemail": 4654,
      "Yes": 4655,
      "Ġarch": 4656,
      "Ġindicate": 4657,
      "Ġheav": 4658,
      "Once": 4659,
      "Ġwait": 4660,
      "Ġbutton": 4661,
      "Ġgastrointestinal": 4662,
      "Ġultr": 4663,
      "ĠDavid": 4664,
      "Ġhole": 4665,
      "ĠJune": 4666,
      "uit": 4667,
      "Ġimpacts": 4668,
      "Ġdescribe": 4669,
      "ĠST": 4670,
      "Ġcontainer": 4671,
      "Ġtransmission": 4672,
      "ama": 4673,
      "ipping": 4674,
      "Ġsizes": 4675,
      "Ġworry": 4676,
      "Ġmonitoring": 4677,
      "Ġchallenging": 4678,
      "Ġisol": 4679,
      "Ġvs": 4680,
      "Ġawareness": 4681,
      "bal": 4682,
      "Ġmainly": 4683,
      "Ġerrors": 4684,
      "Ġcompost": 4685,
      "Ġstored": 4686,
      "Ġcabin": 4687,
      "Ġeducational": 4688,
      "ĠLED": 4689,
      "Ġwebsites": 4690,
      "Ġdust": 4691,
      "Ġconsistent": 4692,
      "lear": 4693,
      "Ġfold": 4694,
      "Ġoperating": 4695,
      "Ġoverwhel": 4696,
      "Ġimproving": 4697,
      "abil": 4698,
      "Ġhusband": 4699,
      "ications": 4700,
      "Ġprescrib": 4701,
      "Ġturned": 4702,
      "Ġcombined": 4703,
      "65": 4704,
      "Ġdepartment": 4705,
      "ption": 4706,
      "aping": 4707,
      "icing": 4708,
      "Ġbiological": 4709,
      "Ġconstruct": 4710,
      "Ġpandemic": 4711,
      "arian": 4712,
      "-th": 4713,
      "Ġbees": 4714,
      "Ġenabling": 4715,
      "icip": 4716,
      "ĠMarch": 4717,
      "ground": 4718,
      "Ġmagnetic": 4719,
      "ste": 4720,
      "Ġacqu": 4721,
      "Ġfo": 4722,
      "Ġkit": 4723,
      "anes": 4724,
      "weight": 4725,
      "urg": 4726,
      "Ġfuels": 4727,
      "Ġbio": 4728,
      "Ġinteract": 4729,
      "Related": 4730,
      "Ġmushroom": 4731,
      "ĠForest": 4732,
      "Ġescape": 4733,
      "ĠServices": 4734,
      "Dr": 4735,
      "anges": 4736,
      "uts": 4737,
      "Ġkinds": 4738,
      "rot": 4739,
      "Ġinvolve": 4740,
      "Ġfocused": 4741,
      "ari": 4742,
      "Ġtruly": 4743,
      "Ġprinting": 4744,
      "Ġdistributed": 4745,
      "oke": 4746,
      "Ġdress": 4747,
      "Ġmessage": 4748,
      "owers": 4749,
      "Ġparent": 4750,
      "ĠSim": 4751,
      "ours": 4752,
      "-time": 4753,
      "Ġhydrogen": 4754,
      "ĠAny": 4755,
      "Ġfinish": 4756,
      "Ġav": 4757,
      "iration": 4758,
      "ville": 4759,
      "olic": 4760,
      "pan": 4761,
      "Ġshared": 4762,
      "raction": 4763,
      "Ġbusy": 4764,
      "Ġlung": 4765,
      "Ġtre": 4766,
      "anguage": 4767,
      "ĠClass": 4768,
      "Ġphotography": 4769,
      "Ġfear": 4770,
      "Ġdecor": 4771,
      "Ġconfir": 4772,
      "Ġoceans": 4773,
      "Ġmild": 4774,
      "Ġaffects": 4775,
      "Ġpup": 4776,
      "Ġminimum": 4777,
      "Ġplayer": 4778,
      "not": 4779,
      "Ġaw": 4780,
      "Ġsensitive": 4781,
      "pre": 4782,
      "Ġaer": 4783,
      "Ġreduction": 4784,
      "Ġfreedom": 4785,
      "-re": 4786,
      "Ġinsulin": 4787,
      "US": 4788,
      "Ġseal": 4789,
      "Ġtun": 4790,
      "ĠGreat": 4791,
      "udd": 4792,
      "bre": 4793,
      "Ġcoronavirus": 4794,
      "Ġbones": 4795,
      "ented": 4796,
      "Many": 4797,
      "Ġmode": 4798,
      "Ġcapable": 4799,
      "Ġaspect": 4800,
      "Ġfilled": 4801,
      "Ġtotally": 4802,
      "Ġinvasive": 4803,
      "Ġcreation": 4804,
      "Ġenhanced": 4805,
      "Ġlaws": 4806,
      "ĠBoth": 4807,
      "Ġrecycled": 4808,
      "Ġsuc": 4809,
      "ĠArctic": 4810,
      "ĠEngineering": 4811,
      "igenous": 4812,
      "ĠAut": 4813,
      "Ġclothing": 4814,
      "Ġleaving": 4815,
      "55": 4816,
      "Ġsurvive": 4817,
      "ĠChristmas": 4818,
      "Ġformation": 4819,
      "east": 4820,
      "ĠColorado": 4821,
      "Ġspaces": 4822,
      "Ġphotographer": 4823,
      "Ġspeaker": 4824,
      "Ġaid": 4825,
      "allow": 4826,
      "Ġcontinues": 4827,
      "ĠHis": 4828,
      "DA": 4829,
      "Ġexpression": 4830,
      "iber": 4831,
      "Ġmachinery": 4832,
      "Ġsenior": 4833,
      "Ġspray": 4834,
      "otechnology": 4835,
      "Ġshowing": 4836,
      "ooking": 4837,
      "see": 4838,
      "Ġfle": 4839,
      "Ġowner": 4840,
      "Over": 4841,
      "Ġmajority": 4842,
      "Ġtransplant": 4843,
      "Ġsusceptible": 4844,
      "Ġrefers": 4845,
      "omy": 4846,
      "ipp": 4847,
      "Ġfrag": 4848,
      "Ġwondering": 4849,
      "Ġindoors": 4850,
      "ĠMinnesota": 4851,
      "ester": 4852,
      "Ġstatus": 4853,
      "Ġvisible": 4854,
      "Ġtap": 4855,
      "ods": 4856,
      "Ġstunning": 4857,
      "EL": 4858,
      "Ġpapers": 4859,
      "atin": 4860,
      "Ġtub": 4861,
      "Ġestimated": 4862,
      "48": 4863,
      "Ġtriang": 4864,
      "ĠDisease": 4865,
      "Ġcontract": 4866,
      "Ġtried": 4867,
      "oto": 4868,
      "CO": 4869,
      "akers": 4870,
      "Ġsides": 4871,
      "Ġmac": 4872,
      "Ġmeasured": 4873,
      "ĠWhere": 4874,
      "Ġwouldn": 4875,
      "Ġdollars": 4876,
      "Ġtransition": 4877,
      "Ap": 4878,
      "Ġborn": 4879,
      "mitted": 4880,
      "Ġcultiv": 4881,
      "Ġprem": 4882,
      "unc": 4883,
      "Ġsend": 4884,
      "ĠPower": 4885,
      "Ġcorrosion": 4886,
      "Ġfalse": 4887,
      "asp": 4888,
      "Ġflood": 4889,
      "Ġconclusion": 4890,
      "Ġadventure": 4891,
      "col": 4892,
      "Ġwhose": 4893,
      "Ġplane": 4894,
      "PA": 4895,
      "ĠMc": 4896,
      "Ġfailure": 4897,
      "Ġnames": 4898,
      "ĠTake": 4899,
      "organ": 4900,
      "utes": 4901,
      "Ġhel": 4902,
      "Ġproducing": 4903,
      "place": 4904,
      "Ġriver": 4905,
      "itors": 4906,
      "ĠBas": 4907,
      "Ġreactions": 4908,
      "Ġdetermined": 4909,
      "utter": 4910,
      "ĠCare": 4911,
      "Ġcomputers": 4912,
      "Ġshaped": 4913,
      "Ġpharmaceutical": 4914,
      "uate": 4915,
      "Ġfur": 4916,
      "Ġslowly": 4917,
      "Ġhousehold": 4918,
      "istics": 4919,
      "Ġrelative": 4920,
      "Ġreact": 4921,
      "Ġannual": 4922,
      "ĠGlobal": 4923,
      "Ġencompass": 4924,
      "Ġstatement": 4925,
      "Ġcompounds": 4926,
      "Ġshot": 4927,
      "with": 4928,
      "Ġreferred": 4929,
      "Ġperiods": 4930,
      "ava": 4931,
      "emical": 4932,
      "Ġacids": 4933,
      "Ġconsidering": 4934,
      "Ġperformed": 4935,
      "Ġsurround": 4936,
      "zing": 4937,
      "Ġdamaged": 4938,
      "Ġaccounts": 4939,
      "American": 4940,
      "Ġdecrease": 4941,
      "Ġexamination": 4942,
      "Ġpure": 4943,
      "ĠGo": 4944,
      "Ġdisadvant": 4945,
      "Ġpreviously": 4946,
      "Ġnice": 4947,
      "Ġcycles": 4948,
      "Ġbattle": 4949,
      "Ġholes": 4950,
      "Ġdishes": 4951,
      "apy": 4952,
      "Ġtopics": 4953,
      "Ġspr": 4954,
      "Ġsoda": 4955,
      "la": 4956,
      "More": 4957,
      "ĠMark": 4958,
      "Ġcompress": 4959,
      "Ġpin": 4960,
      "ï¿½": 4961,
      "ander": 4962,
      "Ġconducted": 4963,
      "Ġmechanical": 4964,
      "Ġinternet": 4965,
      "Ġcondens": 4966,
      "ĠDespite": 4967,
      "aint": 4968,
      "amic": 4969,
      "Ġmoderate": 4970,
      "Ġseeing": 4971,
      "Ġskill": 4972,
      "Ġcryptocurrenc": 4973,
      "Ġwalking": 4974,
      "Ġneck": 4975,
      "Ġseek": 4976,
      "Ġcareer": 4977,
      "oster": 4978,
      "Ġmer": 4979,
      "Ġemergency": 4980,
      "Ġtechnical": 4981,
      "Ġstri": 4982,
      "-S": 4983,
      "ĠLike": 4984,
      "Ġpredict": 4985,
      "ypes": 4986,
      "Ġsong": 4987,
      "Ġfigures": 4988,
      "Ġsegment": 4989,
      "Ġprices": 4990,
      "ymptoms": 4991,
      "ili": 4992,
      "kes": 4993,
      "Ġkil": 4994,
      "Ġwants": 4995,
      "Ġharness": 4996,
      "Ġdecades": 4997,
      ";Ċ": 4998,
      "Ġconsists": 4999,
      "Ġseconds": 5000,
      "Ġlic": 5001,
      "ĠJuly": 5002,
      "ĠBluetooth": 5003,
      "Ġparticipants": 5004,
      "Ġabundant": 5005,
      "Ġaccomplish": 5006,
      "ĠMo": 5007,
      "-ch": 5008,
      "Ġfiles": 5009,
      "Ġcooling": 5010,
      "Ġreligious": 5011,
      "Ġaquatic": 5012,
      "Ġ<": 5013,
      "Ġrecovery": 5014,
      "Ġprinciples": 5015,
      "Ġcertainly": 5016,
      "Ġrestric": 5017,
      "Ġbelong": 5018,
      "inated": 5019,
      "Ġcopper": 5020,
      "Ġcontrast": 5021,
      "Ġdinner": 5022,
      "Ġinsights": 5023,
      "Ġsumm": 5024,
      "ĠWest": 5025,
      "Ġfingers": 5026,
      "Ġcycl": 5027,
      "rowing": 5028,
      "Ġ\\": 5029,
      "ĠAbout": 5030,
      "ĠFacebook": 5031,
      "Ġtour": 5032,
      "ĠHel": 5033,
      "Ġextract": 5034,
      "opes": 5035,
      "42": 5036,
      "ĠCity": 5037,
      "Ġsurvival": 5038,
      "Ġplug": 5039,
      "Ġturns": 5040,
      "erson": 5041,
      "34": 5042,
      "ĠPhys": 5043,
      "Ġwarming": 5044,
      "Remember": 5045,
      "Ġstable": 5046,
      "Ġradiation": 5047,
      "atively": 5048,
      "ĠAdministration": 5049,
      "obe": 5050,
      "Ġdrag": 5051,
      "Ġdecided": 5052,
      "Ġadapted": 5053,
      "Ġbear": 5054,
      "irds": 5055,
      "ĠApp": 5056,
      "Ġla": 5057,
      "Ġalter": 5058,
      "Ġchickens": 5059,
      "ĠLibrary": 5060,
      "Ġcart": 5061,
      "Ġatoms": 5062,
      "Ġwasn": 5063,
      "ĠDarwin": 5064,
      "Ġmulch": 5065,
      "Ġbread": 5066,
      "Ġring": 5067,
      "Ġinstitutions": 5068,
      "using": 5069,
      "MS": 5070,
      "Ġpredic": 5071,
      "ĠGreek": 5072,
      "Ġelectrons": 5073,
      "Ġhunting": 5074,
      "Ġmechanism": 5075,
      "Ġobstacles": 5076,
      "cast": 5077,
      "ĠSpanish": 5078,
      "Ġtrade": 5079,
      "hyd": 5080,
      "Pre": 5081,
      "Ġintake": 5082,
      "TS": 5083,
      "itudes": 5084,
      "Ġfoundation": 5085,
      "Ġguess": 5086,
      "Ġcreatures": 5087,
      "Ġcontrolled": 5088,
      "ĠPlant": 5089,
      "Cons": 5090,
      "Ġdinosaur": 5091,
      "Ġclosely": 5092,
      "Ġunless": 5093,
      "Ġpizza": 5094,
      "Ġproduces": 5095,
      "Ġfriction": 5096,
      "Ġlinked": 5097,
      "Ġpages": 5098,
      "ĠLight": 5099,
      "chool": 5100,
      "Ġprivacy": 5101,
      "opl": 5102,
      "Ġhydraulic": 5103,
      "Ġdeploy": 5104,
      "Ġpros": 5105,
      "Ġdefault": 5106,
      "Ġadhes": 5107,
      "ested": 5108,
      "inder": 5109,
      "Ġbuying": 5110,
      "Ġmeals": 5111,
      "Ġcorrectly": 5112,
      "ĠGen": 5113,
      "Ġcrisis": 5114,
      "New": 5115,
      "Ġgenerated": 5116,
      "Ġprobability": 5117,
      "ĠMain": 5118,
      "Ġappeared": 5119,
      "Ġtriggers": 5120,
      "Ġcm": 5121,
      "Ġdownload": 5122,
      "Ġfeedback": 5123,
      "38": 5124,
      "37": 5125,
      "Ġtoilet": 5126,
      "Ġcircuits": 5127,
      "olf": 5128,
      "Ġrow": 5129,
      "Ġpounds": 5130,
      "ĠChicago": 5131,
      "Ġspent": 5132,
      "Ġconflict": 5133,
      "Ġputting": 5134,
      "Ġban": 5135,
      "ĠIS": 5136,
      "ĠExpl": 5137,
      "Ġfatigue": 5138,
      "Ġsubstantial": 5139,
      "Ġgall": 5140,
      "aked": 5141,
      "Ġwindows": 5142,
      "Ġvictim": 5143,
      "ĠCheck": 5144,
      "ha": 5145,
      "Ġcriteria": 5146,
      "ĠInstead": 5147,
      "dent": 5148,
      "Ġcloser": 5149,
      "Ġselected": 5150,
      "Ġsampling": 5151,
      "fall": 5152,
      "Ġmixed": 5153,
      "ĠMet": 5154,
      "ĠSl": 5155,
      "Ġpresented": 5156,
      "ipl": 5157,
      "uthor": 5158,
      "Ġuncertain": 5159,
      "Ġreservoir": 5160,
      "-n": 5161,
      "Ġenable": 5162,
      "OU": 5163,
      "Ġtested": 5164,
      "Ġsport": 5165,
      "Ġtube": 5166,
      "Ġexceptional": 5167,
      "Ġboil": 5168,
      "ission": 5169,
      "Ġbigger": 5170,
      "Ġcooked": 5171,
      "ĠKing": 5172,
      "Ġturning": 5173,
      "Ġwitness": 5174,
      "Ġpercentage": 5175,
      "Ġdramatically": 5176,
      "According": 5177,
      "ĠThrough": 5178,
      "Ġsolve": 5179,
      "Ġshoes": 5180,
      "Ġbreakfast": 5181,
      "isk": 5182,
      "enced": 5183,
      "Ġpoultry": 5184,
      "Let": 5185,
      "ĠHar": 5186,
      "right": 5187,
      "Ġbuildings": 5188,
      "Ġlocations": 5189,
      "Ġtoler": 5190,
      "Ġreduces": 5191,
      "Ġhospitals": 5192,
      "ĠBrazil": 5193,
      "sequently": 5194,
      "Ġahead": 5195,
      "Ġdecide": 5196,
      "Ġposit": 5197,
      "Ġinsect": 5198,
      "pet": 5199,
      "Ġaudience": 5200,
      "ustainable": 5201,
      "Ġbelieves": 5202,
      "Ġformat": 5203,
      "Ġextinction": 5204,
      "Ġwrap": 5205,
      "wise": 5206,
      "Conclusion": 5207,
      "Ġhelped": 5208,
      "zer": 5209,
      "Ġcolon": 5210,
      "Ġassessment": 5211,
      "Ġvapor": 5212,
      "Ġden": 5213,
      "Ġlymph": 5214,
      "Ġwish": 5215,
      "Ġrhythm": 5216,
      "ĠSan": 5217,
      "iest": 5218,
      "Ġlock": 5219,
      "-on": 5220,
      "ĠSystems": 5221,
      "Ġlawn": 5222,
      "Ġpotassium": 5223,
      "eb": 5224,
      "Ġcarried": 5225,
      "Ġappliances": 5226,
      "Ġmarketing": 5227,
      "Ġbaking": 5228,
      "Ġbasket": 5229,
      "Use": 5230,
      "Rec": 5231,
      "olving": 5232,
      "Ġstation": 5233,
      "Cont": 5234,
      "Ġinvestment": 5235,
      "aws": 5236,
      "Ġphysics": 5237,
      "Ġstakeholders": 5238,
      "ause": 5239,
      "oral": 5240,
      "Ġjo": 5241,
      "ĠCirc": 5242,
      "Ġweigh": 5243,
      "Ġvessel": 5244,
      "ĠItalian": 5245,
      "Ġvast": 5246,
      "Ġsed": 5247,
      "ato": 5248,
      "Ġgun": 5249,
      "Ġcoat": 5250,
      "Ġfunctional": 5251,
      "Ġinstalled": 5252,
      "Ġhem": 5253,
      "Ġlabel": 5254,
      "Ġpesticides": 5255,
      "Ġcareful": 5256,
      "Ġmolecular": 5257,
      "Ġmoments": 5258,
      "Ġthousand": 5259,
      "Ġimpressive": 5260,
      "Ġsequence": 5261,
      "Ġboat": 5262,
      "Ġlooked": 5263,
      "Ġdepos": 5264,
      "Ġap": 5265,
      "Ġinnovative": 5266,
      "ĠEarly": 5267,
      "\"The": 5268,
      "ara": 5269,
      "Ġflash": 5270,
      "Ġhappened": 5271,
      "ĠStep": 5272,
      "Ġcorn": 5273,
      "Ġadjacent": 5274,
      "Ġprey": 5275,
      "ĠGet": 5276,
      "most": 5277,
      "ĠPlan": 5278,
      "cript": 5279,
      "Ġinner": 5280,
      "Ġabundance": 5281,
      "ĠBusiness": 5282,
      "esh": 5283,
      "IG": 5284,
      "-inflammatory": 5285,
      "Ġrights": 5286,
      "Ġclearly": 5287,
      "Ġmeeting": 5288,
      "Today": 5289,
      "Ġdisorder": 5290,
      "Ġneurolog": 5291,
      "Ġolive": 5292,
      "Ġprolong": 5293,
      "rie": 5294,
      "Ġpreventing": 5295,
      "Ġengage": 5296,
      "Ġcompreh": 5297,
      ".[": 5298,
      "Ġpests": 5299,
      "85": 5300,
      "Ġsufficient": 5301,
      "ĠArizona": 5302,
      "/s": 5303,
      "Ġeconomy": 5304,
      "pose": 5305,
      "Ġadds": 5306,
      "Ġimmun": 5307,
      "Ġreports": 5308,
      "Ġprotected": 5309,
      "Ġsheet": 5310,
      "Ġmedication": 5311,
      "Ġcontaining": 5312,
      "inate": 5313,
      "Ġresilience": 5314,
      "Ġstages": 5315,
      "umer": 5316,
      "my": 5317,
      "Ġparagraph": 5318,
      "Ġaccuracy": 5319,
      "Ġinteractions": 5320,
      "Ġdisplays": 5321,
      "Ġmedications": 5322,
      "apes": 5323,
      "IL": 5324,
      "Ġsmell": 5325,
      "down": 5326,
      "Ġexact": 5327,
      "how": 5328,
      "Ġtwice": 5329,
      "Ġpassed": 5330,
      "ĠCreate": 5331,
      "Ġmicrowave": 5332,
      "Ġlesson": 5333,
      "istor": 5334,
      "that": 5335,
      "Ġnation": 5336,
      "Ġenhances": 5337,
      "Ġsick": 5338,
      "mega": 5339,
      "Ġportion": 5340,
      "Ġaggreg": 5341,
      "Ġworkers": 5342,
      "Ġfantastic": 5343,
      "Ġapproaches": 5344,
      "Ġbeneath": 5345,
      "Ġarrang": 5346,
      "Ġcigaret": 5347,
      "ĠTechnology": 5348,
      "Ġcompanion": 5349,
      "Ġagriculture": 5350,
      "Ġsharing": 5351,
      "Ġrapidly": 5352,
      "Ġliver": 5353,
      "Health": 5354,
      "Ġrecipe": 5355,
      "Ġflying": 5356,
      "ĠSub": 5357,
      "ĠDep": 5358,
      "Ġremoving": 5359,
      "Ġproportion": 5360,
      "lim": 5361,
      "Ġintended": 5362,
      "Ġsustainability": 5363,
      "):": 5364,
      "Ġshift": 5365,
      "Ġexplains": 5366,
      "Ġhazards": 5367,
      "Ġampl": 5368,
      "Ġdrinking": 5369,
      "ĠDigital": 5370,
      "Ġlessons": 5371,
      "Ġjud": 5372,
      "ani": 5373,
      "Ġseven": 5374,
      "ollow": 5375,
      "44": 5376,
      "Ġoven": 5377,
      "Ġbiology": 5378,
      "39": 5379,
      "Ġnurs": 5380,
      "Ġclosed": 5381,
      "Ġsuggested": 5382,
      "Ġic": 5383,
      "iders": 5384,
      "Ġsubstance": 5385,
      "ĠpH": 5386,
      "earing": 5387,
      "Ġthoughts": 5388,
      "ĠArduino": 5389,
      "Ġdepression": 5390,
      "Ġexploring": 5391,
      "Ġraised": 5392,
      "arents": 5393,
      "Ġdiscovery": 5394,
      "Ġinflammatory": 5395,
      "Ġflour": 5396,
      "Ġseasons": 5397,
      "Ġwarrant": 5398,
      "Ġcommand": 5399,
      "acking": 5400,
      "ĠProt": 5401,
      "IV": 5402,
      "kin": 5403,
      "Ġmeant": 5404,
      "coming": 5405,
      "yle": 5406,
      "Ġformula": 5407,
      "Ġbelief": 5408,
      "].": 5409,
      "Ġsurvey": 5410,
      "Ġturb": 5411,
      "requ": 5412,
      "ora": 5413,
      "urch": 5414,
      "orr": 5415,
      "oper": 5416,
      "Ġfootprint": 5417,
      "eries": 5418,
      "Ġcoal": 5419,
      "Ġtemporary": 5420,
      "Ġexciting": 5421,
      "isation": 5422,
      "Ġcollected": 5423,
      "Ġinstallation": 5424,
      "Ġmovements": 5425,
      "Ġincreasingly": 5426,
      "Ġclothes": 5427,
      "Ġdatas": 5428,
      "Ġfriendly": 5429,
      "ĠOrgan": 5430,
      "ĠIns": 5431,
      "Ġforget": 5432,
      "Ġmulti": 5433,
      "Ġfixed": 5434,
      "Learn": 5435,
      "Ġsubstrate": 5436,
      "Ġoffered": 5437,
      "Ac": 5438,
      "Ġrestaurants": 5439,
      "Ġinteraction": 5440,
      "ufact": 5441,
      "Ġtrained": 5442,
      "Ġtrap": 5443,
      "ubb": 5444,
      "ĠCanadian": 5445,
      "Ġraise": 5446,
      "itting": 5447,
      "ĠEc": 5448,
      "more": 5449,
      "estion": 5450,
      "ifications": 5451,
      "Ġsew": 5452,
      "Ġconsumers": 5453,
      "alks": 5454,
      "ching": 5455,
      "-pro": 5456,
      "Ġcomment": 5457,
      "ographic": 5458,
      "Ġdiagnosis": 5459,
      "ĠPat": 5460,
      "iam": 5461,
      "Ġinexpensive": 5462,
      "Ġcrusher": 5463,
      "Ġemotions": 5464,
      "ĠMicrosoft": 5465,
      "ivid": 5466,
      "erves": 5467,
      "Ġopening": 5468,
      "arter": 5469,
      "Not": 5470,
      "uls": 5471,
      "Ġaccum": 5472,
      "oyal": 5473,
      "Ġshad": 5474,
      "Ġcharacters": 5475,
      "Ġears": 5476,
      "Ġworse": 5477,
      "Ġsubstances": 5478,
      "itional": 5479,
      "Ġcommunicate": 5480,
      "Although": 5481,
      "-M": 5482,
      "Ġlegisl": 5483,
      "Ġdecl": 5484,
      "Ġcalories": 5485,
      "ĠControl": 5486,
      "den": 5487,
      "Ġfelt": 5488,
      "Ġmigration": 5489,
      "Ġlubric": 5490,
      "ĠZealand": 5491,
      "Ġord": 5492,
      "ĠConsider": 5493,
      "ayer": 5494,
      "Ġpanel": 5495,
      "Ġpanels": 5496,
      "Ġthroat": 5497,
      "Ġlifetime": 5498,
      "asm": 5499,
      "Ġtum": 5500,
      "Ġexcessive": 5501,
      "Ġsensors": 5502,
      "ĠStudents": 5503,
      "Ġnotes": 5504,
      "Ġspots": 5505,
      "Ġdiscussion": 5506,
      "ept": 5507,
      "Ġrecognize": 5508,
      "men": 5509,
      "Ġitem": 5510,
      "Ġseeking": 5511,
      "Ġretain": 5512,
      "ĠAnother": 5513,
      "mun": 5514,
      "From": 5515,
      "Ġreliability": 5516,
      "ĠCancer": 5517,
      "Ġindependent": 5518,
      "Ġregulations": 5519,
      "Ġinher": 5520,
      "ĠTV": 5521,
      "Ġwearing": 5522,
      "Ġparas": 5523,
      "Ġconfidence": 5524,
      "Ġstability": 5525,
      "Ġstores": 5526,
      "Ġyog": 5527,
      "ĠOb": 5528,
      "Ġdominant": 5529,
      "Ġabsence": 5530,
      "ĠHawai": 5531,
      "Ġbet": 5532,
      "-F": 5533,
      "ĠSee": 5534,
      "Ġterrestrial": 5535,
      "Ġmagnesium": 5536,
      "Ġmoved": 5537,
      "Ġsociet": 5538,
      "Ġhardware": 5539,
      "iable": 5540,
      "Ġforests": 5541,
      "umes": 5542,
      "oves": 5543,
      "IP": 5544,
      "ĠMus": 5545,
      "Ġsturdy": 5546,
      "unt": 5547,
      "Ġknee": 5548,
      "Ġannounced": 5549,
      "ĠDet": 5550,
      "nect": 5551,
      "Ġcompleted": 5552,
      "Ġferment": 5553,
      "Ġreproduction": 5554,
      "Ġcovers": 5555,
      "Reg": 5556,
      "Ġexplained": 5557,
      "Ġsuccessfully": 5558,
      "opy": 5559,
      "Ġstudying": 5560,
      "but": 5561,
      "ĠHome": 5562,
      "Ġblocks": 5563,
      "ientists": 5564,
      "Ġcrit": 5565,
      "Ġtip": 5566,
      "Ġtag": 5567,
      "Ġjournals": 5568,
      "Ġvalid": 5569,
      "Ġsuffer": 5570,
      "Ġasthma": 5571,
      "Ġattribut": 5572,
      "Ġnanoparticles": 5573,
      "Ġcombustion": 5574,
      "Ġagree": 5575,
      "olt": 5576,
      "ĠWork": 5577,
      "Ġhoriz": 5578,
      "Ġagreement": 5579,
      "amps": 5580,
      "abs": 5581,
      "Ġunhealthy": 5582,
      "Ġventilation": 5583,
      "Ġreplaced": 5584,
      "Ġtrauma": 5585,
      "Ġschedul": 5586,
      "Ġsafeguard": 5587,
      "Ġsurgical": 5588,
      "Ġswimming": 5589,
      "||": 5590,
      "',": 5591,
      "Ġconv": 5592,
      "Ġmuseum": 5593,
      "ĠGold": 5594,
      "Ġages": 5595,
      "ĠDirector": 5596,
      "ears": 5597,
      "ĠLouis": 5598,
      "Ġscratch": 5599,
      "Ġpreferences": 5600,
      "ĠLook": 5601,
      "Ġneighborhood": 5602,
      "ĠStart": 5603,
      "98": 5604,
      "Ġtransparent": 5605,
      "Ġindoor": 5606,
      "Ġstring": 5607,
      "Ġrace": 5608,
      "Ġalleviate": 5609,
      "Ġcompetition": 5610,
      "ĠEv": 5611,
      "Ġconstantly": 5612,
      "Ġblooms": 5613,
      "Ġerosion": 5614,
      "Ġfeathers": 5615,
      "Ġfol": 5616,
      "Ġthermal": 5617,
      "Ġgerm": 5618,
      "ĠFamily": 5619,
      "Ġoccup": 5620,
      "Ġcannabis": 5621,
      "cing": 5622,
      "ĠCarolina": 5623,
      "]Ċ": 5624,
      "Ġrig": 5625,
      "Ġmetals": 5626,
      "Ġturtles": 5627,
      "Ġunf": 5628,
      "Ġoverl": 5629,
      "Description": 5630,
      "><": 5631,
      "Ġfavour": 5632,
      "Ġprogramming": 5633,
      "ĠĠĠĠĠĠĠ": 5634,
      "ither": 5635,
      "Ġagricultural": 5636,
      "ls": 5637,
      "Ġconsequences": 5638,
      "Ġmining": 5639,
      "Ġarray": 5640,
      "amed": 5641,
      "Ġinformed": 5642,
      ".âĢĿĊ": 5643,
      "Ġgut": 5644,
      "athy": 5645,
      "aying": 5646,
      "Ġbehaviors": 5647,
      "box": 5648,
      "Ġunderlying": 5649,
      "ette": 5650,
      "Ġregister": 5651,
      "Ġconstraints": 5652,
      "ĠRemember": 5653,
      "Ġusage": 5654,
      "Ġexperiments": 5655,
      "Ġmission": 5656,
      "Ġhistorical": 5657,
      "Ġcluster": 5658,
      "Ġhandling": 5659,
      "Ġmineral": 5660,
      "Ġstands": 5661,
      "Ġknows": 5662,
      "41": 5663,
      "Ġshell": 5664,
      "Ġoperate": 5665,
      "ucks": 5666,
      "Ġpossibly": 5667,
      "ĠEast": 5668,
      "-of": 5669,
      "Ġoral": 5670,
      "Ġplayed": 5671,
      "ĠGood": 5672,
      "Ġphysic": 5673,
      "Ġmanual": 5674,
      "Ġessence": 5675,
      "Ġgave": 5676,
      "rafting": 5677,
      "OT": 5678,
      "LE": 5679,
      "Ġscreens": 5680,
      "Ġconsume": 5681,
      "-D": 5682,
      "riers": 5683,
      "Ġgalax": 5684,
      "Se": 5685,
      "Ġcompare": 5686,
      "Ġirrigation": 5687,
      "Ġautoimmune": 5688,
      "Ġsusp": 5689,
      "64": 5690,
      "IM": 5691,
      "Ġrecords": 5692,
      "Ġnerve": 5693,
      "ĠWhite": 5694,
      "Ġbreathing": 5695,
      "Ġruns": 5696,
      "Ġchamber": 5697,
      "Ġmanner": 5698,
      "resh": 5699,
      "Ġcompound": 5700,
      "mark": 5701,
      "oding": 5702,
      "ĠLife": 5703,
      "bert": 5704,
      "Ġnose": 5705,
      "Ġpuppy": 5706,
      "ĠRoman": 5707,
      "Ġscrew": 5708,
      "ĠThus": 5709,
      "ĠHave": 5710,
      "outs": 5711,
      "Ġregul": 5712,
      "\"Ċ": 5713,
      "Ġvaccine": 5714,
      "Ġconventional": 5715,
      "Or": 5716,
      "ixtures": 5717,
      "Ġcards": 5718,
      "Ġpeace": 5719,
      "Ġscheme": 5720,
      "-B": 5721,
      "ĠAsia": 5722,
      "Ġdirt": 5723,
      "âĢĭ": 5724,
      "including": 5725,
      "ĠÎ": 5726,
      "Ġbags": 5727,
      "Ġpatch": 5728,
      "Ġ>": 5729,
      "ek": 5730,
      "position": 5731,
      "ĠRel": 5732,
      "Ġmanufacturer": 5733,
      "ĠMexican": 5734,
      "yg": 5735,
      "Ġreward": 5736,
      "Ġnovel": 5737,
      "Ġteams": 5738,
      "Ġ...ĊĊ": 5739,
      "Ġclinic": 5740,
      "ache": 5741,
      "Ġcle": 5742,
      "Ġsteady": 5743,
      "acc": 5744,
      "Ġkeeps": 5745,
      "Ġintellectual": 5746,
      "Ġfacts": 5747,
      "Ġ{": 5748,
      "ĠBel": 5749,
      "ĠNetwork": 5750,
      "ĠAgriculture": 5751,
      "Ġmissing": 5752,
      "ford": 5753,
      "Ġpassengers": 5754,
      "Ġwashing": 5755,
      "Ġtrends": 5756,
      "Ġbreeds": 5757,
      "Ġmoves": 5758,
      "Ġimplant": 5759,
      "Ġke": 5760,
      "Ġmotors": 5761,
      "Ġbill": 5762,
      "Ġsales": 5763,
      "Ġcreativity": 5764,
      "Ġbasically": 5765,
      "Ġshade": 5766,
      "Ġends": 5767,
      "Ġrecover": 5768,
      "Ġnecess": 5769,
      "ĠExt": 5770,
      "Ġimagine": 5771,
      "gs": 5772,
      "Ġantimicrobial": 5773,
      "Ġsight": 5774,
      "Ġfeelings": 5775,
      "Ġanywhere": 5776,
      "Ġdiff": 5777,
      "97": 5778,
      "Ġinch": 5779,
      "Ġveterinary": 5780,
      "PC": 5781,
      "ĠBar": 5782,
      "Ġpoison": 5783,
      "Ġdiscussed": 5784,
      "orous": 5785,
      "Ġdynamic": 5786,
      "Ġhundreds": 5787,
      "Ġengaging": 5788,
      "Ġrevolution": 5789,
      "enz": 5790,
      "Despite": 5791,
      "ĠEastern": 5792,
      "43": 5793,
      "Ġmeasurement": 5794,
      "Ġscene": 5795,
      "Ġvalve": 5796,
      "Ġhydro": 5797,
      "Ġpond": 5798,
      "ifier": 5799,
      "edge": 5800,
      "Ġedges": 5801,
      "Ġdirty": 5802,
      "ĠDIY": 5803,
      "ĠSyndrome": 5804,
      "Ġinnovation": 5805,
      "ikes": 5806,
      "Before": 5807,
      "ĠCat": 5808,
      "Ġlenses": 5809,
      "Ġcheap": 5810,
      "Ġnet": 5811,
      "Ġappointment": 5812,
      "Ġdialog": 5813,
      "Ġresidential": 5814,
      "Ġtobacco": 5815,
      "ogn": 5816,
      "uing": 5817,
      "Ġknowing": 5818,
      "Ġlaptop": 5819,
      "ĠIN": 5820,
      "proximately": 5821,
      "Ġpolar": 5822,
      "Ġvegetable": 5823,
      "Ġcalls": 5824,
      "ĠGuide": 5825,
      "Ġcaterpill": 5826,
      "Ġextensive": 5827,
      "Ġpruning": 5828,
      "Ġsupports": 5829,
      "Ġcru": 5830,
      "Ġbeans": 5831,
      "Ġremaining": 5832,
      "Ġmillions": 5833,
      "Ġreplacement": 5834,
      "Ġthrive": 5835,
      "Ġfre": 5836,
      "Ġdisrup": 5837,
      "Ġcities": 5838,
      "Ġstronger": 5839,
      "ĠGeorge": 5840,
      "Ġorange": 5841,
      "Ġtea": 5842,
      "Ġrecorded": 5843,
      "ĠBu": 5844,
      "Ġentirely": 5845,
      "ĠAngel": 5846,
      "Ġremote": 5847,
      "Ġsquirrel": 5848,
      "Ġsupporting": 5849,
      "Ġcraft": 5850,
      "ii": 5851,
      "ĠRuss": 5852,
      "Ġeveryday": 5853,
      "Ġride": 5854,
      "AB": 5855,
      "ĠDist": 5856,
      "Ġcontinued": 5857,
      "Ġheritage": 5858,
      "Ġvariable": 5859,
      "ĠFriday": 5860,
      "Ġdolph": 5861,
      "lings": 5862,
      "Ġzone": 5863,
      "Ġbreathe": 5864,
      "Ġsafely": 5865,
      "Ġdiagrams": 5866,
      "Ġfan": 5867,
      "Ġentertainment": 5868,
      "Ġexterior": 5869,
      "Ġletter": 5870,
      "Ġgauge": 5871,
      "Ġreputation": 5872,
      "Ġartist": 5873,
      "rying": 5874,
      "ĠBook": 5875,
      "Ġexplicitly": 5876,
      "Ġpathogens": 5877,
      "ĠBritain": 5878,
      "Ġaccessible": 5879,
      "Ġjobs": 5880,
      "Ġbite": 5881,
      "Ġprim": 5882,
      "era": 5883,
      "Ġdetection": 5884,
      "ĠPlease": 5885,
      "Ġmoist": 5886,
      "erved": 5887,
      "]ĊĊ": 5888,
      "Ġmassive": 5889,
      "Ġlinks": 5890,
      "berry": 5891,
      "Ġmechanisms": 5892,
      "Ġnest": 5893,
      "lor": 5894,
      "Ġtongue": 5895,
      "Ġfinally": 5896,
      "Ġtire": 5897,
      "Ġartists": 5898,
      "fect": 5899,
      "Ġfacilities": 5900,
      "Ġtorque": 5901,
      "ols": 5902,
      "Ġmovies": 5903,
      "ĠYouTube": 5904,
      "Ġcaffeine": 5905,
      "Ġcord": 5906,
      "Ġtoxins": 5907,
      "Ġtransportation": 5908,
      "Ġcrisp": 5909,
      "Ġserves": 5910,
      "Ġgardening": 5911,
      "lock": 5912,
      "Ġfarming": 5913,
      "Ġdisabilities": 5914,
      "inking": 5915,
      "ĠNature": 5916,
      "Ġengines": 5917,
      "Ġappealing": 5918,
      "Ġmice": 5919,
      "Ġtrail": 5920,
      "Ġtruth": 5921,
      "Ġcommitment": 5922,
      "onscious": 5923,
      "ĠKnow": 5924,
      "Ġhomeowners": 5925,
      "Two": 5926,
      "Ġuntreated": 5927,
      "press": 5928,
      "Ġinfected": 5929,
      "Ġserved": 5930,
      "ĠExper": 5931,
      "Ġobtained": 5932,
      "ependent": 5933,
      "51": 5934,
      "-the": 5935,
      "Ġpurs": 5936,
      "Ġprotective": 5937,
      "Ġlisted": 5938,
      "Ġped": 5939,
      "Ġapplying": 5940,
      "Ġgravity": 5941,
      "Ġstudied": 5942,
      "ĠMaterials": 5943,
      "Ġbehaviour": 5944,
      "Ġequation": 5945,
      "Ġirrit": 5946,
      "iger": 5947,
      "ĠVietnam": 5948,
      "Ġsubs": 5949,
      "Ġmountain": 5950,
      "ĠEngland": 5951,
      "Ġmobility": 5952,
      "SA": 5953,
      "Ġcompatible": 5954,
      "Â°C": 5955,
      "ĠRob": 5956,
      "ĠIllinois": 5957,
      "ĠDef": 5958,
      "Ġplastics": 5959,
      "Ġsilicon": 5960,
      "Ġembr": 5961,
      "Ġcompr": 5962,
      "Ġdisposal": 5963,
      "Ġholds": 5964,
      "arded": 5965,
      "ĠCam": 5966,
      "ulty": 5967,
      "Ġefficiently": 5968,
      "duction": 5969,
      "Ġgrows": 5970,
      "ĠComputer": 5971,
      "ĠLaboratory": 5972,
      "Ġadvertising": 5973,
      "Ġspecialized": 5974,
      "OL": 5975,
      "Ġseverity": 5976,
      "Ġminute": 5977,
      "Ġsoup": 5978,
      "asy": 5979,
      "ample": 5980,
      "ĠEff": 5981,
      "ĠWorks": 5982,
      "Ġpest": 5983,
      "Ġbutterflies": 5984,
      "urric": 5985,
      "lin": 5986,
      "Ġgone": 5987,
      "Ġpneumonia": 5988,
      "ĠTime": 5989,
      "Ġnutritious": 5990,
      "ean": 5991,
      "Ġcrush": 5992,
      "ĠIsland": 5993,
      "Ġrectang": 5994,
      "ĠTim": 5995,
      "ustom": 5996,
      "Ġbrings": 5997,
      "Ġminimize": 5998,
      "Ġasking": 5999,
      "Ġbrief": 6000,
      "Ġtinnitus": 6001,
      "Ġstitch": 6002,
      "Ġsector": 6003,
      "ĠDecember": 6004,
      "ella": 6005,
      "Ġshrimp": 6006,
      "ĠDog": 6007,
      "Ġbee": 6008,
      "Ġreflects": 6009,
      "Ġstrain": 6010,
      "Qu": 6011,
      "Ġthanks": 6012,
      "Ġproposed": 6013,
      "Ġhabitats": 6014,
      "ĠVictor": 6015,
      "Ġluxury": 6016,
      "Ġske": 6017,
      "Ġrabbit": 6018,
      "ĠSea": 6019,
      "Ġindex": 6020,
      "Ġcavity": 6021,
      "Ġpivotal": 6022,
      "Ġachieved": 6023,
      "stream": 6024,
      "ĠMac": 6025,
      "Ġprecise": 6026,
      "Ġtaught": 6027,
      "Ġrely": 6028,
      "Ġextended": 6029,
      "Ġmeasurements": 6030,
      "Ġcollaboration": 6031,
      "Ġdream": 6032,
      "Ġpassion": 6033,
      "Ġneurons": 6034,
      "Ġworksheets": 6035,
      "afe": 6036,
      "-powered": 6037,
      "Ġsecondary": 6038,
      "ĠJersey": 6039,
      "Ġtrim": 6040,
      "ĠðŁ": 6041,
      "46": 6042,
      "Ġcontinuous": 6043,
      "Ġmales": 6044,
      "cul": 6045,
      "lers": 6046,
      "ĠJapanese": 6047,
      "Ġfrequent": 6048,
      "Ġcable": 6049,
      "ional": 6050,
      "Ġmanip": 6051,
      "Ġhyp": 6052,
      "opic": 6053,
      "cement": 6054,
      "Ġglaucoma": 6055,
      "Ġokay": 6056,
      "Ġautomotive": 6057,
      "ship": 6058,
      "Since": 6059,
      "Ġchapter": 6060,
      "CH": 6061,
      "ĠEle": 6062,
      "Ġmortality": 6063,
      "Ġrescue": 6064,
      "asses": 6065,
      "Ġmeters": 6066,
      "Ġassistance": 6067,
      "Ġexpertise": 6068,
      "Ġinterview": 6069,
      "Ġloved": 6070,
      "illa": 6071,
      "Ġest": 6072,
      "alled": 6073,
      "ĠCarbon": 6074,
      "Ġsitting": 6075,
      "Ġexecution": 6076,
      "Ġminimal": 6077,
      "ifts": 6078,
      "ĠSal": 6079,
      "Stud": 6080,
      "Ġfinished": 6081,
      "Ġtackle": 6082,
      "ĠOpen": 6083,
      "ĠJesus": 6084,
      "Ġimprovement": 6085,
      "ĠBehavior": 6086,
      "Ġprominent": 6087,
      "grade": 6088,
      "Ġmanufacturers": 6089,
      "ĠHVAC": 6090,
      "aired": 6091,
      "Ġfollows": 6092,
      "Ġparty": 6093,
      "rad": 6094,
      "Ġbank": 6095,
      "Ġsubstitute": 6096,
      "Ġsky": 6097,
      "Ġclimates": 6098,
      "Ġattend": 6099,
      "Ġstars": 6100,
      "Ġindicates": 6101,
      "Ġintroduction": 6102,
      "Ġherb": 6103,
      "ĠCommon": 6104,
      "Ġion": 6105,
      "Ġvomiting": 6106,
      "Ġrecept": 6107,
      "Ġpredators": 6108,
      "Ġalkal": 6109,
      "ĠCommittee": 6110,
      "ias": 6111,
      "Ġdiesel": 6112,
      "ocr": 6113,
      "Ġscript": 6114,
      "Ġmicrosc": 6115,
      "nel": 6116,
      "Ġresponsibility": 6117,
      "Ġalgorithms": 6118,
      "ĠVitamin": 6119,
      "Ġpartnership": 6120,
      "ĠTreatment": 6121,
      "Ġcoating": 6122,
      "Ġinterior": 6123,
      "ĠFrancisco": 6124,
      "ĠSol": 6125,
      "72": 6126,
      "Ġworkshops": 6127,
      "Ġcharging": 6128,
      "BC": 6129,
      "Ġsymptom": 6130,
      "EO": 6131,
      "Ġduct": 6132,
      "52": 6133,
      "Ġfewer": 6134,
      "yc": 6135,
      "no": 6136,
      "ĠView": 6137,
      "Ġsupported": 6138,
      "ĠBay": 6139,
      "Ġdiagram": 6140,
      "Ġsmoke": 6141,
      "Ġsouthern": 6142,
      "ĠProject": 6143,
      "Ġtires": 6144,
      "ĠLaw": 6145,
      "inct": 6146,
      "ĠLake": 6147,
      "Ġouter": 6148,
      "Ġpartner": 6149,
      "ĠAdv": 6150,
      "Ġremoval": 6151,
      "Ġtrouble": 6152,
      "Ġexcept": 6153,
      "just": 6154,
      "stone": 6155,
      "Ġpartners": 6156,
      "Ġcontrols": 6157,
      "well": 6158,
      "Ġminor": 6159,
      "Ġgreatly": 6160,
      "ĠFuture": 6161,
      "Ġmention": 6162,
      "Ġhappening": 6163,
      "Ġcorner": 6164,
      "Ind": 6165,
      "Ġcast": 6166,
      "Ġmenu": 6167,
      "Ġfeels": 6168,
      "Ġchemistry": 6169,
      "ĠMississippi": 6170,
      "ola": 6171,
      "Ġvirtually": 6172,
      "Ġease": 6173,
      "Ġtast": 6174,
      "Ġreefs": 6175,
      "Ġbutterfly": 6176,
      "Ġstanding": 6177,
      "Ġinsulation": 6178,
      "PU": 6179,
      "Ġprecisely": 6180,
      "Ġecosystems": 6181,
      "Ġdreams": 6182,
      "-sh": 6183,
      "Ġnorthern": 6184,
      "ĠCaribbean": 6185,
      "avy": 6186,
      "Ġdiagnostic": 6187,
      "ham": 6188,
      "Ġfluctu": 6189,
      "ĠDes": 6190,
      "Ġrecipes": 6191,
      "Ġrating": 6192,
      "II": 6193,
      "ague": 6194,
      "urity": 6195,
      "ĠPhil": 6196,
      "Ġplumbing": 6197,
      "ĠCD": 6198,
      "flow": 6199,
      "Read": 6200,
      "Ġmanaging": 6201,
      "Ġformer": 6202,
      "Ġplus": 6203,
      "Ġtown": 6204,
      "96": 6205,
      "alm": 6206,
      "ĠYoung": 6207,
      "Ġyard": 6208,
      "Ġscan": 6209,
      "Ġresponses": 6210,
      "Ġstructural": 6211,
      "ĠLevel": 6212,
      "Ġlisten": 6213,
      "Ġappropriately": 6214,
      "ĠAmericans": 6215,
      "Ġtrick": 6216,
      "Ġclarity": 6217,
      "Ġharder": 6218,
      "Ġconcerned": 6219,
      "Ġwatching": 6220,
      "Ġaccident": 6221,
      "Ġdomestic": 6222,
      "ĠVis": 6223,
      "Ġbackyard": 6224,
      "from": 6225,
      "osa": 6226,
      "agine": 6227,
      "Ġperfectly": 6228,
      "ĠManagement": 6229,
      "Ġclassic": 6230,
      "Ġadminister": 6231,
      "ĠBefore": 6232,
      "Ġplatforms": 6233,
      "Ġpipe": 6234,
      "Ġattach": 6235,
      "-dr": 6236,
      "Ġluck": 6237,
      "Ġblind": 6238,
      "Ġloose": 6239,
      "Ġmood": 6240,
      "ses": 6241,
      "Ġtick": 6242,
      "Ġsuit": 6243,
      "Ġversatility": 6244,
      "Ġultimately": 6245,
      "Ġwings": 6246,
      "Ġsuppl": 6247,
      "vas": 6248,
      "ĠPort": 6249,
      "Ġtheoretical": 6250,
      "Ġtroubleshoot": 6251,
      "Ġnutritional": 6252,
      "Ġappetite": 6253,
      "Ġcouldn": 6254,
      "Ġchances": 6255,
      "you": 6256,
      "Ġdestruction": 6257,
      "Ġresistant": 6258,
      "Ġevapor": 6259,
      "ĠChatGPT": 6260,
      "Ġastronom": 6261,
      "ĠPol": 6262,
      "ĠLong": 6263,
      "-old": 6264,
      "ĠWomen": 6265,
      "Ġcer": 6266,
      "ĠData": 6267,
      "Ġtherap": 6268,
      "antly": 6269,
      "erving": 6270,
      "Ġwhereas": 6271,
      "structions": 6272,
      "Ġbrowser": 6273,
      "Ġleak": 6274,
      "Ġmarijuana": 6275,
      "Ġmoth": 6276,
      "ĠInc": 6277,
      "AI": 6278,
      "under": 6279,
      "Don": 6280,
      "Ġtables": 6281,
      "Ġshock": 6282,
      "ĠLa": 6283,
      "Ġsemiconductor": 6284,
      "ĠSingapore": 6285,
      "uality": 6286,
      "ĠPDF": 6287,
      "uous": 6288,
      "thes": 6289,
      "ĠSometimes": 6290,
      "Ġprecision": 6291,
      "esides": 6292,
      "ĠBlue": 6293,
      "ĠMr": 6294,
      "Ġalt": 6295,
      "ĠOntario": 6296,
      "ĠWeb": 6297,
      "Ġyouth": 6298,
      "osc": 6299,
      "Ġdive": 6300,
      "ĠStand": 6301,
      "Ġtough": 6302,
      "uming": 6303,
      "Ġshed": 6304,
      "Ġpink": 6305,
      "Ġamb": 6306,
      "Ġlaboratory": 6307,
      "ogram": 6308,
      "agers": 6309,
      "ĠDisc": 6310,
      "Ġmattress": 6311,
      "Advertisement": 6312,
      "Every": 6313,
      "ĠMonday": 6314,
      "Ġhealing": 6315,
      "Ġhealthier": 6316,
      "Ġtomorrow": 6317,
      "ĠPet": 6318,
      "Ġcaptivating": 6319,
      "TH": 6320,
      "Ġbloom": 6321,
      "Ġwisdom": 6322,
      "ĠHospital": 6323,
      "!!": 6324,
      "Ġthreshold": 6325,
      "ĠMal": 6326,
      "Ġweapons": 6327,
      "Ġserving": 6328,
      "abetes": 6329,
      "Ġtit": 6330,
      "Ġviruses": 6331,
      "Ġdramatic": 6332,
      "Ġisland": 6333,
      "ĠWood": 6334,
      "Ġcontrovers": 6335,
      "Ġfertilizer": 6336,
      "uel": 6337,
      "Ġvet": 6338,
      "Share": 6339,
      "Ġrout": 6340,
      "Ġgenerations": 6341,
      "Ġcompanions": 6342,
      "Ġdescription": 6343,
      "ĠMount": 6344,
      "Ġoscill": 6345,
      "Ġyes": 6346,
      "ĠArch": 6347,
      "Ġflexible": 6348,
      "ĠIr": 6349,
      "Ġprinciple": 6350,
      "Em": 6351,
      "ĠUV": 6352,
      "ĠTw": 6353,
      "Does": 6354,
      "Ġradi": 6355,
      "phone": 6356,
      "Ġrecognition": 6357,
      "Ġfairly": 6358,
      "Ġlettuce": 6359,
      "Ġov": 6360,
      "Ġcontainers": 6361,
      "Ġantibiotics": 6362,
      "Ġcopy": 6363,
      "pm": 6364,
      "ĠLittle": 6365,
      "bor": 6366,
      "-a": 6367,
      "iously": 6368,
      "Ġfacing": 6369,
      "Ġclock": 6370,
      "ĠWisconsin": 6371,
      "here": 6372,
      "Ġrealize": 6373,
      "Ġmm": 6374,
      "Ġplanted": 6375,
      "Ġprioritize": 6376,
      "47": 6377,
      "Ġwelfare": 6378,
      "Ġholding": 6379,
      "ĠMachine": 6380,
      "Ġreached": 6381,
      "Ġreproduce": 6382,
      "91": 6383,
      "rite": 6384,
      "Ġleaders": 6385,
      "orld": 6386,
      "Ġsubjects": 6387,
      "Ġflexibility": 6388,
      "56": 6389,
      "Ġenables": 6390,
      "Ġprevention": 6391,
      "ĠEnvironmental": 6392,
      "oids": 6393,
      "ĠAP": 6394,
      "ĠBro": 6395,
      "Ġcurrents": 6396,
      "Ġmeth": 6397,
      "Ġeliminate": 6398,
      "Ġmolecule": 6399,
      "Ġceiling": 6400,
      "Ġrh": 6401,
      "Ġdivided": 6402,
      "Ġbuds": 6403,
      "fit": 6404,
      "Ġrobots": 6405,
      "oil": 6406,
      "Ġdegradation": 6407,
      "Where": 6408,
      "During": 6409,
      "Ġburning": 6410,
      "Ġacoustic": 6411,
      "oted": 6412,
      "Ġlies": 6413,
      "ĠAM": 6414,
      "ĠOF": 6415,
      "ĠAD": 6416,
      "ĠUnder": 6417,
      "Ġbeef": 6418,
      "spec": 6419,
      "Ġstorm": 6420,
      "struct": 6421,
      "Ġgeometry": 6422,
      "Ġselecting": 6423,
      "Ġpencil": 6424,
      "Ġcancers": 6425,
      "Ġcas": 6426,
      "Ġlithium": 6427,
      "Ġparticle": 6428,
      "Ġlived": 6429,
      "Ġclients": 6430,
      "Ġinhib": 6431,
      "ply": 6432,
      "ocket": 6433,
      "ĠHTML": 6434,
      "ubs": 6435,
      "53": 6436,
      "taining": 6437,
      "Ġmirrors": 6438,
      "abit": 6439,
      "Ġbugs": 6440,
      "ĠBal": 6441,
      "ĠBegin": 6442,
      "Ġsoap": 6443,
      "Ġenormous": 6444,
      "Ġgrid": 6445,
      "\"We": 6446,
      "Ġgluten": 6447,
      "Ġseat": 6448,
      "ĠNeed": 6449,
      "heet": 6450,
      "ĠSimilarly": 6451,
      "Ġfitness": 6452,
      "Ġearliest": 6453,
      "===========": 6454,
      "Ġberries": 6455,
      "ĠInt": 6456,
      "Ġodor": 6457,
      "Welcome": 6458,
      "Ġbal": 6459,
      "Ġble": 6460,
      "CS": 6461,
      "ĠDel": 6462,
      "Ġovernight": 6463,
      "ĠRet": 6464,
      "mers": 6465,
      "-P": 6466,
      "Ġpaid": 6467,
      "\"ĊĊ": 6468,
      "Ġspecimens": 6469,
      "Ġabilities": 6470,
      "Ġfurnace": 6471,
      "Ġgrain": 6472,
      "Ġreligion": 6473,
      "Ġspatial": 6474,
      "ultural": 6475,
      "Ġproductivity": 6476,
      "Ġaims": 6477,
      "Ġsilver": 6478,
      "Ġgases": 6479,
      "Ġappreciate": 6480,
      "Ġexperiencing": 6481,
      "Ġafternoon": 6482,
      "Ġattacks": 6483,
      "Ġconversation": 6484,
      "Ġrecommendations": 6485,
      "Ġcomplicated": 6486,
      "Ġfinger": 6487,
      "rical": 6488,
      "appropriate": 6489,
      "Ġsandwich": 6490,
      "Ġblend": 6491,
      "ĠStrateg": 6492,
      "ĠPost": 6493,
      "Ġ**": 6494,
      "enses": 6495,
      ".m": 6496,
      "Ġpossibility": 6497,
      "ĠEinstein": 6498,
      "Ġnoted": 6499,
      "Ġpackaging": 6500,
      "Ġabstract": 6501,
      "Ġcitrus": 6502,
      "Ġplasma": 6503,
      "ĠFree": 6504,
      "Ġloop": 6505,
      "Ġrehabilitation": 6506,
      "Ġgrooming": 6507,
      "Ġextend": 6508,
      "Ġwonderful": 6509,
      "Ġwilling": 6510,
      "Ġgrand": 6511,
      "Ġspectrum": 6512,
      "ĠImpact": 6513,
      "rest": 6514,
      "ergy": 6515,
      "Ġseafood": 6516,
      "Ġknew": 6517,
      "Ġfocuses": 6518,
      "ĠiPhone": 6519,
      "Ġperpendicular": 6520,
      "Ġabandon": 6521,
      "do": 6522,
      "Ġshut": 6523,
      "Ġconsumer": 6524,
      "clusive": 6525,
      "ults": 6526,
      "Ġmicrobes": 6527,
      "Ġprompt": 6528,
      "Ġfunding": 6529,
      "Ġconvert": 6530,
      "Ġstainless": 6531,
      "Ġepisode": 6532,
      "54": 6533,
      "Ġfostering": 6534,
      "roup": 6535,
      "Ġcoastal": 6536,
      "Ġdrops": 6537,
      "elled": 6538,
      "ĠMil": 6539,
      "Ġstraightforward": 6540,
      "ka": 6541,
      "rous": 6542,
      "ĠWestern": 6543,
      "Ġsteam": 6544,
      "Other": 6545,
      "ĠProfessor": 6546,
      "ĠInf": 6547,
      "Ġdurable": 6548,
      "rout": 6549,
      "ĠAnimals": 6550,
      "Ġextent": 6551,
      "Add": 6552,
      "ĠOhio": 6553,
      "âĪĴ": 6554,
      "Ġlivelihood": 6555,
      "RI": 6556,
      "Ġpel": 6557,
      "pon": 6558,
      "ĠThomas": 6559,
      "Ġbiom": 6560,
      "Ġconcerning": 6561,
      "ĠAlaska": 6562,
      "Ġreveals": 6563,
      "agon": 6564,
      "Ġtoys": 6565,
      "Ġgradually": 6566,
      "Ġsolely": 6567,
      "berg": 6568,
      "Ġnearby": 6569,
      "Also": 6570,
      "ĠMedical": 6571,
      "ĠPe": 6572,
      "Ġinstruction": 6573,
      "rid": 6574,
      "Ġoils": 6575,
      "ĠEnsure": 6576,
      ");": 6577,
      "Ġheads": 6578,
      "Ġunderneath": 6579,
      "Ġresolution": 6580,
      "FA": 6581,
      "lections": 6582,
      "Ġresid": 6583,
      "ĠSpace": 6584,
      "Ġinteractive": 6585,
      "Ġdisturb": 6586,
      "izers": 6587,
      "inity": 6588,
      "Ġcalculate": 6589,
      "Ġrabbits": 6590,
      "Ġrubber": 6591,
      "ini": 6592,
      "Ġrecognized": 6593,
      "Ġlimits": 6594,
      "49": 6595,
      "Ġrevenue": 6596,
      "house": 6597,
      "ĠFind": 6598,
      "Ġclay": 6599,
      "Ġdirector": 6600,
      "Ġconvenient": 6601,
      "Ġbranch": 6602,
      "ĠShould": 6603,
      "Ġinterventions": 6604,
      "etch": 6605,
      "Ġchew": 6606,
      "Ġapparatus": 6607,
      "Am": 6608,
      "Ġdifficulty": 6609,
      "closure": 6610,
      "Ġwatering": 6611,
      "ĠUnderstanding": 6612,
      "Ġparticipate": 6613,
      "Ġbreaking": 6614,
      "Ġbottle": 6615,
      "Ġinfectious": 6616,
      "enic": 6617,
      "Ġjack": 6618,
      "Ġoxid": 6619,
      "Ġsculpt": 6620,
      "Ġdecline": 6621,
      "Ġdealing": 6622,
      "Ġshaft": 6623,
      "Ġdied": 6624,
      "Ġhop": 6625,
      "Ġdoors": 6626,
      "econd": 6627,
      "ĠEqu": 6628,
      "Ġperipheral": 6629,
      "Ġarms": 6630,
      "Ġsum": 6631,
      "Ġacts": 6632,
      "ĠFe": 6633,
      "tt": 6634,
      "Keep": 6635,
      "Ġtwenty": 6636,
      "CD": 6637,
      "oys": 6638,
      "Ġkilled": 6639,
      "Ġprecautions": 6640,
      "ĠPractice": 6641,
      "Ġpresentation": 6642,
      "Ġdefine": 6643,
      "Ġcaught": 6644,
      "'.": 6645,
      "ĠStreet": 6646,
      "Ġembedded": 6647,
      "ĠFurthermore": 6648,
      "Ġdisapp": 6649,
      "92": 6650,
      "ouch": 6651,
      "Ġawesome": 6652,
      "vest": 6653,
      "arbon": 6654,
      "Ġmanaged": 6655,
      "ĠPhot": 6656,
      "Ġleader": 6657,
      "Ġtemplate": 6658,
      "Ġcontributions": 6659,
      "Ġweapon": 6660,
      "Ġdeer": 6661,
      "Ġcraftsmanship": 6662,
      "rain": 6663,
      "Ġbrake": 6664,
      "field": 6665,
      "Ġderived": 6666,
      "ĠSil": 6667,
      "Ġpun": 6668,
      "ĠBetter": 6669,
      "Ġincome": 6670,
      "Ġtraits": 6671,
      "ocy": 6672,
      "-day": 6673,
      "ĠAppl": 6674,
      "Ġunpredictable": 6675,
      "Ġjoints": 6676,
      "iance": 6677,
      "Ġdurability": 6678,
      "Ġshowc": 6679,
      "ourse": 6680,
      "verage": 6681,
      "(s": 6682,
      "Ġunknown": 6683,
      "utch": 6684,
      "Ġspark": 6685,
      "Ġprotecting": 6686,
      "Ġsupposed": 6687,
      "Ġfund": 6688,
      "Ġcrazy": 6689,
      "Ġinstruct": 6690,
      "ĠHouse": 6691,
      "Ġemerge": 6692,
      "Ġstreet": 6693,
      "tebrates": 6694,
      ".D": 6695,
      "Ġweren": 6696,
      "ĠRad": 6697,
      "Ġpersist": 6698,
      "PR": 6699,
      "emia": 6700,
      "Ġintegrated": 6701,
      "west": 6702,
      "Ġcomments": 6703,
      "Ġcalm": 6704,
      "Ġrender": 6705,
      "Ġexcitement": 6706,
      "Ġunpleasant": 6707,
      "Ġfederal": 6708,
      "BS": 6709,
      "Ġfocusing": 6710,
      "equ": 6711,
      "Ġsuffering": 6712,
      "Ġing": 6713,
      "ometer": 6714,
      "Ġfunctionality": 6715,
      "Ġrib": 6716,
      "Ġcompliance": 6717,
      "Ġapparent": 6718,
      "Because": 6719,
      "ras": 6720,
      "Ġbark": 6721,
      "Ġrobust": 6722,
      "ĠBest": 6723,
      "ĠSeveral": 6724,
      "ĠPress": 6725,
      "Ġdwarf": 6726,
      "Ġfavor": 6727,
      "Ġgenome": 6728,
      "ĠCentral": 6729,
      "Ġbench": 6730,
      "Ġphotosynthesis": 6731,
      "ĠCap": 6732,
      "Ġneutr": 6733,
      "-se": 6734,
      "Ġgenetically": 6735,
      "point": 6736,
      "Ġdescribes": 6737,
      "Ġfertility": 6738,
      "Ġextraordinary": 6739,
      "Ġmicroorganisms": 6740,
      "Ġcompl": 6741,
      "Ġconclud": 6742,
      "Ġduration": 6743,
      "ĠNews": 6744,
      "Ġtons": 6745,
      "Ġbrands": 6746,
      "Ġassume": 6747,
      "ĠGeorgia": 6748,
      "arge": 6749,
      "while": 6750,
      "Ġdelay": 6751,
      "til": 6752,
      "-by": 6753,
      "Ġcapital": 6754,
      "Ġbuff": 6755,
      "Ġtremendous": 6756,
      "Ġperspectives": 6757,
      "Ġentry": 6758,
      "Ġtransmit": 6759,
      "-T": 6760,
      "Ġrod": 6761,
      "Ġpossibilities": 6762,
      "Ġbic": 6763,
      "Ġherbs": 6764,
      "66": 6765,
      "Ġdemonstrate": 6766,
      "Ġvariations": 6767,
      "Ġcocoa": 6768,
      "angers": 6769,
      "Ġthoroughly": 6770,
      "://": 6771,
      "88": 6772,
      "86": 6773,
      "erry": 6774,
      "Ġchest": 6775,
      "58": 6776,
      "Ġgoods": 6777,
      "Ġundoubtedly": 6778,
      "Ġpitch": 6779,
      "Ġconc": 6780,
      "ĠOregon": 6781,
      "Ġsections": 6782,
      "ĠOnly": 6783,
      "Understanding": 6784,
      "Ġsac": 6785,
      "Ġhobby": 6786,
      "Ġdietary": 6787,
      "57": 6788,
      "Summary": 6789,
      "ĠRepublic": 6790,
      "ĠMath": 6791,
      "Ġnavigate": 6792,
      "Ġarguments": 6793,
      "âĢ¦ĊĊ": 6794,
      "Ġdeforestation": 6795,
      "Which": 6796,
      "phones": 6797,
      "Ġmultip": 6798,
      "Ġgasoline": 6799,
      "Ġscore": 6800,
      "Ġcircle": 6801,
      "Pr": 6802,
      "arc": 6803,
      "ĠAustralian": 6804,
      "Ġshouldn": 6805,
      "Ġson": 6806,
      "Ġcapac": 6807,
      "leg": 6808,
      "Ġprocessed": 6809,
      "ĠProv": 6810,
      "ĠPerhaps": 6811,
      "Ġsaturated": 6812,
      "Ġjuice": 6813,
      "Ġdesktop": 6814,
      "Figure": 6815,
      "ĠPan": 6816,
      "ĠForm": 6817,
      "Ġbringing": 6818,
      "ĠPakistan": 6819,
      "Just": 6820,
      "Ġinvaluable": 6821,
      "Ġgrocery": 6822,
      "Ġstems": 6823,
      "Ġthyroid": 6824,
      "Ġinfrared": 6825,
      "Ġchecks": 6826,
      "ĠPot": 6827,
      "otics": 6828,
      "Ġaffecting": 6829,
      "OW": 6830,
      "Ġdeterior": 6831,
      "Ġfilters": 6832,
      "Ġgrant": 6833,
      "Ġpairs": 6834,
      "Ġcaution": 6835,
      "AA": 6836,
      "iology": 6837,
      "Ġtape": 6838,
      "ifies": 6839,
      "ãģ": 6840,
      "Ġcultures": 6841,
      "Ġtells": 6842,
      "Ġeco": 6843,
      "Ġbroccoli": 6844,
      "ĠBig": 6845,
      "ĠProgramm": 6846,
      "Ġexamine": 6847,
      "ĠThose": 6848,
      "Ġwellbeing": 6849,
      "Ġnuclear": 6850,
      "-induced": 6851,
      ".'": 6852,
      "Ġpollutants": 6853,
      "Ġbreaks": 6854,
      "Ġpione": 6855,
      "leep": 6856,
      "ooked": 6857,
      "ĠAS": 6858,
      "Ġaccompanied": 6859,
      "Ġsuspect": 6860,
      "itable": 6861,
      "Get": 6862,
      "Ġbeh": 6863,
      "Ġvegan": 6864,
      "olved": 6865,
      "ĠMoreover": 6866,
      "62": 6867,
      "Ġstated": 6868,
      "iac": 6869,
      "Ġbeetles": 6870,
      "Ġpeak": 6871,
      "Ġtheme": 6872,
      "Ġnuts": 6873,
      "Ġproven": 6874,
      "ĠSecond": 6875,
      "Ġcategory": 6876,
      "onomic": 6877,
      "Ġbought": 6878,
      "ĠFortunately": 6879,
      "Ġantenna": 6880,
      "ĠRegular": 6881,
      "Ġsalmon": 6882,
      "reating": 6883,
      "Ġphrase": 6884,
      "Ġanatomy": 6885,
      "Ġproximity": 6886,
      "Ġtract": 6887,
      "ĠCa": 6888,
      "Ġcrack": 6889,
      "ota": 6890,
      "Ġpreferred": 6891,
      "Ġvariation": 6892,
      "Even": 6893,
      "ĠFarm": 6894,
      "-v": 6895,
      "ĠDogs": 6896,
      "ĠIreland": 6897,
      "Avoid": 6898,
      "Ġserver": 6899,
      "Ġforming": 6900,
      "Ġprofile": 6901,
      "ĠPers": 6902,
      "Ġenergetic": 6903,
      "ĠGre": 6904,
      "-L": 6905,
      ",âĢĿ": 6906,
      "feeding": 6907,
      "Ġparameter": 6908,
      "ieve": 6909,
      "icul": 6910,
      "Â·": 6911,
      "Have": 6912,
      "oons": 6913,
      "Ġsing": 6914,
      "ĠTry": 6915,
      "ogether": 6916,
      "Ġadvoc": 6917,
      "Ġmagazine": 6918,
      "Ġloud": 6919,
      "Ġlinear": 6920,
      "Ġidentifying": 6921,
      "Ġenemy": 6922,
      "Ġcomprom": 6923,
      "pat": 6924,
      "Ġcuriosity": 6925,
      "Ġleadership": 6926,
      "Ġevaluate": 6927,
      "Ġcompar": 6928,
      "68": 6929,
      "Cho": 6930,
      "struction": 6931,
      "Ġboxes": 6932,
      "Ġgarbage": 6933,
      "Ġclient": 6934,
      "Ġcam": 6935,
      "Ġliquids": 6936,
      "Ġindispensable": 6937,
      "ĠAT": 6938,
      "Ġintest": 6939,
      "Ġcandid": 6940,
      "isions": 6941,
      "ĠJournal": 6942,
      "Ġkm": 6943,
      "Ġopinions": 6944,
      "Ġvariables": 6945,
      "###": 6946,
      "Fl": 6947,
      "elly": 6948,
      "ocation": 6949,
      "Ġgarlic": 6950,
      "Ġoccurred": 6951,
      "emat": 6952,
      "Ġaward": 6953,
      "Ġtreating": 6954,
      "Ġpepper": 6955,
      "Ġornamental": 6956,
      "abled": 6957,
      "ĠProcess": 6958,
      "Ġviews": 6959,
      "Ġcolumn": 6960,
      "icle": 6961,
      "Ġfibers": 6962,
      "Ġcrew": 6963,
      "Ġster": 6964,
      "Ġcompact": 6965,
      "Ġidentity": 6966,
      "Ġglasses": 6967,
      "cont": 6968,
      "Ġmature": 6969,
      "Water": 6970,
      "Ġmoon": 6971,
      "Ġduty": 6972,
      "Ġcoral": 6973,
      "Ġbulbs": 6974,
      "Ġlistening": 6975,
      "Ġmercury": 6976,
      "-cl": 6977,
      "Ġdough": 6978,
      "Ġprinter": 6979,
      "ectors": 6980,
      "Ġgently": 6981,
      "Ġresidents": 6982,
      "Ġodd": 6983,
      "omething": 6984,
      "Ġmammal": 6985,
      "Ġresponsibilities": 6986,
      "Ġven": 6987,
      "Ġframework": 6988,
      "94": 6989,
      "Ġmusical": 6990,
      "âĢľ": 6991,
      "Ġpersonality": 6992,
      "Ġintense": 6993,
      "ked": 6994,
      "Ġtruck": 6995,
      "Ġgreatest": 6996,
      "ĠClimate": 6997,
      "Ġreaders": 6998,
      "Create": 6999,
      "Ġrecording": 7000,
      "Ġcake": 7001,
      "Ġwaterproof": 7002,
      "Ġcarrots": 7003,
      "Ġinfestation": 7004,
      "Ġbow": 7005,
      "Ġtrav": 7006,
      "Ġdried": 7007,
      "ounting": 7008,
      "Ġgiant": 7009,
      "Ġsecret": 7010,
      "Ġkidney": 7011,
      "Ġusual": 7012,
      "olves": 7013,
      "Ġoptical": 7014,
      "ĠCredit": 7015,
      "omin": 7016,
      "Ġwhilst": 7017,
      "ĠNevertheless": 7018,
      "miss": 7019,
      "ĠAR": 7020,
      "Ġore": 7021,
      "Ġcomputing": 7022,
      "Ġlip": 7023,
      "Ġliterature": 7024,
      "Ġglobally": 7025,
      "ĠSign": 7026,
      "59": 7027,
      "Ġengagement": 7028,
      "orse": 7029,
      "Ġsnake": 7030,
      "Ġmystery": 7031,
      "ĠColumbia": 7032,
      "Ġopt": 7033,
      "Ġrevealed": 7034,
      "ĠSaturday": 7035,
      "ĠIntegr": 7036,
      "Ġlogic": 7037,
      "Ġsan": 7038,
      "Ġmas": 7039,
      "Ġblank": 7040,
      "Ġquantity": 7041,
      "Ġdetermining": 7042,
      "ĠFish": 7043,
      "Ġroles": 7044,
      "Ġappeal": 7045,
      "Ġanalyze": 7046,
      "Ġprove": 7047,
      "Ġpilots": 7048,
      "ĠTur": 7049,
      "Ġequipped": 7050,
      "Ġgift": 7051,
      "Ġmini": 7052,
      "Ġtal": 7053,
      "Ġwires": 7054,
      "eting": 7055,
      "Ġjoy": 7056,
      "Ġaccurately": 7057,
      "Ġmouse": 7058,
      "ĠEss": 7059,
      "Ġment": 7060,
      "Ġsmoking": 7061,
      "Ġkg": 7062,
      "Ġrenowned": 7063,
      "Ġportfolio": 7064,
      "ĠVideo": 7065,
      "CC": 7066,
      "EP": 7067,
      "ĠTrue": 7068,
      "Ġdatabases": 7069,
      "inting": 7070,
      "Ġchem": 7071,
      "ĠFrance": 7072,
      "Ġintermediate": 7073,
      "Ġirregular": 7074,
      "Ġinspect": 7075,
      "alf": 7076,
      "Ġunable": 7077,
      "Ġcrow": 7078,
      "Ġsexual": 7079,
      "Ġexistence": 7080,
      "Ġcow": 7081,
      "Ġhatch": 7082,
      "Of": 7083,
      "Ġproof": 7084,
      "-and": 7085,
      "Ġincorporate": 7086,
      "Ġessentially": 7087,
      "ĠApple": 7088,
      "-sp": 7089,
      "Ġincorporating": 7090,
      "Ġperennial": 7091,
      "osph": 7092,
      "Ġspacecraft": 7093,
      "eek": 7094,
      "Ġfather": 7095,
      "ĠTest": 7096,
      "Col": 7097,
      "Ġcovering": 7098,
      "ĠFinally": 7099,
      "aning": 7100,
      "Ġgrains": 7101,
      "Ġdelicate": 7102,
      "Ġcomposite": 7103,
      "-type": 7104,
      "Ġgap": 7105,
      "ĠDraw": 7106,
      "Red": 7107,
      "....": 7108,
      "IR": 7109,
      "Ġsaving": 7110,
      "Ġcompetitive": 7111,
      "Ġcharged": 7112,
      "Ġphysiological": 7113,
      "such": 7114,
      "itary": 7115,
      "ĠBoston": 7116,
      "74": 7117,
      "Ġwast": 7118,
      "formation": 7119,
      "ĠAvoid": 7120,
      "eff": 7121,
      "Ġbuck": 7122,
      "Ġriding": 7123,
      "Ġinitially": 7124,
      "esign": 7125,
      "eah": 7126,
      "61": 7127,
      "93": 7128,
      "Ġthickness": 7129,
      "Ġinvolving": 7130,
      "Ġimplementation": 7131,
      "Ġthrow": 7132,
      "Ġreaching": 7133,
      "Ġunprecedented": 7134,
      "ĠTH": 7135,
      "Ġcoordination": 7136,
      "ĠWildlife": 7137,
      "ĠOklahoma": 7138,
      "Ġremed": 7139,
      "ĠSuch": 7140,
      "Ġbeloved": 7141,
      "Ġelephant": 7142,
      "82": 7143,
      "Ġformal": 7144,
      "Ġcorrel": 7145,
      "throp": 7146,
      "Ġofficial": 7147,
      "Ġexamining": 7148,
      "py": 7149,
      "Ġexcited": 7150,
      "Ġclusters": 7151,
      "amine": 7152,
      "Ġcinnamon": 7153,
      "Ġpipes": 7154,
      "Ġbathroom": 7155,
      "ultiple": 7156,
      "Ġreb": 7157,
      "Ġnor": 7158,
      "Ġdil": 7159,
      "Ġallergies": 7160,
      "eas": 7161,
      "ĠVol": 7162,
      "Ġmask": 7163,
      "Ġworn": 7164,
      "Ġperce": 7165,
      "Ġhyper": 7166,
      "Ġcategories": 7167,
      "Ġroads": 7168,
      "Ġranging": 7169,
      "ĠFin": 7170,
      "63": 7171,
      "Ġmaneuver": 7172,
      "Ġconsideration": 7173,
      "Ġsurveillance": 7174,
      "OM": 7175,
      "enes": 7176,
      "iny": 7177,
      "Ġple": 7178,
      "Ġexists": 7179,
      "Ġimport": 7180,
      "Ġpopularity": 7181,
      "een": 7182,
      "Ġprohib": 7183,
      "Make": 7184,
      "Ġbeach": 7185,
      "Ġdrainage": 7186,
      "Ġattractive": 7187,
      "Ġtension": 7188,
      "urance": 7189,
      "ĠTherapy": 7190,
      "Ġspeeds": 7191,
      "Ġrelief": 7192,
      "Ġcatalyst": 7193,
      "Ġstatistical": 7194,
      "ĠThanks": 7195,
      "Ġphosphorus": 7196,
      "AG": 7197,
      "Ġphilosoph": 7198,
      "Ġdiscipline": 7199,
      "tery": 7200,
      "Ġgravitational": 7201,
      "Ġassumed": 7202,
      "77": 7203,
      "Ġissued": 7204,
      "Ġbuttons": 7205,
      "Ġmarg": 7206,
      "icking": 7207,
      "Ġpuzzle": 7208,
      "Ġcement": 7209,
      "ĠIsrael": 7210,
      "Ġagent": 7211,
      "Ġevolutionary": 7212,
      "Ġrear": 7213,
      "Ġrising": 7214,
      "ĠBre": 7215,
      "oop": 7216,
      "ĠSet": 7217,
      "Gr": 7218,
      "Ġinterests": 7219,
      "Ġvillage": 7220,
      "Ġid": 7221,
      "ĠHol": 7222,
      "ĠThursday": 7223,
      "zz": 7224,
      "Ġvan": 7225,
      "Ġcomposed": 7226,
      "Ġrac": 7227,
      "Ġmixing": 7228,
      "Ġnarrative": 7229,
      "Ġelderly": 7230,
      "Ġsetup": 7231,
      "ĠDown": 7232,
      "face": 7233,
      "Ġprecipitation": 7234,
      "Ġreceiving": 7235,
      "Ġprovider": 7236,
      "Ġlift": 7237,
      "lectric": 7238,
      "ENT": 7239,
      "ĠConservation": 7240,
      "Ġestimate": 7241,
      "arily": 7242,
      "Ġspending": 7243,
      "Ġrivers": 7244,
      "ecutive": 7245,
      "Ġorientation": 7246,
      "Ġselling": 7247,
      "ĠDC": 7248,
      "Ġpill": 7249,
      "Ġcarrying": 7250,
      "Ġdanger": 7251,
      "empl": 7252,
      "Ġwithdraw": 7253,
      "ĠUltim": 7254,
      "Ġcomplexity": 7255,
      "Ġoblig": 7256,
      "thers": 7257,
      "ĠRight": 7258,
      "Ġcharacterized": 7259,
      "Ġfalls": 7260,
      "Ġtomatoes": 7261,
      "Ġsail": 7262,
      "berries": 7263,
      "71": 7264,
      "Ġidentification": 7265,
      "iated": 7266,
      "Ġsof": 7267,
      "Ġexacerb": 7268,
      "Ġinfl": 7269,
      "Ġphenomenon": 7270,
      "ĠPrincip": 7271,
      "73": 7272,
      "Ġpoverty": 7273,
      "rength": 7274,
      "Ġroute": 7275,
      "Ġpassenger": 7276,
      "Ġvolcan": 7277,
      "Ġposts": 7278,
      "Ġbush": 7279,
      "Ġsurge": 7280,
      "Ġchips": 7281,
      "Ġdegener": 7282,
      "Ġcorporate": 7283,
      "Ġcontributing": 7284,
      "Well": 7285,
      "ĠTuesday": 7286,
      "81": 7287,
      "Ġprevalent": 7288,
      "Ġera": 7289,
      "UR": 7290,
      "ĠVe": 7291,
      "Ġquiet": 7292,
      "76": 7293,
      "Ġmine": 7294,
      "Ġdoubt": 7295,
      "Rep": 7296,
      "iropract": 7297,
      "Ġsulf": 7298,
      "gu": 7299,
      "Ġclaims": 7300,
      "Ġlibraries": 7301,
      "Ġfunctioning": 7302,
      "Ġretention": 7303,
      "itution": 7304,
      "sm": 7305,
      "Ġfilling": 7306,
      "uation": 7307,
      "__": 7308,
      "Ġtreats": 7309,
      "ĠSummer": 7310,
      "ashing": 7311,
      "Ġoccurrence": 7312,
      "Ġexhibit": 7313,
      "OD": 7314,
      "Ġfacility": 7315,
      "Ġprone": 7316,
      "Ġdemonstrated": 7317,
      "Ġvisitors": 7318,
      "Ġanalyses": 7319,
      "Ġstraw": 7320,
      "oving": 7321,
      "Ġblade": 7322,
      "uted": 7323,
      "78": 7324,
      "Ġcollapse": 7325,
      "Ġuniversity": 7326,
      "Ġevaluation": 7327,
      "Ġecological": 7328,
      "Ġmetallic": 7329,
      "OC": 7330,
      "ĠInnov": 7331,
      "Ġanalog": 7332,
      "Ġpackage": 7333,
      "Ġintr": 7334,
      "Ġcombine": 7335,
      "ya": 7336,
      "Ġeleg": 7337,
      "Ġcalculation": 7338,
      "84": 7339,
      "Ġunparalleled": 7340,
      "Go": 7341,
      "Ġanalytics": 7342,
      "Ġsoils": 7343,
      "Ġcurrency": 7344,
      "ĠBack": 7345,
      "Ġtelesc": 7346,
      "Ġmessages": 7347,
      "otype": 7348,
      "bow": 7349,
      "Ġpreserve": 7350,
      "adder": 7351,
      "ĠTop": 7352,
      "ĠUSA": 7353,
      "Ġscrap": 7354,
      "Ġregistration": 7355,
      "Ġplates": 7356,
      "imeters": 7357,
      "ĠMechan": 7358,
      "Ġelephants": 7359,
      "erts": 7360,
      "Per": 7361,
      "Ġarchitecture": 7362,
      "Ġfats": 7363,
      "Ġwestern": 7364,
      "Ġwiring": 7365,
      "Ġconfident": 7366,
      "Ġlosing": 7367,
      "ĠWord": 7368,
      "Ġpetroleum": 7369,
      "Ġexploration": 7370,
      "Ġprinted": 7371,
      "Ġsecre": 7372,
      "Ġbarrier": 7373,
      "ado": 7374,
      ".org": 7375,
      "Ġstimul": 7376,
      "LA": 7377,
      "ĠUN": 7378,
      "ruit": 7379,
      "Ġcitizen": 7380,
      "Ġcomplement": 7381,
      "Ġnit": 7382,
      "Ġoutcome": 7383,
      "Ġessays": 7384,
      "aria": 7385,
      "ĠSn": 7386,
      "Ġengineers": 7387,
      "Ġsle": 7388,
      "Ġapps": 7389,
      "\"I": 7390,
      "iversity": 7391,
      "Ġsugars": 7392,
      "Ġforeign": 7393,
      "Ġletters": 7394,
      "Ġfatty": 7395,
      "Ġgained": 7396,
      "ĠMeth": 7397,
      "Ġagents": 7398,
      "Ġchildhood": 7399,
      "ĠChange": 7400,
      "Ġcombat": 7401,
      "Ġthreats": 7402,
      "Ġfeaturing": 7403,
      "Ġlit": 7404,
      "Ġrarely": 7405,
      "Ġsegments": 7406,
      "Ġmanifest": 7407,
      "ala": 7408,
      "Ġdishwasher": 7409,
      "Ġhammer": 7410,
      "Ġpip": 7411,
      "87": 7412,
      "alls": 7413,
      "ĠYear": 7414,
      "89": 7415,
      "Ġinspired": 7416,
      "Ġalternatives": 7417,
      "ergarten": 7418,
      "-H": 7419,
      "onymous": 7420,
      "67": 7421,
      "rian": 7422,
      "Â®": 7423,
      "ags": 7424,
      "orial": 7425,
      "Ġvector": 7426,
      "Ġbonds": 7427,
      "ometric": 7428,
      "play": 7429,
      "steoarthritis": 7430,
      "Any": 7431,
      "Ġalmond": 7432,
      "rist": 7433,
      "ees": 7434,
      "Ġlimestone": 7435,
      "Ġdecade": 7436,
      "Ġded": 7437,
      "Ġwarning": 7438,
      "Ġpropag": 7439,
      "Ġsleeping": 7440,
      "isciplinary": 7441,
      "Ġchart": 7442,
      "Ġreviews": 7443,
      "ston": 7444,
      "Sm": 7445,
      "Ġdriven": 7446,
      "Ġorganized": 7447,
      "Ġperforming": 7448,
      "Ġhormone": 7449,
      "Ġwider": 7450,
      "uals": 7451,
      "ĠChallenge": 7452,
      "Ġvaries": 7453,
      "ĠPlace": 7454,
      "Ġmarks": 7455,
      "Ġwedding": 7456,
      "atural": 7457,
      "Ġdomain": 7458,
      "Ġpix": 7459,
      "works": 7460,
      "Ġfrost": 7461,
      "ynamics": 7462,
      "ĠID": 7463,
      "Introduction": 7464,
      "Ġbamboo": 7465,
      "Ġnurse": 7466,
      "Ġreaches": 7467,
      "ĠTechniques": 7468,
      "Ġhomemade": 7469,
      "ena": 7470,
      "Ġdesire": 7471,
      "rated": 7472,
      "Ġtender": 7473,
      "Ġinstrument": 7474,
      "occ": 7475,
      "Ġleather": 7476,
      "Ġaids": 7477,
      "Ġoriginally": 7478,
      "ĠFederal": 7479,
      "Ġdrawn": 7480,
      "Ġathlete": 7481,
      "Ġshall": 7482,
      "Ġtele": 7483,
      "-com": 7484,
      "UN": 7485,
      "Ġwax": 7486,
      "Ġrecon": 7487,
      "Ġfrustr": 7488,
      "Ġgonna": 7489,
      "Ġsomewhere": 7490,
      "Ġbandwidth": 7491,
      "ĠRef": 7492,
      "Ġwing": 7493,
      "Ġsheets": 7494,
      "ĠSciences": 7495,
      "SP": 7496,
      "Ġamino": 7497,
      "Ġchair": 7498,
      "Ġovercome": 7499,
      "othing": 7500,
      "Ġdiagnosed": 7501,
      "Ġaddressing": 7502,
      "Ġcomplications": 7503,
      "Ġcattle": 7504,
      "Ġlitter": 7505,
      "Ġpersonalized": 7506,
      "Ġgray": 7507,
      "Ġtracking": 7508,
      "|Ċ": 7509,
      "83": 7510,
      "ĠWorking": 7511,
      "Ġcock": 7512,
      "Ġreptiles": 7513,
      "Ġbits": 7514,
      "Ġpassing": 7515,
      "iciencies": 7516,
      "Ġapplicable": 7517,
      "Ġprevalence": 7518,
      "Ġcrust": 7519,
      "Ġrequest": 7520,
      "Ġhungry": 7521,
      "Ġsatellites": 7522,
      "ĠColl": 7523,
      "Res": 7524,
      "Ġrose": 7525,
      "Ġearthquake": 7526,
      "Ġtrial": 7527,
      "Ġboundaries": 7528,
      "Ġopened": 7529,
      "Ġelectronics": 7530,
      "echn": 7531,
      "-ex": 7532,
      "Ġvulner": 7533,
      "ĠType": 7534,
      "Ġbears": 7535,
      "Ġrust": 7536,
      "ĠGeneral": 7537,
      "Ġmyth": 7538,
      "Ġdense": 7539,
      "bo": 7540,
      "ĠPlants": 7541,
      "Ġregional": 7542,
      "ifting": 7543,
      "Ġlighter": 7544,
      "Open": 7545,
      "riting": 7546,
      "ĠTips": 7547,
      "Ġhouses": 7548,
      "ĠAud": 7549,
      "ĠCelsius": 7550,
      "Ġsurveys": 7551,
      "Ġstones": 7552,
      "ker": 7553,
      "ĠMem": 7554,
      "ogenic": 7555,
      "Ġmimic": 7556,
      "avel": 7557,
      "Ġchip": 7558,
      "oz": 7559,
      "Ġorganism": 7560,
      "/m": 7561,
      "Ġsale": 7562,
      "Ġuneven": 7563,
      "_______________": 7564,
      "gent": 7565,
      "rees": 7566,
      "Ġsurprising": 7567,
      "Ġstuck": 7568,
      "Ġpositions": 7569,
      "Ġintervals": 7570,
      "Ġcuts": 7571,
      "May": 7572,
      "Ġfarms": 7573,
      "ĠQue": 7574,
      "Ġrespectively": 7575,
      "iveness": 7576,
      "Ġdesirable": 7577,
      "Ġ)": 7578,
      "ĠMill": 7579,
      "ĠMartin": 7580,
      "Ġdetected": 7581,
      "Ġremind": 7582,
      "Profess": 7583,
      "Ġcoverage": 7584,
      "Ġtone": 7585,
      "Ġgirls": 7586,
      "omic": 7587,
      "this": 7588,
      "Ġking": 7589,
      "Ġcorresponding": 7590,
      "ĠRNA": 7591,
      "Ġcontrolling": 7592,
      "Ġlake": 7593,
      "Ġcheaper": 7594,
      "Ġretail": 7595,
      "Ġconnects": 7596,
      "eness": 7597,
      "Ġobservations": 7598,
      "ĠFurther": 7599,
      "Ġtargets": 7600,
      "ĠCongress": 7601,
      "Ġmunicipal": 7602,
      "Ġconsumed": 7603,
      "Ġsy": 7604,
      "Ġreputable": 7605,
      "Ġasbestos": 7606,
      "Ġinsight": 7607,
      "Ġpublish": 7608,
      "Ġcarniv": 7609,
      "Ġbare": 7610,
      "ĠMag": 7611,
      "ihuahu": 7612,
      "MP": 7613,
      "Ġdating": 7614,
      "ĠPhiladelphia": 7615,
      "Ġchecking": 7616,
      "ressed": 7617,
      "ĠDid": 7618,
      "Ġcurve": 7619,
      "Ġcompassion": 7620,
      "rypt": 7621,
      "Ġveterinarians": 7622,
      "ĠTypically": 7623,
      "Ġmodified": 7624,
      "Ġguy": 7625,
      "Ġethical": 7626,
      "anned": 7627,
      "isher": 7628,
      "ugg": 7629,
      "Ġthermostat": 7630,
      "Ġinvent": 7631,
      "Ġultraviolet": 7632,
      "Ġcirculation": 7633,
      "ĠÃ": 7634,
      "nd": 7635,
      "âĦ¢": 7636,
      "Ġinadequate": 7637,
      "Ġairplane": 7638,
      "hips": 7639,
      "Ġcubic": 7640,
      "Ġdaunting": 7641,
      "Ġinver": 7642,
      "Ġbasics": 7643,
      "Ġcrystal": 7644,
      "iled": 7645,
      "ĠLeg": 7646,
      "IF": 7647,
      "bing": 7648,
      "ĠCBD": 7649,
      "Ġcellular": 7650,
      "Ġrecre": 7651,
      "Ġmicrobial": 7652,
      "Ġlungs": 7653,
      "ĠGraph": 7654,
      "apping": 7655,
      "UC": 7656,
      "Ġhiking": 7657,
      "ograms": 7658,
      "Ġpose": 7659,
      "ita": 7660,
      "Ġcharacteristic": 7661,
      "Ġtechnological": 7662,
      "ada": 7663,
      "Expl": 7664,
      "ĠHyd": 7665,
      "Ġvibration": 7666,
      "Ġexpressed": 7667,
      "-esteem": 7668,
      "Ġadvis": 7669,
      "Ġabdom": 7670,
      "Ġknife": 7671,
      "umps": 7672,
      "Ġachieving": 7673,
      "Ġnectar": 7674,
      "Ġelaborate": 7675,
      "Ġobjective": 7676,
      "Ġafford": 7677,
      "ategory": 7678,
      "Ġwealth": 7679,
      "Ġfalling": 7680,
      "Ġneural": 7681,
      "Ġpaying": 7682,
      "ĠMissouri": 7683,
      "Ġpollinators": 7684,
      "power": 7685,
      "ĠRichard": 7686,
      "Ġconversion": 7687,
      ".C": 7688,
      "Ġmat": 7689,
      "Ġcompens": 7690,
      "ĠMary": 7691,
      "Ġeaten": 7692,
      "Ġseemingly": 7693,
      "Ġenzymes": 7694,
      "Ġfever": 7695,
      "ĠStr": 7696,
      "Ġwhenever": 7697,
      "Ġmarked": 7698,
      "Ġvarying": 7699,
      "Ġgameplay": 7700,
      "oney": 7701,
      "-con": 7702,
      "iral": 7703,
      "Ġcleaner": 7704,
      "Ġinduced": 7705,
      "Ġnone": 7706,
      "Sup": 7707,
      "Ġcenters": 7708,
      "ĠDifferent": 7709,
      "Ġmembranes": 7710,
      "Ġaggression": 7711,
      "Ġheavily": 7712,
      "Ġintegration": 7713,
      "Ġwarmer": 7714,
      "Ġhesitate": 7715,
      "Ġharsh": 7716,
      "Ġwine": 7717,
      "Ġtech": 7718,
      "ca": 7719,
      "Ġstrict": 7720,
      "Ġpurchasing": 7721,
      "ĠTeach": 7722,
      "Ġ`": 7723,
      "ĠTO": 7724,
      "ĠMaybe": 7725,
      "Ġguard": 7726,
      "Ġguys": 7727,
      ".The": 7728,
      "Ġions": 7729,
      "Ġshower": 7730,
      "Ġstir": 7731,
      "Ġpresents": 7732,
      "ĠComm": 7733,
      "Ġscholars": 7734,
      "cm": 7735,
      "ĠIndustry": 7736,
      "Ġroughly": 7737,
      "ĠDivision": 7738,
      "Ġexception": 7739,
      "Ġlaundry": 7740,
      "osh": 7741,
      "ĠMax": 7742,
      "ĠSer": 7743,
      "Ġ...Ċ": 7744,
      "Ġdelve": 7745,
      "iat": 7746,
      "Ġdimension": 7747,
      "ĠCamp": 7748,
      "Ġsuperv": 7749,
      "Ġsynchron": 7750,
      "Inter": 7751,
      "Ġvegetation": 7752,
      "ĠArtificial": 7753,
      "Ġholistic": 7754,
      "Ġgenerator": 7755,
      "ĠAnimal": 7756,
      "Ġediting": 7757,
      "()": 7758,
      "ĠList": 7759,
      "Ġsuperior": 7760,
      "Ġimaging": 7761,
      "Ġtexts": 7762,
      "gebra": 7763,
      "ĠMS": 7764,
      "Ġshopping": 7765,
      "Ġhal": 7766,
      "ĠWithout": 7767,
      "ami": 7768,
      "ĠKn": 7769,
      "Ġdesigning": 7770,
      "acle": 7771,
      "ĠEnd": 7772,
      "Ġstruggle": 7773,
      "Ġbubbles": 7774,
      "Ġbeam": 7775,
      "ĠCut": 7776,
      "Ġentering": 7777,
      "Ġindeed": 7778,
      "Ġmagic": 7779,
      "Ġheater": 7780,
      "Ġplacing": 7781,
      "ady": 7782,
      "Ġcash": 7783,
      "ĠLead": 7784,
      "Ġlimitations": 7785,
      "Ġearn": 7786,
      "icide": 7787,
      "Ġobser": 7788,
      "Like": 7789,
      "Ġdamp": 7790,
      "Ġreplacing": 7791,
      "Ġants": 7792,
      "Ġasphalt": 7793,
      "Ġembry": 7794,
      "Ġrepairs": 7795,
      "Ġmodule": 7796,
      "Ġcalorie": 7797,
      "Ġoccurring": 7798,
      "Ġdecay": 7799,
      "Ġbeds": 7800,
      "Ġintervention": 7801,
      "aken": 7802,
      "Ġflows": 7803,
      "-A": 7804,
      "Ġlicensed": 7805,
      "Ġfort": 7806,
      "Ġreson": 7807,
      "oured": 7808,
      "Ġdeaths": 7809,
      "ano": 7810,
      "SS": 7811,
      "Ġstabil": 7812,
      "Each": 7813,
      "Ġu": 7814,
      "Ġutilize": 7815,
      "Ġphysically": 7816,
      "ello": 7817,
      "Ġnewborn": 7818,
      "Ġtiming": 7819,
      "Ġgolden": 7820,
      "Ġupdated": 7821,
      "ribe": 7822,
      "ĠScientific": 7823,
      "RA": 7824,
      "Ġdrying": 7825,
      "Ġdetergent": 7826,
      "Ġpod": 7827,
      "Post": 7828,
      "Ġbor": 7829,
      "ĠAL": 7830,
      "Ġreverse": 7831,
      "Ġgrams": 7832,
      "amiliar": 7833,
      "Ġcooperation": 7834,
      "Ġtends": 7835,
      "Ġexperimental": 7836,
      "Â°F": 7837,
      "ĠCivil": 7838,
      "Ġstrip": 7839,
      "Ġmeter": 7840,
      "esis": 7841,
      "Ġpurple": 7842,
      "ĠCost": 7843,
      "part": 7844,
      "Ġoccasions": 7845,
      "Ġteen": 7846,
      "ĠLess": 7847,
      "Ġunforgettable": 7848,
      "Ġalarm": 7849,
      "Ġash": 7850,
      "Ġbelt": 7851,
      "Ġshooting": 7852,
      "Ġran": 7853,
      "ĠKey": 7854,
      "awn": 7855,
      "ĠPM": 7856,
      "Ġworst": 7857,
      "Ġdelight": 7858,
      "Ġcircular": 7859,
      "Te": 7860,
      "Ġversions": 7861,
      "Ġstations": 7862,
      "Ġtwist": 7863,
      "Ġhonest": 7864,
      "Ġbulb": 7865,
      "ĠPolicy": 7866,
      "ĠSand": 7867,
      "ĠPlay": 7868,
      "Ġfifth": 7869,
      "Ġrinse": 7870,
      "Ġbrilliant": 7871,
      "Ġultra": 7872,
      "Ġmeteor": 7873,
      "Ġvibr": 7874,
      "Ġships": 7875,
      "Ġdiets": 7876,
      "ĠSanta": 7877,
      "Ġconnecting": 7878,
      "Ġduplic": 7879,
      "Ġenzyme": 7880,
      "Ġstupid": 7881,
      "ĠPlus": 7882,
      "Ġsavings": 7883,
      "Ġstaple": 7884,
      "Ġchat": 7885,
      "otion": 7886,
      "Ġdys": 7887,
      "Ġlect": 7888,
      "ĠThough": 7889,
      "ĠSpecial": 7890,
      "Ġcaps": 7891,
      "Ġtrib": 7892,
      "Ġaccidents": 7893,
      "ĠAtt": 7894,
      "Ġspecimen": 7895,
      "ĠTom": 7896,
      "CE": 7897,
      "Ġrotation": 7898,
      "Ġastronaut": 7899,
      "ema": 7900,
      "Ġjaw": 7901,
      "Ġresilient": 7902,
      "Source": 7903,
      "iced": 7904,
      "Ġcompatibility": 7905,
      "Ġinterconnected": 7906,
      "Ġfaces": 7907,
      "Ġconsuming": 7908,
      ",ĊĊ": 7909,
      "69": 7910,
      "............": 7911,
      "Ġimplants": 7912,
      "ĠHand": 7913,
      "Ġinstruments": 7914,
      "Ġclassified": 7915,
      "uman": 7916,
      "79": 7917,
      "Ġintelligent": 7918,
      "han": 7919,
      "Ġimplemented": 7920,
      "Ġcalculated": 7921,
      "ris": 7922,
      "ĠSmall": 7923,
      "Ps": 7924,
      "Ġconfigurations": 7925,
      "Ġcred": 7926,
      "Ġforgot": 7927,
      "Ġexceed": 7928,
      "Ġscar": 7929,
      "Ġdependent": 7930,
      "yes": 7931,
      "Ġphotographs": 7932,
      "ĠNext": 7933,
      "Ġmicrophone": 7934,
      "Ġink": 7935,
      "Ġbreakthrough": 7936,
      "sis": 7937,
      "ĠScotland": 7938,
      "Ġrays": 7939,
      "Ġcentre": 7940,
      "Ġcere": 7941,
      "Ġgender": 7942,
      "Ġtear": 7943,
      "Ġluxurious": 7944,
      "Ġrat": 7945,
      "Ġveggies": 7946,
      "Ġfans": 7947,
      "Ġmatters": 7948,
      "Ġpronoun": 7949,
      "Ġwithstand": 7950,
      "Ġdistinctive": 7951,
      "MA": 7952,
      "Ġsettle": 7953,
      "Ġflowering": 7954,
      "Finally": 7955,
      "ĠSearch": 7956,
      "Ġnine": 7957,
      "Ġdecreased": 7958,
      "bed": 7959,
      "Ġweed": 7960,
      "Ġadvent": 7961,
      "ĠReview": 7962,
      "Ġtutorial": 7963,
      "Ġhurt": 7964,
      "Ġwest": 7965,
      "Ġpropos": 7966,
      "Ġdose": 7967,
      "ĠLow": 7968,
      "obile": 7969,
      "Children": 7970,
      "High": 7971,
      "Ġdifferently": 7972,
      "ronic": 7973,
      "Le": 7974,
      "Ġabsorption": 7975,
      "Ġrainforest": 7976,
      "Ġbridge": 7977,
      "Ġcounterparts": 7978,
      "Ġaccompany": 7979,
      "Ġscenario": 7980,
      "Ġbiodegradable": 7981,
      "Ġmindful": 7982,
      "burg": 7983,
      "ĠHappy": 7984,
      "care": 7985,
      "ĠMotor": 7986,
      "ĠJew": 7987,
      "-off": 7988,
      "Ġkilometers": 7989,
      "otherapy": 7990,
      "antic": 7991,
      "ĠTer": 7992,
      "Ġmenstrual": 7993,
      "Ġwheat": 7994,
      "Ġpenet": 7995,
      "ĠNote": 7996,
      "Ġgate": 7997,
      "Ġspl": 7998,
      "Ġrelation": 7999,
      "Ġdecom": 8000,
      "Ġdrinks": 8001,
      "ĠEV": 8002,
      "ifer": 8003,
      "Daily": 8004,
      "âĢĻre": 8005,
      "Ġemit": 8006,
      "ĠâĢĺ": 8007,
      "ĠLim": 8008,
      "Ġexplos": 8009,
      "urop": 8010,
      "Ġaccomplished": 8011,
      "Ġadolescents": 8012,
      "Ġupdate": 8013,
      "Ġmarkets": 8014,
      "Ġesc": 8015,
      "ĠCN": 8016,
      "-R": 8017,
      "Ġurine": 8018,
      "ĠOw": 8019,
      "Ġpharmac": 8020,
      "Ġforced": 8021,
      "ĠCH": 8022,
      "Ġhormones": 8023,
      "Ġsour": 8024,
      "keep": 8025,
      "Ġdementia": 8026,
      "Ġextr": 8027,
      "Ġmand": 8028,
      "Ear": 8029,
      "Ġfaced": 8030,
      "Gl": 8031,
      "Ġdiaphragm": 8032,
      "Ġneedle": 8033,
      "ĠIncre": 8034,
      "kins": 8035,
      "January": 8036,
      "ceptions": 8037,
      "Ġcolored": 8038,
      "Ġenvironmentally": 8039,
      "Ġflav": 8040,
      "rench": 8041,
      "Ġeyel": 8042,
      "ki": 8043,
      "Ġfulf": 8044,
      "Ġgaming": 8045,
      "Ġfoam": 8046,
      "ĠSuper": 8047,
      "UT": 8048,
      "Ġwooden": 8049,
      "Ġmagnet": 8050,
      "Ġcontributes": 8051,
      "ĠJames": 8052,
      "Ġdivision": 8053,
      "Ġheated": 8054,
      "Ġhook": 8055,
      "Ġhang": 8056,
      "Ġavoiding": 8057,
      "Ġspeakers": 8058,
      "Ġstrongly": 8059,
      "Ġmarriage": 8060,
      "ĠKentucky": 8061,
      "Ġglue": 8062,
      "Ġplaque": 8063,
      "Ġdesigners": 8064,
      "-tr": 8065,
      "ĠSuccess": 8066,
      "Ġapple": 8067,
      "Ġregulation": 8068,
      "ĠNon": 8069,
      "Ġammonia": 8070,
      "Ġenthusiasts": 8071,
      "ĠTraining": 8072,
      "bers": 8073,
      "-oriented": 8074,
      "Ġexpectations": 8075,
      "ĠElizabeth": 8076,
      "Br": 8077,
      "Ġregulate": 8078,
      "Gener": 8079,
      "Med": 8080,
      "Ġpolymer": 8081,
      "Ġbegun": 8082,
      "Ġwa": 8083,
      "Ġarts": 8084,
      "Ġflies": 8085,
      "Ġfootball": 8086,
      "aternal": 8087,
      "Ġimplementing": 8088,
      "Ġproviders": 8089,
      "Ġsnakes": 8090,
      "Ġpeanut": 8091,
      "oglobin": 8092,
      "Ġranges": 8093,
      "Ġorch": 8094,
      "Ġvaccines": 8095,
      "ĠTesla": 8096,
      "Ġrural": 8097,
      "neys": 8098,
      "abl": 8099,
      "ĠMaintenance": 8100,
      "Ġinterf": 8101,
      "Ġshoulder": 8102,
      "agen": 8103,
      "Us": 8104,
      "plete": 8105,
      "Ġconflicts": 8106,
      "ferences": 8107,
      "ĠCoast": 8108,
      "riend": 8109,
      "ĠEth": 8110,
      "rd": 8111,
      "Ġsemi": 8112,
      "Ġrepeat": 8113,
      "Ġactively": 8114,
      ".)Ċ": 8115,
      "Ġgran": 8116,
      "-depth": 8117,
      "Ġpsychological": 8118,
      "ĠStudies": 8119,
      "Ġchecked": 8120,
      "ĠUrban": 8121,
      "ĠShepherd": 8122,
      "Ġoutl": 8123,
      "Ġexclusively": 8124,
      "Ġwhales": 8125,
      "gers": 8126,
      "pass": 8127,
      "itative": 8128,
      "emon": 8129,
      "Ġpale": 8130,
      "Please": 8131,
      "Ġcodes": 8132,
      "Ġdebate": 8133,
      "ĠHelp": 8134,
      "icity": 8135,
      "Inst": 8136,
      "ĠPresident": 8137,
      "Ġaccepted": 8138,
      "ces": 8139,
      "Ġgrazing": 8140,
      "Ġrooms": 8141,
      "Ġcurious": 8142,
      "Ġconvey": 8143,
      "Ġkin": 8144,
      "Ġconfirm": 8145,
      "Ġscal": 8146,
      "ĠImport": 8147,
      "ĠSouthern": 8148,
      "Learning": 8149,
      "ĠOx": 8150,
      "Ġamphib": 8151,
      "Ġeast": 8152,
      "irus": 8153,
      "October": 8154,
      "ĠFollowing": 8155,
      "inations": 8156,
      "Ġintegrity": 8157,
      "ĠPaul": 8158,
      "Ġlunch": 8159,
      "Ġmathematical": 8160,
      "Ġindividually": 8161,
      "Ġsink": 8162,
      "words": 8163,
      "Note": 8164,
      "una": 8165,
      "ĠCommunity": 8166,
      "ĠStat": 8167,
      "Ġquantities": 8168,
      "Last": 8169,
      "Ġextension": 8170,
      "Ġfreezing": 8171,
      "Ġdefense": 8172,
      "ĠCurrent": 8173,
      "Ġdisplacement": 8174,
      "Ġsoy": 8175,
      "Key": 8176,
      "Ġcrash": 8177,
      "DS": 8178,
      "ĠHarvard": 8179,
      "Ġgenus": 8180,
      "Ġaging": 8181,
      "ĠHum": 8182,
      "Ġpriority": 8183,
      "Ġefficacy": 8184,
      "ĠOpt": 8185,
      "Ġosteoporosis": 8186,
      "anth": 8187,
      "-making": 8188,
      "Ġaesthetic": 8189,
      "ĠHenry": 8190,
      "-sized": 8191
    },
    "merges": [
      [
        "Ġ",
        "t",
        "h",
        "e"
      ],
      [
        "Ġ",
        "a"
      ],
      [
        "i",
        "n"
      ],
      [
        "e",
        "r"
      ],
      [
        "Ġ",
        "t"
      ],
      [
        "t",
        "i",
        "o",
        "n"
      ],
      [
        "r",
        "e"
      ],
      [
        "Ġ",
        "o"
      ],
      [
        "Ġa",
        "n",
        "d"
      ],
      [
        "Ġ",
        "s"
      ],
      [
        "Ġ",
        "c"
      ],
      [
        "e",
        "n"
      ],
      [
        "e",
        "s"
      ],
      [
        "a",
        "t"
      ],
      [
        "Ġ",
        "w"
      ],
      [
        "Ġ",
        "y",
        "o",
        "u"
      ],
      [
        "in",
        "g"
      ],
      [
        "a",
        "n"
      ],
      [
        "i",
        "s"
      ],
      [
        "Ġ",
        "p"
      ],
      [
        "i",
        "t"
      ],
      [
        "o",
        "r"
      ],
      [
        "Ġ",
        "b"
      ],
      [
        "Ġ",
        "f"
      ],
      [
        "a",
        "l"
      ],
      [
        "e",
        "d"
      ],
      [
        "Ġ",
        "m"
      ],
      [
        "Ġt",
        "o"
      ],
      [
        "o",
        "n"
      ],
      [
        "a",
        "r"
      ],
      [
        "Ġo",
        "f"
      ],
      [
        "Ġ",
        "in"
      ],
      [
        "Ġ",
        "d"
      ],
      [
        "r",
        "o"
      ],
      [
        "i",
        "c"
      ],
      [
        "Ġ",
        "h"
      ],
      [
        "l",
        "e"
      ],
      [
        "a",
        "s"
      ],
      [
        "Ġt",
        "h"
      ],
      [
        "o",
        "u"
      ],
      [
        "en",
        "t"
      ],
      [
        "Ġ",
        "e"
      ],
      [
        "Ġ",
        "l"
      ],
      [
        "Ġ",
        "T",
        "h"
      ],
      [
        "i",
        "l"
      ],
      [
        "e",
        "l"
      ],
      [
        "Ġ",
        "re"
      ],
      [
        "o",
        "m"
      ],
      [
        "u",
        "s"
      ],
      [
        "Ġ",
        "is"
      ],
      [
        "Ġw",
        "it",
        "h"
      ],
      [
        ".",
        "Ċ"
      ],
      [
        "e",
        "t"
      ],
      [
        "Ġ",
        "n"
      ],
      [
        "a",
        "c"
      ],
      [
        "e",
        "c"
      ],
      [
        "Ġ",
        "g"
      ],
      [
        "v",
        "e"
      ],
      [
        "i",
        "g",
        "h",
        "t"
      ],
      [
        "o",
        "w"
      ],
      [
        "l",
        "y"
      ],
      [
        "i",
        "m"
      ],
      [
        "i",
        "d"
      ],
      [
        "t",
        "h"
      ],
      [
        "o",
        "l"
      ],
      [
        "Ġ",
        "A",
        "n",
        "s",
        "w",
        "er"
      ],
      [
        "Ġf",
        "or"
      ],
      [
        "s",
        "t"
      ],
      [
        "u",
        "t"
      ],
      [
        "u",
        "r"
      ],
      [
        "Ġb",
        "e"
      ],
      [
        "a",
        "tion"
      ],
      [
        "Ġo",
        "n"
      ],
      [
        "Ġs",
        "t"
      ],
      [
        "u",
        "n"
      ],
      [
        "Ġ",
        "I"
      ],
      [
        "Ġth",
        "at"
      ],
      [
        "i",
        "r"
      ],
      [
        "Ġw",
        "h"
      ],
      [
        "o",
        "t"
      ],
      [
        "v",
        "er"
      ],
      [
        "a",
        "y"
      ],
      [
        "Ġ",
        "it"
      ],
      [
        "Ġa",
        "re"
      ],
      [
        "a",
        "m"
      ],
      [
        "u",
        "l"
      ],
      [
        "Ġh",
        "a",
        "ve"
      ],
      [
        "c",
        "e"
      ],
      [
        "Ġp",
        "ro"
      ],
      [
        "Ġ",
        "A"
      ],
      [
        "Ġf",
        "ro",
        "m"
      ],
      [
        "c",
        "h"
      ],
      [
        "a",
        "d"
      ],
      [
        "i",
        "f"
      ],
      [
        "Ġa",
        "n"
      ],
      [
        "t",
        "er"
      ],
      [
        "Ġ",
        "S"
      ],
      [
        "Ġo",
        "r"
      ],
      [
        "Ġa",
        "s"
      ],
      [
        "Ġc",
        "on"
      ],
      [
        ".Ċ",
        "Ċ"
      ],
      [
        "Ġa",
        "l"
      ],
      [
        "o",
        "d"
      ],
      [
        "s",
        "e"
      ],
      [
        "Q",
        "u",
        "es",
        "tion"
      ],
      [
        "Ġ",
        "C"
      ],
      [
        "i",
        "g"
      ],
      [
        "t",
        "s"
      ],
      [
        "Ċ",
        "Ċ"
      ],
      [
        "ou",
        "l",
        "d"
      ],
      [
        "Ġc",
        "an"
      ],
      [
        "er",
        "s"
      ],
      [
        "e",
        "m"
      ],
      [
        "k",
        "e"
      ],
      [
        "a",
        "b"
      ],
      [
        "a",
        "g"
      ],
      [
        "a",
        "in"
      ],
      [
        "es",
        "s"
      ],
      [
        "Ġw",
        "il",
        "l"
      ],
      [
        "Ġ",
        "W",
        "h"
      ],
      [
        "u",
        "re"
      ],
      [
        "Ġc",
        "om",
        "p"
      ],
      [
        "u",
        "m"
      ],
      [
        "Ġa",
        "b",
        "ou",
        "t"
      ],
      [
        "Ġe",
        "x"
      ],
      [
        "o",
        "re"
      ],
      [
        "Ġc",
        "h"
      ],
      [
        "q",
        "u"
      ],
      [
        "Ġ",
        "r"
      ],
      [
        "'",
        "s"
      ],
      [
        "at",
        "e"
      ],
      [
        "Ġyou",
        "r"
      ],
      [
        "Ġ",
        "v"
      ],
      [
        "o",
        "p"
      ],
      [
        "Ġ",
        "us"
      ],
      [
        "c",
        "t"
      ],
      [
        "i",
        "es"
      ],
      [
        "a",
        "p"
      ],
      [
        "it",
        "y"
      ],
      [
        "ĠTh",
        "e"
      ],
      [
        "T",
        "h",
        "e"
      ],
      [
        "Ġs",
        "h"
      ],
      [
        "o",
        "s"
      ],
      [
        "i",
        "ve"
      ],
      [
        "Ġ",
        "P"
      ],
      [
        "Ġ",
        "M"
      ],
      [
        "u",
        "p"
      ],
      [
        "an",
        "t"
      ],
      [
        "an",
        "d"
      ],
      [
        "Ġ",
        "im",
        "p"
      ],
      [
        "Ġ",
        "B"
      ],
      [
        "i",
        "v"
      ],
      [
        "Ġ",
        "en"
      ],
      [
        "Ġ",
        "("
      ],
      [
        "Ġth",
        "ro",
        "u",
        "g",
        "h"
      ],
      [
        "es",
        "t"
      ],
      [
        "Ġwh",
        "ic",
        "h"
      ],
      [
        "m",
        "ent"
      ],
      [
        "Ġin",
        "c",
        "l",
        "u",
        "d"
      ],
      [
        "Ġa",
        "t"
      ],
      [
        "Ġs",
        "p"
      ],
      [
        "Ġ",
        "k",
        "n",
        "ow"
      ],
      [
        "Ġn",
        "e"
      ],
      [
        "i",
        "al"
      ],
      [
        "Ġal",
        "s",
        "o"
      ],
      [
        "i",
        "on"
      ],
      [
        "is",
        "t"
      ],
      [
        "Ġ",
        "le"
      ],
      [
        "Ġd",
        "o"
      ],
      [
        "er",
        "e"
      ],
      [
        "ec",
        "t"
      ],
      [
        "Ġd",
        "if",
        "f",
        "er"
      ],
      [
        "o",
        "o",
        "k"
      ],
      [
        "om",
        "e"
      ],
      [
        "Ġa",
        "p",
        "p"
      ],
      [
        "Ġd",
        "e"
      ],
      [
        "Ġ",
        "y",
        "e",
        "ar"
      ],
      [
        "Ġ",
        "D"
      ],
      [
        "Ġt",
        "r"
      ],
      [
        "Ġp",
        "l"
      ],
      [
        "Ġw",
        "e"
      ],
      [
        "Ġb",
        "y"
      ],
      [
        "re",
        "s"
      ],
      [
        "Ġ",
        "H"
      ],
      [
        "Ġs",
        "e"
      ],
      [
        "u",
        "c"
      ],
      [
        "Ġ",
        "un",
        "d",
        "er"
      ],
      [
        "o",
        "c"
      ],
      [
        "Ġo",
        "th",
        "er"
      ],
      [
        "al",
        "l"
      ],
      [
        "Ġn",
        "ot"
      ],
      [
        "i",
        "p"
      ],
      [
        "us",
        "t"
      ],
      [
        "Ġ",
        "F"
      ],
      [
        "Ġh",
        "e"
      ],
      [
        "Ġb",
        "et",
        "w",
        "e",
        "en"
      ],
      [
        "el",
        "l"
      ],
      [
        "Ġth",
        "is"
      ],
      [
        "ic",
        "al"
      ],
      [
        "Ġp",
        "e",
        "op",
        "le"
      ],
      [
        "or",
        "t"
      ],
      [
        "Ġw",
        "or",
        "k"
      ],
      [
        "Ġb",
        "ec",
        "a",
        "us",
        "e"
      ],
      [
        "Ġ",
        "T"
      ],
      [
        "i",
        "b"
      ],
      [
        "ar",
        "t"
      ],
      [
        "Ġs",
        "y",
        "st",
        "em"
      ],
      [
        "ou",
        "n"
      ],
      [
        "Ġin",
        "t",
        "o"
      ],
      [
        "Ġ",
        "E"
      ],
      [
        "in",
        "e"
      ],
      [
        "o",
        "st"
      ],
      [
        "o",
        "g"
      ],
      [
        "p",
        "er"
      ],
      [
        "ar",
        "d"
      ],
      [
        "Ġl",
        "i",
        "ke"
      ],
      [
        "a",
        "k"
      ],
      [
        "Ġt",
        "im",
        "e"
      ],
      [
        "id",
        "e"
      ],
      [
        "ou",
        "r"
      ],
      [
        "g",
        "e"
      ],
      [
        "f",
        "or",
        "m"
      ],
      [
        "Ġ",
        "R"
      ],
      [
        "Ġh",
        "el",
        "p"
      ],
      [
        "ac",
        "t"
      ],
      [
        "â",
        "Ģ"
      ],
      [
        "Ġthe",
        "y"
      ],
      [
        "Ġthe",
        "ir"
      ],
      [
        "f",
        "f"
      ],
      [
        "o",
        "od"
      ],
      [
        "i",
        "z"
      ],
      [
        "Ġc",
        "om",
        "m"
      ],
      [
        "il",
        "l"
      ],
      [
        "Ġs",
        "u"
      ],
      [
        "as",
        "t"
      ],
      [
        "a",
        "re"
      ],
      [
        "a",
        "v"
      ],
      [
        "at",
        "er"
      ],
      [
        "ac",
        "h"
      ],
      [
        "Ġ",
        "W"
      ],
      [
        "Ġa",
        "d"
      ],
      [
        "Ġ",
        "N"
      ],
      [
        "ro",
        "un",
        "d"
      ],
      [
        "Ġst",
        "u",
        "d"
      ],
      [
        "Ġde",
        "v",
        "el",
        "op"
      ],
      [
        "Ġh",
        "ig",
        "h"
      ],
      [
        "ab",
        "le"
      ],
      [
        "Ġal",
        "l"
      ],
      [
        "Ġ",
        "L"
      ],
      [
        "e",
        "p"
      ],
      [
        "a",
        "ke"
      ],
      [
        "ag",
        "e"
      ],
      [
        "Ġm",
        "ore"
      ],
      [
        "Ġw",
        "as"
      ],
      [
        "at",
        "ed"
      ],
      [
        "en",
        "d"
      ],
      [
        "ou",
        "g",
        "h"
      ],
      [
        "Ġa",
        "c",
        "c"
      ],
      [
        "Ġen",
        "v",
        "ir",
        "on",
        "ment"
      ],
      [
        "Ġ",
        "G"
      ],
      [
        "Ġcon",
        "t"
      ],
      [
        "Ġt",
        "ec",
        "h",
        "n"
      ],
      [
        "Ġb",
        "ut"
      ],
      [
        "p",
        "l"
      ],
      [
        "ac",
        "k"
      ],
      [
        "al",
        "ly"
      ],
      [
        "Ġs",
        "o"
      ],
      [
        "i",
        "ou",
        "s"
      ],
      [
        "an",
        "s"
      ],
      [
        "in",
        "d"
      ],
      [
        "en",
        "ce"
      ],
      [
        "Ġ",
        "O"
      ],
      [
        "i",
        "tion"
      ],
      [
        "ĠI",
        "n"
      ],
      [
        "Ġ",
        "j"
      ],
      [
        "Ġc",
        "l"
      ],
      [
        "on",
        "g"
      ],
      [
        "Ġre",
        "s"
      ],
      [
        "Ġd",
        "es",
        "ig",
        "n"
      ],
      [
        "an",
        "ce"
      ],
      [
        "Ġd",
        "is"
      ],
      [
        "Ġh",
        "as"
      ],
      [
        "Ġre",
        "se",
        "ar",
        "ch"
      ],
      [
        "Ġ",
        "un"
      ],
      [
        "i",
        "re"
      ],
      [
        "Ġo",
        "ut"
      ],
      [
        "Ġ",
        "\""
      ],
      [
        "Ġt",
        "y",
        "p"
      ],
      [
        "Ġm",
        "e"
      ],
      [
        "ation",
        "s"
      ],
      [
        "en",
        "s"
      ],
      [
        "o",
        "th"
      ],
      [
        "ent",
        "s"
      ],
      [
        "Ġm",
        "an",
        "y"
      ],
      [
        "Ġin",
        "c",
        "re",
        "as"
      ],
      [
        "Ġ",
        "ro"
      ],
      [
        "Ġp",
        "re"
      ],
      [
        "'",
        "t"
      ],
      [
        "Ġhe",
        "al",
        "th"
      ],
      [
        "ul",
        "t"
      ],
      [
        "on",
        "e"
      ],
      [
        "h",
        "er"
      ],
      [
        "re",
        "at"
      ],
      [
        "Ġon",
        "e"
      ],
      [
        "Ġf",
        "e"
      ],
      [
        "Ġw",
        "or",
        "l",
        "d"
      ],
      [
        "el",
        "y"
      ],
      [
        "ver",
        "y"
      ],
      [
        "ac",
        "e"
      ],
      [
        "u",
        "e"
      ],
      [
        "Ġin",
        "d",
        "iv",
        "id",
        "u",
        "al"
      ],
      [
        "Ġ",
        "up"
      ],
      [
        "r",
        "y"
      ],
      [
        "Ġt",
        "w",
        "o"
      ],
      [
        "2",
        "0"
      ],
      [
        "Ġthe",
        "m"
      ],
      [
        "ic",
        "e"
      ],
      [
        "as",
        "s"
      ],
      [
        "Ġf",
        "ol",
        "l",
        "ow"
      ],
      [
        "i",
        "e"
      ],
      [
        "Ġ",
        "U"
      ],
      [
        "or",
        "s"
      ],
      [
        "Ġpro",
        "b",
        "le",
        "m"
      ],
      [
        "Ġp",
        "er"
      ],
      [
        "Ġt",
        "em",
        "per",
        "at",
        "ure"
      ],
      [
        "Ġf",
        "ir",
        "st"
      ],
      [
        "ar",
        "y"
      ],
      [
        "o",
        "se"
      ],
      [
        "is",
        "h"
      ],
      [
        "res",
        "s"
      ],
      [
        "Ġen",
        "er",
        "g",
        "y"
      ],
      [
        "Ġp",
        "r"
      ],
      [
        "il",
        "d"
      ],
      [
        "Ġwh",
        "en"
      ],
      [
        "Ġ",
        "qu"
      ],
      [
        "ĠI",
        "t"
      ],
      [
        "Ġs",
        "ome"
      ],
      [
        "Ġf",
        "l"
      ],
      [
        "i",
        "le"
      ],
      [
        "tion",
        "s"
      ],
      [
        "Ġpro",
        "c",
        "ess"
      ],
      [
        "Ġc",
        "a",
        "us"
      ],
      [
        "Ġe",
        "v"
      ],
      [
        "Ġe",
        "le",
        "ct",
        "r"
      ],
      [
        "Ġ",
        "if"
      ],
      [
        "i",
        "a"
      ],
      [
        "Ġs",
        "ig",
        "n"
      ],
      [
        "Ġs",
        "c"
      ],
      [
        "a",
        "il"
      ],
      [
        "am",
        "e"
      ],
      [
        "Ġg",
        "ro",
        "w"
      ],
      [
        "or",
        "d"
      ],
      [
        "Ġcon",
        "s",
        "id",
        "er"
      ],
      [
        "Ġne",
        "ed"
      ],
      [
        "d",
        "uc"
      ],
      [
        "ay",
        "s"
      ],
      [
        "t",
        "ing"
      ],
      [
        "as",
        "e"
      ],
      [
        "ĠWh",
        "at"
      ],
      [
        "Ġus",
        "e"
      ],
      [
        "it",
        "e"
      ],
      [
        "Ġc",
        "ol"
      ],
      [
        "Ġh",
        "ow"
      ],
      [
        "ĠTh",
        "is"
      ],
      [
        "re",
        "n"
      ],
      [
        "Ġ",
        "Y"
      ],
      [
        "Ġle",
        "ar",
        "n"
      ],
      [
        "Ġs",
        "up",
        "p"
      ],
      [
        "oun",
        "d"
      ],
      [
        "Ġm",
        "ay"
      ],
      [
        "ic",
        "k"
      ],
      [
        "Ġt",
        "e"
      ],
      [
        "Ġm",
        "u",
        "ch"
      ],
      [
        "Ġs",
        "om",
        "et",
        "h",
        "ing"
      ],
      [
        "Ġth",
        "an"
      ],
      [
        "Ġit",
        "s"
      ],
      [
        "Ġb",
        "l"
      ],
      [
        "Ġ",
        "k"
      ],
      [
        "an",
        "g"
      ],
      [
        "b",
        "er"
      ],
      [
        "Ġa",
        "r"
      ],
      [
        "Ġthe",
        "re"
      ],
      [
        "r",
        "a"
      ],
      [
        "ol",
        "og",
[...]
