{
  "version": "1.0",
  "truncation": null,
  "padding": null,
  "added_tokens": [
    {
      "id": 0,
      "content": "<|bos|>",
      "single_word": false,
      "lstrip": false,
      "rstrip": false,
      "normalized": false,
      "special": true
    },
    {
      "id": 1,
      "content": "<|user_start|>",
      "single_word": false,
      "lstrip": false,
      "rstrip": false,
      "normalized": false,
      "special": true
    },
    {
      "id": 2,
      "content": "<|user_end|>",
      "single_word": false,
      "lstrip": false,
      "rstrip": false,
      "normalized": false,
      "special": true
    },
    {
      "id": 3,
      "content": "<|assistant_start|>",
      "single_word": false,
      "lstrip": false,
      "rstrip": false,
      "normalized": false,
      "special": true
    },
    {
      "id": 4,
      "content": "<|assistant_end|>",
      "single_word": false,
      "lstrip": false,
      "rstrip": false,
      "normalized": false,
      "special": true
    },
    {
      "id": 5,
      "content": "<|python_start|>",
      "single_word": false,
      "lstrip": false,
      "rstrip": false,
      "normalized": false,
      "special": true
    },
    {
      "id": 6,
      "content": "<|python_end|>",
      "single_word": false,
      "lstrip": false,
      "rstrip": false,
      "normalized": false,
      "special": true
    },
    {
      "id": 7,
      "content": "<|output_start|>",
      "single_word": false,
      "lstrip": false,
      "rstrip": false,
      "normalized": false,
      "special": true
    },
    {
      "id": 8,
      "content": "<|output_end|>",
      "single_word": false,
      "lstrip": false,
      "rstrip": false,
      "normalized": false,
      "special": true
    }
  ],
  "normalizer": null,
  "pre_tokenizer": {
    "type": "Sequence",
    "pretokenizers": [
      {
        "type": "Split",
        "pattern": {
          "Regex": "'(?i:[sdmt]|ll|ve|re)|[^\\r\\n\\p{L}\\p{N}]?+\\p{L}+|\\p{N}{1,2}| ?[^\\s\\p{L}\\p{N}]++[\\r\\n]*|\\s*[\\r\\n]|\\s+(?!\\S)|\\s+"
        },
        "behavior": "Isolated",
        "invert": false
      },
      {
        "type": "ByteLevel",
        "add_prefix_space": false,
        "trim_offsets": true,
        "use_regex": false
      }
    ]
  },
  "post_processor": null,
  "decoder": {
    "type": "ByteLevel",
    "add_prefix_space": true,
    "trim_offsets": true,
    "use_regex": true
  },
  "model": {
    "type": "BPE",
    "dropout": null,
    "unk_token": null,
    "continuing_subword_prefix": null,
    "end_of_word_suffix": null,
    "fuse_unk": false,
    "byte_fallback": true,
    "ignore_merges": false,
    "vocab": {
      "<|bos|>": 0,
      "<|user_start|>": 1,
      "<|user_end|>": 2,
      "<|assistant_start|>": 3,
      "<|assistant_end|>": 4,
      "<|python_start|>": 5,
      "<|python_end|>": 6,
      "<|output_start|>": 7,
      "<|output_end|>": 8,
      "!": 9,
      "\"": 10,
      "#": 11,
      "$": 12,
      "%": 13,
      "&": 14,
      "'": 15,
      "(": 16,
      ")": 17,
      "*": 18,
      "+": 19,
      ",": 20,
      "-": 21,
      ".": 22,
      "/": 23,
      "0": 24,
      "1": 25,
      "2": 26,
      "3": 27,
      "4": 28,
      "5": 29,
      "6": 30,
      "7": 31,
      "8": 32,
      "9": 33,
      ":": 34,
      ";": 35,
      "<": 36,
      "=": 37,
      ">": 38,
      "?": 39,
      "@": 40,
      "A": 41,
      "B": 42,
      "C": 43,
      "D": 44,
      "E": 45,
      "F": 46,
      "G": 47,
      "H": 48,
      "I": 49,
      "J": 50,
      "K": 51,
      "L": 52,
      "M": 53,
      "N": 54,
      "O": 55,
      "P": 56,
      "Q": 57,
      "R": 58,
      "S": 59,
      "T": 60,
      "U": 61,
      "V": 62,
      "W": 63,
      "X": 64,
      "Y": 65,
      "Z": 66,
      "[": 67,
      "\\": 68,
      "]": 69,
      "^": 70,
      "_": 71,
      "`": 72,
      "a": 73,
      "b": 74,
      "c": 75,
      "d": 76,
      "e": 77,
      "f": 78,
      "g": 79,
      "h": 80,
      "i": 81,
      "j": 82,
      "k": 83,
      "l": 84,
      "m": 85,
      "n": 86,
      "o": 87,
      "p": 88,
      "q": 89,
      "r": 90,
      "s": 91,
      "t": 92,
      "u": 93,
      "v": 94,
      "w": 95,
      "x": 96,
      "y": 97,
      "z": 98,
      "{": 99,
      "|": 100,
      "}": 101,
      "~": 102,
      "¡": 103,
      "¢": 104,
      "£": 105,
      "¤": 106,
      "¥": 107,
      "¦": 108,
      "§": 109,
      "¨": 110,
      "©": 111,
      "ª": 112,
      "«": 113,
      "¬": 114,
      "®": 115,
      "¯": 116,
      "°": 117,
      "±": 118,
      "²": 119,
      "³": 120,
      "´": 121,
      "µ": 122,
      "¶": 123,
      "·": 124,
      "¸": 125,
      "¹": 126,
      "º": 127,
      "»": 128,
      "¼": 129,
      "½": 130,
      "¾": 131,
      "¿": 132,
      "À": 133,
      "Á": 134,
      "Â": 135,
      "Ã": 136,
      "Ä": 137,
      "Å": 138,
      "Æ": 139,
      "Ç": 140,
      "È": 141,
      "É": 142,
      "Ê": 143,
      "Ë": 144,
      "Ì": 145,
      "Í": 146,
      "Î": 147,
      "Ï": 148,
      "Ð": 149,
      "Ñ": 150,
      "Ò": 151,
      "Ó": 152,
      "Ô": 153,
      "Õ": 154,
      "Ö": 155,
      "×": 156,
      "Ø": 157,
      "Ù": 158,
      "Ú": 159,
      "Û": 160,
      "Ü": 161,
      "Ý": 162,
      "Þ": 163,
      "ß": 164,
      "à": 165,
      "á": 166,
      "â": 167,
      "ã": 168,
      "ä": 169,
      "å": 170,
      "æ": 171,
      "ç": 172,
      "è": 173,
      "é": 174,
      "ê": 175,
      "ë": 176,
      "ì": 177,
      "í": 178,
      "î": 179,
      "ï": 180,
      "ð": 181,
      "ñ": 182,
      "ò": 183,
      "ó": 184,
      "ô": 185,
      "õ": 186,
      "ö": 187,
      "÷": 188,
      "ø": 189,
      "ù": 190,
      "ú": 191,
      "û": 192,
      "ü": 193,
      "ý": 194,
      "þ": 195,
      "ÿ": 196,
      "Ā": 197,
      "ā": 198,
      "Ă": 199,
      "ă": 200,
      "Ą": 201,
      "ą": 202,
      "Ć": 203,
      "ć": 204,
      "Ĉ": 205,
      "ĉ": 206,
      "Ċ": 207,
      "ċ": 208,
      "Č": 209,
      "č": 210,
      "Ď": 211,
      "ď": 212,
      "Đ": 213,
      "đ": 214,
      "Ē": 215,
      "ē": 216,
      "Ĕ": 217,
      "ĕ": 218,
      "Ė": 219,
      "ė": 220,
      "Ę": 221,
      "ę": 222,
      "Ě": 223,
      "ě": 224,
      "Ĝ": 225,
      "ĝ": 226,
      "Ğ": 227,
      "ğ": 228,
      "Ġ": 229,
      "ġ": 230,
      "Ģ": 231,
      "ģ": 232,
      "Ĥ": 233,
      "ĥ": 234,
      "Ħ": 235,
      "ħ": 236,
      "Ĩ": 237,
      "ĩ": 238,
      "Ī": 239,
      "ī": 240,
      "Ĭ": 241,
      "ĭ": 242,
      "Į": 243,
      "į": 244,
      "İ": 245,
      "ı": 246,
      "Ĳ": 247,
      "ĳ": 248,
      "Ĵ": 249,
      "ĵ": 250,
      "Ķ": 251,
      "ķ": 252,
      "ĸ": 253,
      "Ĺ": 254,
      "ĺ": 255,
      "Ļ": 256,
      "ļ": 257,
      "Ľ": 258,
      "ľ": 259,
      "Ŀ": 260,
      "ŀ": 261,
      "Ł": 262,
      "ł": 263,
      "Ń": 264,
      "Ġt": 265,
      "Ġa": 266,
      "in": 267,
      "he": 268,
      "re": 269,
      "on": 270,
      "Ġthe": 271,
      "er": 272,
      "Ġs": 273,
      "at": 274,
      "Ġc": 275,
      "Ġo": 276,
      "es": 277,
      "en": 278,
      "Ġw": 279,
      "nd": 280,
      "ing": 281,
      "it": 282,
      "is": 283,
      "Ġp": 284,
      "Ġb": 285,
      "or": 286,
      "Ġf": 287,
      "ou": 288,
      "al": 289,
      "an": 290,
      "Ġm": 291,
      "Ġto": 292,
      "ed": 293,
      "ar": 294,
      "Ġof": 295,
      "Ġin": 296,
      "Ġand": 297,
      "Ġd": 298,
      "ic": 299,
      "ion": 300,
      "le": 301,
      "ro": 302,
      "as": 303,
      "Ġh": 304,
      "Ġth": 305,
      "ct": 306,
      "Ġe": 307,
      "ent": 308,
      "Ġl": 309,
      "ve": 310,
      "il": 311,
      "Ġre": 312,
      "om": 313,
      "us": 314,
      "Ġis": 315,
      ".Ċ": 316,
      "Ġy": 317,
      "Ġn": 318,
      "et": 319,
      "ly": 320,
      "Ġg": 321,
      "Ġyou": 322,
      "ow": 323,
      "Ġbe": 324,
      "ut": 325,
      "ot": 326,
      "im": 327,
      "ĠT": 328,
      "id": 329,
      "st": 330,
      "ol": 331,
      "ce": 332,
      "Ġfor": 333,
      "ig": 334,
      "ra": 335,
      "ĠA": 336,
      "ch": 337,
      "ur": 338,
      "ation": 339,
      "Ġon": 340,
      "Ġst": 341,
      "ĠI": 342,
      "Ġthat": 343,
      "ir": 344,
      "el": 345,
      "ver": 346,
      "Ġit": 347,
      "Ġare": 348,
      "ay": 349,
      "ul": 350,
      "ith": 351,
      "Ġpro": 352,
      "se": 353,
      "if": 354,
      "Ġan": 355,
      "Ġwith": 356,
      "am": 357,
      "ĠS": 358,
      "est": 359,
      "Ġor": 360,
      "Ġcon": 361,
      "Ġas": 362,
      ".ĊĊ": 363,
      "Ġal": 364,
      "od": 365,
      "her": 366,
      "ad": 367,
      "ĠC": 368,
      "ĊĊ": 369,
      "ke": 370,
      "ter": 371,
      "Ġcan": 372,
      "un": 373,
      "Ġwh": 374,
      "ge": 375,
      "ure": 376,
      "ess": 377,
      "Ġha": 378,
      "ĠThe": 379,
      "ill": 380,
      "ate": 381,
      "ĠW": 382,
      "Ġcom": 383,
      "um": 384,
      "ab": 385,
      "Ġhe": 386,
      "Ġex": 387,
      "ers": 388,
      "ant": 389,
      "ore": 390,
      "pe": 391,
      "igh": 392,
      "qu": 393,
      "'s": 394,
      "th": 395,
      "Ġyour": 396,
      "ive": 397,
      "Ġus": 398,
      "ment": 399,
      "ies": 400,
      "Ġv": 401,
      "Ġde": 402,
      "op": 403,
      "ac": 404,
      "Ġwe": 405,
      "ity": 406,
      "ain": 407,
      "os": 408,
      "ld": 409,
      "ist": 410,
      "rom": 411,
      "ĠP": 412,
      "ĠM": 413,
      "Ġse": 414,
      "Ġne": 415,
      "em": 416,
      "ĠB": 417,
      "Ġch": 418,
      "Ġen": 419,
      "pp": 420,
      "Ġ(": 421,
      "Ġr": 422,
      "ect": 423,
      "Ġat": 424,
      "Ġsu": 425,
      "Ġsh": 426,
      "ial": 427,
      "Ġhave": 428,
      "Ġfrom": 429,
      "iv": 430,
      "ight": 431,
      "ort": 432,
      "Ġle": 433,
      "Ġdo": 434,
      "nt": 435,
      "ĠD": 436,
      "Ġpl": 437,
      "res": 438,
      "Ġby": 439,
      "ĠH": 440,
      "and": 441,
      "Ġnot": 442,
      "art": 443,
      "per": 444,
      "oc": 445,
      "ud": 446,
      "ust": 447,
      "all": 448,
      "ĠF": 449,
      "ome": 450,
      "ical": 451,
      "Ġthis": 452,
      "ns": 453,
      "ide": 454,
      "ri": 455,
      "Ġab": 456,
      "rou": 457,
      "ould": 458,
      "Ġu": 459,
      "ine": 460,
      "out": 461,
      "ĠE": 462,
      "pt": 463,
      "act": 464,
      "Ġma": 465,
      "ost": 466,
      "Ġim": 467,
      "ard": 468,
      "og": 469,
      "ell": 470,
      "ions": 471,
      "du": 472,
      "Ġwhe": 473,
      "Ġwill": 474,
      "red": 475,
      "ich": 476,
      "ĠR": 477,
      "Ġwor": 478,
      "ast": 479,
      "Ġcomp": 480,
      "Ġtheir": 481,
      "Ġthey": 482,
      "our": 483,
      "ff": 484,
      "âĢ": 485,
      "gh": 486,
      "ood": 487,
      "Ġk": 488,
      "Ġint": 489,
      "king": 490,
      "ther": 491,
      "The": 492,
      "iz": 493,
      "age": 494,
      "Ġad": 495,
      "ater": 496,
      "pl": 497,
      "ĠN": 498,
      "Ġall": 499,
      "ĠL": 500,
      "hat": 501,
      "ag": 502,
      "Ġmore": 503,
      "able": 504,
      "wer": 505,
      "Ġwas": 506,
      "ated": 507,
      "end": 508,
      "estion": 509,
      "Qu": 510,
      "ĠG": 511,
      "Ġcont": 512,
      "ere": 513,
      "oo": 514,
      "Ġbut": 515,
      "ally": 516,
      "ks": 517,
      "ult": 518,
      "Ġso": 519,
      "ib": 520,
      "ans": 521,
      "Ġte": 522,
      "ip": 523,
      "ous": 524,
      "ĠO": 525,
      "Ġinc": 526,
      "so": 527,
      "ind": 528,
      "ru": 529,
      "ep": 530,
      "Ġme": 531,
      "ry": 532,
      "Ġj": 533,
      "ike": 534,
      "are": 535,
      "ong": 536,
      "cc": 537,
      "nswer": 538,
      "Ġcl": 539,
      "ance": 540,
      "Question": 541,
      "Ġres": 542,
      "Ġdis": 543,
      "Ġhas": 544,
      "orm": 545,
      "ĠAnswer": 546,
      "Ġwhich": 547,
      "Ġout": 548,
      "Ġ\"": 549,
      "Ġsp": 550,
      "vel": 551,
      "ear": 552,
      "Ġimp": 553,
      "ations": 554,
      "Ġun": 555,
      "his": 556,
      "Ġother": 557,
      "ie": 558,
      "ction": 559,
      "one": 560,
      "'t": 561,
      "Ġalso": 562,
      "av": 563,
      "Ġman": 564,
      "reat": 565,
      "Ġtim": 566,
      "ents": 567,
      "Ġone": 568,
      "Ġspe": 569,
      "aus": 570,
      "very": 571,
      "ens": 572,
      "ace": 573,
      "ice": 574,
      "Ġfe": 575,
      "ence": 576,
      "ach": 577,
      "20": 578,
      "Ġthem": 579,
      "ign": 580,
      "ase": 581,
      "ass": 582,
      "ap": 583,
      "ĠU": 584,
      "Ġabout": 585,
      "ition": 586,
      "ack": 587,
      "low": 588,
      "ors": 589,
      "Ġper": 590,
      "ĠIn": 591,
      "ĠIt": 592,
      "Ġlike": 593,
      "Ġup": 594,
      "ary": 595,
      "Ġpre": 596,
      "Ġro": 597,
      "ress": 598,
      "Ġsc": 599,
      "iff": 600,
      "ild": 601,
      "Ġwhen": 602,
      "Ġsome": 603,
      "Ġqu": 604,
      "now": 605,
      "ile": 606,
      "ire": 607,
      "Ġev": 608,
      "ue": 609,
      "Ġif": 610,
      "ite": 611,
      "Ġsy": 612,
      "ia": 613,
      "ound": 614,
      "Ġneed": 615,
      "ces": 616,
      "Ġpart": 617,
      "Ġinto": 618,
      "ose": 619,
      "Ġuse": 620,
      "Ġcol": 621,
      "ĠWhat": 622,
      "Ġhow": 623,
      "Ġdiff": 624,
      "ĠThis": 625,
      "Ġhel": 626,
      "Ġtime": 627,
      "ak": 628,
      "ric": 629,
      "ĠY": 630,
      "Ġmay": 631,
      "Ġapp": 632,
      "ays": 633,
      "ame": 634,
      "form": 635,
      "Ġthan": 636,
      "row": 637,
      "Ġits": 638,
      "ail": 639,
      "ree": 640,
      "ll": 641,
      "Ġthere": 642,
      "ber": 643,
      "ings": 644,
      "Ġhelp": 645,
      "Ġpe": 646,
      "Ġbec": 647,
      "Ġtra": 648,
      "Ġar": 649,
      "Ġany": 650,
      "Ġover": 651,
      "Ġbl": 652,
      "Ġrec": 653,
      "ause": 654,
      "lect": 655,
      "als": 656,
      "Ġcomm": 657,
      "ific": 658,
      "Ġbet": 659,
      "ating": 660,
      "nder": 661,
      "Ġspec": 662,
      "Ġknow": 663,
      "Ġcons": 664,
      "les": 665,
      "cess": 666,
      "Ġthese": 667,
      "ove": 668,
      "ang": 669,
      "Ġgo": 670,
      "Ġget": 671,
      "ough": 672,
      "ake": 673,
      "ish": 674,
      "ord": 675,
      "Ġsa": 676,
      "int": 677,
      "hy": 678,
      "..": 679,
      "Ġwater": 680,
      "olog": 681,
      "Ġdes": 682,
      "Ġstud": 683,
      "we": 684,
      "te": 685,
      "ĠâĢ": 686,
      "ond": 687,
      "ons": 688,
      "rough": 689,
      "Ġused": 690,
      "Ġprodu": 691,
      "Ġour": 692,
      "Ġwhat": 693,
      "Ġtr": 694,
      "Ġind": 695,
      "stem": 696,
      "ount": 697,
      "Ġco": 698,
      "Ġfl": 699,
      "Ġeff": 700,
      "ub": 701,
      "ature": 702,
      "Ġra": 703,
      "alth": 704,
      "ory": 705,
      "ular": 706,
      "Ġyear": 707,
      "Ġmost": 708,
      "ms": 709,
      "ari": 710,
      "Ġdiffere": 711,
      "Ġoff": 712,
      "round": 713,
      "ook": 714,
      "ting": 715,
      "ning": 716,
      "ople": 717,
      "Ġgen": 718,
      "ĠJ": 719,
      "ick": 720,
      "Ġmake": 721,
      "lud": 722,
      "ck": 723,
      "Ġact": 724,
      "vers": 725,
      "ne": 726,
      "Ġwho": 727,
      "Ġacc": 728,
      "Ġsuch": 729,
      "Ġunder": 730,
      "Ġprov": 731,
      "erv": 732,
      "Ġnew": 733,
      "Ġam": 734,
      "ient": 735,
      "Ġshould": 736,
      "Ġsm": 737,
      "Ġadd": 738,
      "xt": 739,
      "Ġag": 740,
      "eth": 741,
      "Ġcar": 742,
      "ple": 743,
      "Ġwere": 744,
      "ful": 745,
      "Ġpeople": 746,
      "uring": 747,
      "ility": 748,
      "ates": 749,
      "Ġtw": 750,
      "ĠSt": 751,
      "oth": 752,
      "ject": 753,
      "erg": 754,
      "Ġbeen": 755,
      "Ġem": 756,
      "Ġwould": 757,
      "ange": 758,
      "ments": 759,
      "Ġwork": 760,
      "irst": 761,
      "Ġthrough": 762,
      "Ġinclud": 763,
      "Ġty": 764,
      "oss": 765,
      "Ġdi": 766,
      "Ġsystem": 767,
      "ph": 768,
      "Ġjust": 769,
      "Ġpr": 770,
      "hes": 771,
      "ble": 772,
      "ov": 773,
      "ise": 774,
      "Ġonly": 775,
      "ower": 776,
      "ics": 777,
      "10": 778,
      "Ġplant": 779,
      "its": 780,
      "Ġno": 781,
      "ities": 782,
      "Ġke": 783,
      "ten": 784,
      "Ġmany": 785,
      "Ġmy": 786,
      "ĠK": 787,
      "ark": 788,
      "ced": 789,
      "ob": 790,
      "Ġsur": 791,
      "Ġhigh": 792,
      "Ġpo": 793,
      "ative": 794,
      "Ġhealth": 795,
      "ĠV": 796,
      "hen": 797,
      "Ġwell": 798,
      "Ġbu": 799,
      "Ġdoes": 800,
      "Ġinter": 801,
      "velop": 802,
      "ible": 803,
      "old": 804,
      "Ġreg": 805,
      "chn": 806,
      "Ġrel": 807,
      "own": 808,
      "ual": 809,
      "ef": 810,
      "Ġtwo": 811,
      "ract": 812,
      "Ġdifferent": 813,
      "Ġrem": 814,
      "Ġexper": 815,
      "fter": 816,
      "ren": 817,
      "tain": 818,
      "ience": 819,
      "ink": 820,
      "lic": 821,
      "Ġac": 822,
      "?Ċ": 823,
      "Ġfirst": 824,
      "Ġwhere": 825,
      "Ġlong": 826,
      "Ġche": 827,
      "ram": 828,
      "ween": 829,
      "19": 830,
      "ft": 831,
      "Ġ-": 832,
      "ased": 833,
      "Ġway": 834,
      "hed": 835,
      "Ġimport": 836,
      "get": 837,
      "Ġmod": 838,
      "Ġdevelop": 839,
      "uch": 840,
      "ife": 841,
      "arm": 842,
      "cy": 843,
      "ize": 844,
      "fore": 845,
      "ade": 846,
      "ually": 847,
      "Ġrep": 848,
      "Ġsim": 849,
      "Ġfood": 850,
      "Ġbetween": 851,
      "Ġprocess": 852,
      "ĠIf": 853,
      "Ġusing": 854,
      "Ġtrans": 855,
      "In": 856,
      "Ġvari": 857,
      "Ġcould": 858,
      "Ġsupp": 859,
      "Ġob": 860,
      "Ġpat": 861,
      "ential": 862,
      "rit": 863,
      "Ġdec": 864,
      "Ġthen": 865,
      "ts": 866,
      "Ġevery": 867,
      "Ġeven": 868,
      "Ġcre": 869,
      "ĠCh": 870,
      "Ġinst": 871,
      "iron": 872,
      "Ġinv": 873,
      "Ġbecause": 874,
      "Ġinf": 875,
      "Ġgrow": 876,
      "erm": 877,
      "ĠHow": 878,
      "Ġdet": 879,
      "wn": 880,
      "ĠThey": 881,
      "Ġmain": 882,
      "ious": 883,
      "Ġtechn": 884,
      "Ġatt": 885,
      "Ġass": 886,
      "Ġph": 887,
      "ically": 888,
      "ever": 889,
      "iss": 890,
      "rib": 891,
      "Ġvery": 892,
      "Ġeffect": 893,
      "ily": 894,
      "Ġsee": 895,
      "gan": 896,
      "iqu": 897,
      "'re": 898,
      "ĠYou": 899,
      "ps": 900,
      "mer": 901,
      "ines": 902,
      "ool": 903,
      "oy": 904,
      "ural": 905,
      "arch": 906,
      "Ġsk": 907,
      "Ġlear": 908,
      "pect": 909,
      "ins": 910,
      "Ġrese": 911,
      "Ġmuch": 912,
      "Ġrequ": 913,
      "Ġsub": 914,
      "ures": 915,
      "ution": 916,
      "Ġhum": 917,
      "gg": 918,
      "Ġext": 919,
      "Ġlight": 920,
      "Ġlar": 921,
      "Ġins": 922,
      "ness": 923,
      "Ġback": 924,
      "ody": 925,
      "Ġgood": 926,
      "vent": 927,
      "Ġeach": 928,
      "ology": 929,
      "Ġdon": 930,
      "Ġform": 931,
      "Ġimportant": 932,
      "?ĊĊ": 933,
      "Ġchild": 934,
      "00": 935,
      "ĠâĢĵ": 936,
      "Ġnum": 937,
      "ĠWh": 938,
      "cial": 939,
      "Ġwant": 940,
      "Ġyears": 941,
      "Ġexp": 942,
      "Ġmin": 943,
      "Ġgra": 944,
      "viron": 945,
      "ergy": 946,
      "ron": 947,
      "Ġsol": 948,
      "ian": 949,
      "Ġfind": 950,
      "Ġset": 951,
      "Ġdisc": 952,
      "Ġfol": 953,
      "Ġsign": 954,
      "Ġgener": 955,
      "stand": 956,
      "Ġsmall": 957,
      "Ġpers": 958,
      "Ġdog": 959,
      "Ġcle": 960,
      "Ġwhile": 961,
      "Ġhad": 962,
      "ety": 963,
      "Ġve": 964,
      "Ġexam": 965,
      "Ġfun": 966,
      "Ġincre": 967,
      "elf": 968,
      "Ġav": 969,
      "Ġstart": 970,
      "Ġear": 971,
      "ruct": 972,
      "Ġafter": 973,
      ").": 974,
      "uc": 975,
      "Ġtake": 976,
      "Ġair": 977,
      "Ġmed": 978,
      "ality": 979,
      "Ġgl": 980,
      "ss": 981,
      "Ġloc": 982,
      "ues": 983,
      "Ġhis": 984,
      "Ġdesign": 985,
      "Ġelect": 986,
      "Ġfound": 987,
      "ata": 988,
      "ational": 989,
      "ec": 990,
      "other": 991,
      "Ġpres": 992,
      "Ġworld": 993,
      "Ġart": 994,
      "ists": 995,
      "urn": 996,
      "Ġresult": 997,
      "ices": 998,
      "Ġbeing": 999,
      "Ġcur": 1000,
      "Ġbre": 1001,
      "ied": 1002,
      "Ġaround": 1003,
      "ix": 1004,
      "Ġeas": 1005,
      "aterial": 1006,
      "ds": 1007,
      "Ġref": 1008,
      "),": 1009,
      "ĠUn": 1010,
      "Ġhand": 1011,
      "tle": 1012,
      "vironment": 1013,
      "Ġbefore": 1014,
      "Ġduring": 1015,
      "Ġlevel": 1016,
      "ĠWe": 1017,
      "Ġher": 1018,
      "Ġcall": 1019,
      "Ġfact": 1020,
      "Ġpot": 1021,
      "nce": 1022,
      "Ġfollow": 1023,
      "ases": 1024,
      "Ġallow": 1025,
      "Ġbr": 1026,
      "Ġcomple": 1027,
      "ages": 1028,
      "Ġcell": 1029,
      "Ġdown": 1030,
      "ives": 1031,
      "ption": 1032,
      "Ġproble": 1033,
      "ock": 1034,
      "Ġshe": 1035,
      "Ġown": 1036,
      "Ġprog": 1037,
      "Ġdep": 1038,
      "eg": 1039,
      "Ġsec": 1040,
      "dition": 1041,
      "ider": 1042,
      "Ġinform": 1043,
      "Ġcor": 1044,
      "Ġsame": 1045,
      "omm": 1046,
      "Ġtyp": 1047,
      "chool": 1048,
      "Ġexpl": 1049,
      "Ġmon": 1050,
      "Ġtem": 1051,
      "--": 1052,
      "els": 1053,
      "Ġstr": 1054,
      "Ġdist": 1055,
      "Ġval": 1056,
      "Ġanim": 1057,
      "ward": 1058,
      "Ġredu": 1059,
      "Ġlife": 1060,
      "Ġoften": 1061,
      "air": 1062,
      ".\"": 1063,
      "ized": 1064,
      "Ġthose": 1065,
      "cer": 1066,
      "Ġlead": 1067,
      "Ġkeep": 1068,
      "rop": 1069,
      "Ġenergy": 1070,
      "Ġbo": 1071,
      "Ġaut": 1072,
      "Ġpartic": 1073,
      "Ġent": 1074,
      "ets": 1075,
      "Ġbest": 1076,
      "Ġmaterial": 1077,
      ":Ċ": 1078,
      "ather": 1079,
      "cl": 1080,
      "Ġboth": 1081,
      "aw": 1082,
      "tern": 1083,
      "Ġright": 1084,
      "Ġtoo": 1085,
      "Ġpower": 1086,
      "Ġvis": 1087,
      "Ġbody": 1088,
      "Ġshow": 1089,
      "ew": 1090,
      "ys": 1091,
      "Ġread": 1092,
      "What": 1093,
      "ger": 1094,
      "Ġmade": 1095,
      "Ġgu": 1096,
      "rol": 1097,
      "ale": 1098,
      "ides": 1099,
      "ien": 1100,
      "ident": 1101,
      "atter": 1102,
      "Ġed": 1103,
      "io": 1104,
      "Ġcommon": 1105,
      "Ġcat": 1106,
      "ty": 1107,
      "Ġless": 1108,
      "read": 1109,
      "Ġdr": 1110,
      "Ġchar": 1111,
      "Ġcare": 1112,
      "Ġproduct": 1113,
      "Ġperson": 1114,
      "Ġsom": 1115,
      "Ġprot": 1116,
      "ium": 1117,
      "Ġpop": 1118,
      "iew": 1119,
      "Ġplay": 1120,
      "ull": 1121,
      "Ġenvironment": 1122,
      "reen": 1123,
      "ĠFor": 1124,
      "Ġtest": 1125,
      "iving": 1126,
      "ving": 1127,
      "Ġeng": 1128,
      "rain": 1129,
      "ĠPro": 1130,
      "aking": 1131,
      "Ġend": 1132,
      "ars": 1133,
      "Ġposs": 1134,
      "ict": 1135,
      "Ġday": 1136,
      "Ġhome": 1137,
      "Ġmet": 1138,
      "Ġdata": 1139,
      "Ġunderstand": 1140,
      "ave": 1141,
      "Ġadv": 1142,
      "ĠHe": 1143,
      "-b": 1144,
      "imate": 1145,
      "iel": 1146,
      "ier": 1147,
      "Ġsaid": 1148,
      "ĠAs": 1149,
      "ng": 1150,
      "eng": 1151,
      "Ġ'": 1152,
      "How": 1153,
      "ĠAl": 1154,
      "ivers": 1155,
      "ath": 1156,
      "ited": 1157,
      "Ġlit": 1158,
      "acter": 1159,
      "ute": 1160,
      "Ġtreat": 1161,
      "cing": 1162,
      "ason": 1163,
      "Ġsaf": 1164,
      "hys": 1165,
      "Ġcommun": 1166,
      "Ġinformation": 1167,
      "Ġproper": 1168,
      "ves": 1169,
      "up": 1170,
      "Ġresp": 1171,
      "Ġens": 1172,
      "Ġdef": 1173,
      "rap": 1174,
      "Ġorgan": 1175,
      "Ġspecies": 1176,
      "Ġpoint": 1177,
      "Ġben": 1178,
      "rent": 1179,
      "led": 1180,
      "ven": 1181,
      "Ġmight": 1182,
      "Ġequ": 1183,
      "any": 1184,
      "ids": 1185,
      "ivid": 1186,
      "ved": 1187,
      "12": 1188,
      "ands": 1189,
      "Ġlook": 1190,
      "ted": 1191,
      "ethod": 1192,
      "der": 1193,
      "ĠThese": 1194,
      "perature": 1195,
      "Ġprovide": 1196,
      "cept": 1197,
      "Ġnow": 1198,
      "Ġplan": 1199,
      ",\"": 1200,
      "Ġnumber": 1201,
      "Ġstudy": 1202,
      "Ġserv": 1203,
      "ional": 1204,
      "oci": 1205,
      "Ġaw": 1206,
      "ont": 1207,
      "-s": 1208,
      "Ġbetter": 1209,
      "Ġfam": 1210,
      "ection": 1211,
      "ash": 1212,
      "ork": 1213,
      "Ġresearch": 1214,
      "Ġap": 1215,
      "This": 1216,
      "Ġpol": 1217,
      "Ġimpro": 1218,
      "ining": 1219,
      "Ġpur": 1220,
      "bs": 1221,
      "Ġdise": 1222,
      "Ġwithout": 1223,
      "Ġsupport": 1224,
      "Ġcent": 1225,
      "Ġgreat": 1226,
      "ead": 1227,
      "cent": 1228,
      "Ġdire": 1229,
      "Ġclass": 1230,
      "ĠTh": 1231,
      "hip": 1232,
      "Ġaff": 1233,
      "ways": 1234,
      "ots": 1235,
      "Ġdid": 1236,
      "Ġstudents": 1237,
      "kes": 1238,
      "ired": 1239,
      "Ġcreat": 1240,
      "Ġstill": 1241,
      "Ġbeh": 1242,
      "Ġop": 1243,
      "und": 1244,
      "the": 1245,
      "ĠTo": 1246,
      "ĠAn": 1247,
      "Ġplants": 1248,
      "itions": 1249,
      "less": 1250,
      "ants": 1251,
      "Ġprof": 1252,
      "Ġtext": 1253,
      "Ġmaking": 1254,
      "day": 1255,
      "Ġris": 1256,
      "ering": 1257,
      "Ġtemperature": 1258,
      "Ġmethod": 1259,
      "Ġactiv": 1260,
      "Ġpain": 1261,
      "Ġincluding": 1262,
      "Ġlarge": 1263,
      "If": 1264,
      "Ġbuild": 1265,
      "inal": 1266,
      "ince": 1267,
      "Ġnat": 1268,
      ":ĊĊ": 1269,
      "itive": 1270,
      "Ġchange": 1271,
      "Ġiss": 1272,
      "Ġtop": 1273,
      "ĠBut": 1274,
      "Ġey": 1275,
      "ĠThere": 1276,
      "Ġbenef": 1277,
      "Ġfew": 1278,
      "Ġcreate": 1279,
      "hers": 1280,
      "oms": 1281,
      "ulation": 1282,
      "ert": 1283,
      "ability": 1284,
      "Ġhapp": 1285,
      "ĠAnd": 1286,
      "âĢĻ": 1287,
      "It": 1288,
      "ined": 1289,
      "-f": 1290,
      "Ġtype": 1291,
      "Ġflow": 1292,
      "Ġknown": 1293,
      "Ġide": 1294,
      "Ġgrou": 1295,
      "Ġocc": 1296,
      "Ġpos": 1297,
      "Ġthink": 1298,
      "Ġcaus": 1299,
      "ention": 1300,
      "Ġhy": 1301,
      "Ġpract": 1302,
      "Ġhuman": 1303,
      "15": 1304,
      "line": 1305,
      "Ġexample": 1306,
      "ouse": 1307,
      "Ġmem": 1308,
      "ior": 1309,
      "Ġsw": 1310,
      "Ġsl": 1311,
      "Ġplace": 1312,
      "Ġcontain": 1313,
      "Ġchang": 1314,
      "ital": 1315,
      "Ġlearn": 1316,
      "Ġcontrol": 1317,
      "ording": 1318,
      "ross": 1319,
      "Ġagain": 1320,
      "__": 1321,
      "Ġser": 1322,
      "Ġopt": 1323,
      "co": 1324,
      "ared": 1325,
      "Ġchildren": 1326,
      "Ġcause": 1327,
      "Ġrun": 1328,
      "ooking": 1329,
      "ats": 1330,
      "ify": 1331,
      "rodu": 1332,
      "Ġthough": 1333,
      "Ġfeel": 1334,
      "Ġess": 1335,
      "Ġthree": 1336,
      "Ġbel": 1337,
      "Ġperform": 1338,
      "Ġschool": 1339,
      "Ġmus": 1340,
      "'ll": 1341,
      "Ġsure": 1342,
      "Ġproject": 1343,
      "apt": 1344,
      "ism": 1345,
      "oid": 1346,
      "Ġcount": 1347,
      "ters": 1348,
      "ator": 1349,
      "Ġthings": 1350,
      "30": 1351,
      "Ġcal": 1352,
      "Ġlow": 1353,
      "Ġmust": 1354,
      "18": 1355,
      "Ġele": 1356,
      "ique": 1357,
      "Ġpress": 1358,
      "iness": 1359,
      "Ġhard": 1360,
      "Ġdel": 1361,
      "Ġprevent": 1362,
      "Ġdam": 1363,
      "Ġbir": 1364,
      "here": 1365,
      "Ġindivid": 1366,
      "Ġarea": 1367,
      "ner": 1368,
      "ĠAd": 1369,
      "Ġclean": 1370,
      "ral": 1371,
      "Ġtre": 1372,
      "Ġcost": 1373,
      "ething": 1374,
      "Ġpotential": 1375,
      "Ġphys": 1376,
      "ĠHowever": 1377,
      "ĠWhen": 1378,
      "Ġcalled": 1379,
      "ole": 1380,
      "Ġbas": 1381,
      "Ġmeas": 1382,
      "Ġsurf": 1383,
      "Ġphot": 1384,
      "Ġappro": 1385,
      "Ġdev": 1386,
      "iven": 1387,
      "me": 1388,
      "Ġgr": 1389,
      "Ġbi": 1390,
      "aring": 1391,
      "ex": 1392,
      "gen": 1393,
      "Ġconf": 1394,
      "ĠSo": 1395,
      "meric": 1396,
      "Ġwhy": 1397,
      "Ġwithin": 1398,
      "omp": 1399,
      "Ġconn": 1400,
      "ield": 1401,
      "Ġconst": 1402,
      "Ġcontin": 1403,
      "icle": 1404,
      "ĠSc": 1405,
      "Ġsour": 1406,
      "Ġcurrent": 1407,
      "-c": 1408,
      "ax": 1409,
      "ense": 1410,
      "ills": 1411,
      "ug": 1412,
      "irc": 1413,
      "Ġpub": 1414,
      "'ve": 1415,
      "ape": 1416,
      "Ġtry": 1417,
      "Ġreal": 1418,
      "ern": 1419,
      "Ġexperience": 1420,
      "Ġsomething": 1421,
      "ling": 1422,
      "Ġmove": 1423,
      "atch": 1424,
      "ered": 1425,
      "ental": 1426,
      "to": 1427,
      "...": 1428,
      "pr": 1429,
      "Ġrest": 1430,
      "Ġinclude": 1431,
      "Ġspecific": 1432,
      "Ġable": 1433,
      "Ġcap": 1434,
      "Ġmark": 1435,
      "ently": 1436,
      "ime": 1437,
      "Ġsit": 1438,
      "ients": 1439,
      "ination": 1440,
      "Ġtool": 1441,
      "Ġreally": 1442,
      "Ġdue": 1443,
      "Ġnatural": 1444,
      "Ġstep": 1445,
      "br": 1446,
      "Ġfollowing": 1447,
      "Ġsignific": 1448,
      "iversity": 1449,
      "iver": 1450,
      "ank": 1451,
      "Ġconsider": 1452,
      "erest": 1453,
      "ocus": 1454,
      "Ġstand": 1455,
      "Ġpossible": 1456,
      "Ġcour": 1457,
      "Ġwee": 1458,
      "Ġavail": 1459,
      "Ġcolor": 1460,
      "Ġsym": 1461,
      "Ġfree": 1462,
      "Ġanother": 1463,
      "50": 1464,
      "Ġimm": 1465,
      "Ġlot": 1466,
      "ertain": 1467,
      "ends": 1468,
      "ected": 1469,
      "Ġbecome": 1470,
      "Ġident": 1471,
      "ush": 1472,
      "Ġprogram": 1473,
      "Ġfunction": 1474,
      "akes": 1475,
      "Ġgoing": 1476,
      "Ġblood": 1477,
      "Ġvarious": 1478,
      "Ġcond": 1479,
      "ĠPl": 1480,
      "Ġhead": 1481,
      "Ġaddition": 1482,
      "Ġfish": 1483,
      "Ġput": 1484,
      "Ġdirect": 1485,
      "ization": 1486,
      "Ġamount": 1487,
      "Ġoper": 1488,
      "Ġold": 1489,
      "port": 1490,
      "Ġcome": 1491,
      "St": 1492,
      "raw": 1493,
      "uss": 1494,
      "ĠAmeric": 1495,
      "Ġhere": 1496,
      "Ġsoil": 1497,
      "Ġimpact": 1498,
      "Ġalways": 1499,
      "eds": 1500,
      "Ġstate": 1501,
      "Ġant": 1502,
      "Ġlittle": 1503,
      "land": 1504,
      "oot": 1505,
      "Ġmeans": 1506,
      "thing": 1507,
      "Ġappe": 1508,
      "of": 1509,
      "Ġcells": 1510,
      "osed": 1511,
      "ished": 1512,
      "11": 1513,
      "Ġneeds": 1514,
      "Ġlet": 1515,
      "Ġlast": 1516,
      "Ġsever": 1517,
      "Ġfil": 1518,
      "Ġopen": 1519,
      "etic": 1520,
      "Ġinvol": 1521,
      "ĠAr": 1522,
      "Ġheat": 1523,
      "Ġsecond": 1524,
      "Ġnut": 1525,
      "ĠWhich": 1526,
      "aste": 1527,
      "Ġcomput": 1528,
      "Ġret": 1529,
      "ration": 1530,
      "Ġpass": 1531,
      "Ġbus": 1532,
      "Ġcr": 1533,
      "Ġel": 1534,
      "Ġlim": 1535,
      "aves": 1536,
      "aper": 1537,
      "Ġpar": 1538,
      "Ġsay": 1539,
      "Ġspace": 1540,
      "ccess": 1541,
      "Ġec": 1542,
      "ane": 1543,
      "de": 1544,
      "arden": 1545,
      "Ġcomb": 1546,
      "Ġstruct": 1547,
      "Ġhig": 1548,
      "Ġcut": 1549,
      "icro": 1550,
      "ones": 1551,
      "Ġes": 1552,
      "Ġproblem": 1553,
      "Ġsize": 1554,
      "Ġmult": 1555,
      "Ġrequire": 1556,
      "ee": 1557,
      "Ġfocus": 1558,
      "Ġest": 1559,
      "Ġtypes": 1560,
      "Ġcam": 1561,
      "cle": 1562,
      "Ġareas": 1563,
      "Ġanal": 1564,
      "Ġavailable": 1565,
      "oad": 1566,
      "ateg": 1567,
      "ries": 1568,
      "Ġsignificant": 1569,
      "Ġvol": 1570,
      "Ġensure": 1571,
      "Ġindust": 1572,
      "Ġunt": 1573,
      "arent": 1574,
      "Ġlearning": 1575,
      "bers": 1576,
      "Ġfin": 1577,
      "over": 1578,
      "Ġscient": 1579,
      "Ġrange": 1580,
      "Ġdisease": 1581,
      "oes": 1582,
      "Ġfeature": 1583,
      "Ġmean": 1584,
      "ips": 1585,
      "Ġprovid": 1586,
      "Ġseveral": 1587,
      "orn": 1588,
      "ĠIs": 1589,
      "Ġprom": 1590,
      "ieve": 1591,
      "ox": 1592,
      "Ġcirc": 1593,
      "Ġteam": 1594,
      "Ġdevelopment": 1595,
      "Ġprofess": 1596,
      "ĠEx": 1597,
      "iod": 1598,
      "ards": 1599,
      "ending": 1600,
      "ocial": 1601,
      "Ġpresent": 1602,
      "aces": 1603,
      "pecial": 1604,
      "Ġusually": 1605,
      "Ġtimes": 1606,
      "Ġoil": 1607,
      "Ġessential": 1608,
      "Ġmot": 1609,
      "Ġinterest": 1610,
      "Ġenough": 1611,
      "Ġkey": 1612,
      "Ġrisk": 1613,
      "ended": 1614,
      "Ġmakes": 1615,
      "ified": 1616,
      "ĠSh": 1617,
      "ances": 1618,
      "Ġanimals": 1619,
      "Ġapplic": 1620,
      "Ġbeg": 1621,
      "ours": 1622,
      "Ġlay": 1623,
      "Ġgive": 1624,
      "ilar": 1625,
      "omes": 1626,
      "Ġcy": 1627,
      "Ġquality": 1628,
      "Ġeffective": 1629,
      "-d": 1630,
      "Ġmonth": 1631,
      "arc": 1632,
      "ems": 1633,
      "-p": 1634,
      "ably": 1635,
      "Ġbig": 1636,
      "Ġspecial": 1637,
      "ote": 1638,
      "Ġengine": 1639,
      "fort": 1640,
      "Ġaccess": 1641,
      "Ġsens": 1642,
      "az": 1643,
      "Ġsystems": 1644,
      "We": 1645,
      "Ġconditions": 1646,
      "âĢĶ": 1647,
      "Ġbased": 1648,
      "outh": 1649,
      "Ġmaterials": 1650,
      "Ġtechnology": 1651,
      "ton": 1652,
      "Ġsal": 1653,
      "Ġpost": 1654,
      "Ġchem": 1655,
      "Ġ$": 1656,
      "Ġhist": 1657,
      "ode": 1658,
      "Ġobject": 1659,
      "af": 1660,
      "Ġfre": 1661,
      "Ġoccur": 1662,
      "ĠCan": 1663,
      "'m": 1664,
      "Ġcho": 1665,
      "ĠCl": 1666,
      "Ġmill": 1667,
      "ision": 1668,
      "alk": 1669,
      "gn": 1670,
      "Ġdig": 1671,
      "au": 1672,
      "hor": 1673,
      "16": 1674,
      "Ġlist": 1675,
      "Ġcertain": 1676,
      "atic": 1677,
      "Ġside": 1678,
      "ĠRe": 1679,
      "Ġeffic": 1680,
      "Ġconsum": 1681,
      "aut": 1682,
      "ories": 1683,
      "oose": 1684,
      "Ġopp": 1685,
      "ency": 1686,
      "ires": 1687,
      "Ġsurface": 1688,
      "Ġdem": 1689,
      "Ġmil": 1690,
      "view": 1691,
      "As": 1692,
      "Ġsound": 1693,
      "Ġdeterm": 1694,
      "Ġpressure": 1695,
      "Ġimprove": 1696,
      "Ġparticular": 1697,
      "ring": 1698,
      "be": 1699,
      "Ġorder": 1700,
      "Ġnon": 1701,
      "ĠInd": 1702,
      "ĠWith": 1703,
      "ological": 1704,
      "ustom": 1705,
      "Ġuntil": 1706,
      "Ġprim": 1707,
      "ables": 1708,
      "14": 1709,
      "Ġtoget": 1710,
      "Ġtogether": 1711,
      "par": 1712,
      "Ġwind": 1713,
      "bon": 1714,
      "Ġrecomm": 1715,
      "oring": 1716,
      "When": 1717,
      "urther": 1718,
      "Ġbehav": 1719,
      "Ġproblems": 1720,
      "Ġeduc": 1721,
      "Ġlevels": 1722,
      "iting": 1723,
      "Ġsince": 1724,
      "ples": 1725,
      "aster": 1726,
      "ĠBy": 1727,
      ")Ċ": 1728,
      "Ġz": 1729,
      "Ġbra": 1730,
      "asing": 1731,
      "Ġweight": 1732,
      "ication": 1733,
      "Ġline": 1734,
      "Ġworks": 1735,
      "Ġdesc": 1736,
      "Ġaway": 1737,
      "olution": 1738,
      "inc": 1739,
      "Ġet": 1740,
      "put": 1741,
      "lu": 1742,
      "Ġfamily": 1743,
      "ains": 1744,
      "Ġworking": 1745,
      "ĠRes": 1746,
      "Ġnear": 1747,
      "ately": 1748,
      "Ġfeed": 1749,
      "Ġsun": 1750,
      "let": 1751,
      "Ġter": 1752,
      "Ġreport": 1753,
      "You": 1754,
      "Ġname": 1755,
      "Ġsuccess": 1756,
      "Ġchall": 1757,
      "ĠĠ": 1758,
      "Ġ&": 1759,
      "Ġ=": 1760,
      "self": 1761,
      "Ġproducts": 1762,
      "Ġshort": 1763,
      "ury": 1764,
      "Ġmov": 1765,
      "13": 1766,
      "Ġgroup": 1767,
      "Ġmar": 1768,
      "utes": 1769,
      "cul": 1770,
      "omen": 1771,
      "ah": 1772,
      "uture": 1773,
      "Ġrepl": 1774,
      "Ġenc": 1775,
      "ĠNew": 1776,
      "Ġfore": 1777,
      "Ġdays": 1778,
      "Ġmaintain": 1779,
      "pecially": 1780,
      "Ġnext": 1781,
      "ember": 1782,
      "Ġcomplete": 1783,
      "inter": 1784,
      "Ġprotect": 1785,
      "ump": 1786,
      "Ġcult": 1787,
      "Ġcomes": 1788,
      "Ġquick": 1789,
      "Ġmach": 1790,
      "oney": 1791,
      "Ġalong": 1792,
      "Ġsugg": 1793,
      "Ġturn": 1794,
      "Ġincrease": 1795,
      "ored": 1796,
      "icult": 1797,
      "Ġkind": 1798,
      "Ġleg": 1799,
      "oint": 1800,
      "ware": 1801,
      "Ġrele": 1802,
      "fact": 1803,
      "Ġnecess": 1804,
      "jor": 1805,
      "Ġearly": 1806,
      "Ġresults": 1807,
      "imes": 1808,
      "Ġeasy": 1809,
      "Ġcase": 1810,
      "Ġhaving": 1811,
      "Ġgarden": 1812,
      "ĠThat": 1813,
      "Ġtru": 1814,
      "Ġperiod": 1815,
      "Ġothers": 1816,
      "ither": 1817,
      "Ġcourse": 1818,
      "Ġsing": 1819,
      "There": 1820,
      "NA": 1821,
      "Ġlocal": 1822,
      "osp": 1823,
      "Ġlikely": 1824,
      "-l": 1825,
      "ĠUniversity": 1826,
      "Ġreduce": 1827,
      "17": 1828,
      "une": 1829,
      "Ġhealthy": 1830,
      "Ġrad": 1831,
      "oor": 1832,
      "Ġfri": 1833,
      "agement": 1834,
      "onom": 1835,
      "Ġgrowth": 1836,
      "Ġtreatment": 1837,
      "fer": 1838,
      "erc": 1839,
      "Ġhigher": 1840,
      "ĠSe": 1841,
      "Ġcou": 1842,
      "work": 1843,
      "Ġdry": 1844,
      "ogn": 1845,
      "Ġfull": 1846,
      "ctor": 1847,
      "Ġlab": 1848,
      "Ġbusiness": 1849,
      "Ġsuggest": 1850,
      "Ġstrong": 1851,
      "Ġprote": 1852,
      "ĠAt": 1853,
      "âĢ¦": 1854,
      "Ġsocial": 1855,
      "Ġdoesn": 1856,
      "Ġground": 1857,
      "Ġste": 1858,
      "Ġchanges": 1859,
      "Ġgreen": 1860,
      "por": 1861,
      "ators": 1862,
      "Ġdogs": 1863,
      "light": 1864,
      "Ġtur": 1865,
      "-m": 1866,
      "ches": 1867,
      "Ġactually": 1868,
      "Ġfac": 1869,
      "ooks": 1870,
      "Ġmeasure": 1871,
      "ret": 1872,
      "Ġwarm": 1873,
      "aging": 1874,
      "bit": 1875,
      "Ġissues": 1876,
      "Ġsimilar": 1877,
      "ipp": 1878,
      "Ġsimple": 1879,
      "not": 1880,
      "Ġlower": 1881,
      "Ġrole": 1882,
      "Ġunique": 1883,
      "Ġleast": 1884,
      "Ġsoft": 1885,
      "Ġlive": 1886,
      "Ġeat": 1887,
      "Ġheart": 1888,
      "ler": 1889,
      "ised": 1890,
      "âĢĻs": 1891,
      "Ġreason": 1892,
      "Ġrece": 1893,
      "Ġorig": 1894,
      "ream": 1895,
      "Ġways": 1896,
      "Ġsafe": 1897,
      "Ġmajor": 1898,
      "Ġred": 1899,
      "Ġdiet": 1900,
      "Ġresour": 1901,
      "Ġavoid": 1902,
      "An": 1903,
      "Ġans": 1904,
      "astic": 1905,
      "agn": 1906,
      "Ġespecially": 1907,
      "Ġmodel": 1908,
      "Ġpie": 1909,
      "Ġcustom": 1910,
      "ivity": 1911,
      "Ġage": 1912,
      "izing": 1913,
      "----": 1914,
      "Ġ[": 1915,
      "Ġfuture": 1916,
      "Ġbro": 1917,
      "ĠTe": 1918,
      "rect": 1919,
      "Ġsum": 1920,
      "Ġcheck": 1921,
      "ames": 1922,
      "Ġmind": 1923,
      "fect": 1924,
      "Ġfar": 1925,
      "Ġi": 1926,
      "ustain": 1927,
      "Ġacross": 1928,
      "Ġdamage": 1929,
      "Ġinvest": 1930,
      "atory": 1931,
      "Ġeye": 1932,
      "ilities": 1933,
      "Ġvide": 1934,
      "rag": 1935,
      "ĠBe": 1936,
      "-t": 1937,
      "Ġmicro": 1938,
      "Ġaffect": 1939,
      "ann": 1940,
      "Ġproduction": 1941,
      "ĠDe": 1942,
      "Ġskin": 1943,
      "25": 1944,
      "Ġvir": 1945,
      "Ġwrit": 1946,
      "Ġdone": 1947,
      "vious": 1948,
      "Ġfour": 1949,
      "Ġfrequ": 1950,
      "Ġcharacter": 1951,
      "Ġthing": 1952,
      "Ġpred": 1953,
      "Ġvalue": 1954,
      "Ġmarket": 1955,
      "40": 1956,
      "Ġnorm": 1957,
      "Ġnever": 1958,
      "ĠCon": 1959,
      "ott": 1960,
      "Ġassoci": 1961,
      "Ġbegin": 1962,
      "orth": 1963,
      "verage": 1964,
      "Ġgas": 1965,
      "Ġhim": 1966,
      "Ġdifficult": 1967,
      "ĠSome": 1968,
      "Ġaccording": 1969,
      "Ġbatter": 1970,
      "ĠSp": 1971,
      "Ġpaper": 1972,
      "lish": 1973,
      "Ġbit": 1974,
      "joy": 1975,
      "Ġresearc": 1976,
      "hem": 1977,
      "igns": 1978,
      "ression": 1979,
      "Ġregular": 1980,
      "Ġcool": 1981,
      "Ġhelps": 1982,
      "Ġsays": 1983,
      "Ġagainst": 1984,
      "Ġreact": 1985,
      "chan": 1986,
      "anced": 1987,
      "Ġfield": 1988,
      "ym": 1989,
      "ĠYour": 1990,
      "Ġhouse": 1991,
      "Ġloss": 1992,
      "Ġbenefits": 1993,
      "Ġpast": 1994,
      "Ġbook": 1995,
      "usion": 1996,
      "Ġgiven": 1997,
      "most": 1998,
      "ĠEn": 1999,
      "Ġflu": 2000,
      "Ġpopular": 2001,
      "ray": 2002,
      "Ġlooking": 2003,
      "Ġprob": 2004,
      "estions": 2005,
      "yle": 2006,
      "bo": 2007,
      "Ġwhite": 2008,
      "iple": 2009,
      "Ġparts": 2010,
      "Ġgre": 2011,
      "ission": 2012,
      "Ġabove": 2013,
      "side": 2014,
      "though": 2015,
      "ived": 2016,
      "Ġpublic": 2017,
      "Ġach": 2018,
      "amm": 2019,
      "ledge": 2020,
      "uro": 2021,
      "Ġchemical": 2022,
      "wards": 2023,
      "Ġeffects": 2024,
      "omet": 2025,
      "ffic": 2026,
      "Ġclear": 2027,
      "!ĊĊ": 2028,
      "ĠCol": 2029,
      "Ġelectric": 2030,
      "Ġcontrib": 2031,
      "Ġrespons": 2032,
      "Ġland": 2033,
      "Ġcompon": 2034,
      "Ġobs": 2035,
      "Ġintern": 2036,
      "idence": 2037,
      "Ġleft": 2038,
      "ĠZ": 2039,
      "Ġdetail": 2040,
      "Ġwide": 2041,
      "Ġdesigned": 2042,
      "ĠBl": 2043,
      "Ġabs": 2044,
      "Ġsingle": 2045,
      "Ġphysical": 2046,
      "ptoms": 2047,
      "avor": 2048,
      "Ġdiscuss": 2049,
      "ĠPh": 2050,
      "ibility": 2051,
      "Ġunderstanding": 2052,
      "Ġfactors": 2053,
      "Ġclose": 2054,
      "Ġcondition": 2055,
      "raft": 2056,
      "ĠâĢĶ": 2057,
      "ensive": 2058,
      "uals": 2059,
      "Ġweek": 2060,
      ")ĊĊ": 2061,
      "Ġsource": 2062,
      "Ġwr": 2063,
      "Ġcomplex": 2064,
      "hing": 2065,
      "Ġoffer": 2066,
      "To": 2067,
      "Ġtraining": 2068,
      "Ġterm": 2069,
      "ufact": 2070,
      "ploy": 2071,
      "Ġbal": 2072,
      "Ġcru": 2073,
      "Ġwood": 2074,
      "ising": 2075,
      "!Ċ": 2076,
      "Ġegg": 2077,
      "Ġexce": 2078,
      "Ġtoday": 2079,
      "Ġauthor": 2080,
      "Ġanimal": 2081,
      "Ġhold": 2082,
      "Ġonce": 2083,
      "Ġpercent": 2084,
      "orts": 2085,
      "Ġenjoy": 2086,
      "roll": 2087,
      "Ġclimate": 2088,
      "Ġallows": 2089,
      "Ġskills": 2090,
      "Ġthin": 2091,
      "Ġview": 2092,
      "Ġgetting": 2093,
      "Ġer": 2094,
      "Ġpet": 2095,
      "Ġmass": 2096,
      "Ġwild": 2097,
      "Ġproduce": 2098,
      "Ġveh": 2099,
      "Ġeither": 2100,
      "Ġstress": 2101,
      "Ġsubst": 2102,
      "ina": 2103,
      "ortun": 2104,
      "Ġrepres": 2105,
      "Wh": 2106,
      "Ġgame": 2107,
      "Ġexpect": 2108,
      "Ġability": 2109,
      "Ġsmo": 2110,
      "Ġprovides": 2111,
      "ĠOr": 2112,
      "For": 2113,
      "Ġamong": 2114,
      "angu": 2115,
      "alf": 2116,
      "Ġstop": 2117,
      "ER": 2118,
      "Ġspeed": 2119,
      "ĠInst": 2120,
      "com": 2121,
      "Ġfall": 2122,
      "Ġlif": 2123,
      "ĠUS": 2124,
      "ope": 2125,
      "lished": 2126,
      "ming": 2127,
      "ery": 2128,
      "Ġblack": 2129,
      "Ġdeg": 2130,
      "ready": 2131,
      "ores": 2132,
      "ruction": 2133,
      "lement": 2134,
      "Ġquestion": 2135,
      "ystem": 2136,
      "Ġcarbon": 2137,
      "lection": 2138,
      "Ġvers": 2139,
      "Ġvariety": 2140,
      "Ġenh": 2141,
      "Ġcomputer": 2142,
      "Ġveget": 2143,
      "Ġnet": 2144,
      "Ġfu": 2145,
      "Ġscience": 2146,
      "Ġparent": 2147,
      "Ġwhether": 2148,
      "Ġmatter": 2149,
      "resh": 2150,
      "Ġpurp": 2151,
      "Ġexperien": 2152,
      "Ġfurther": 2153,
      "Ġbrain": 2154,
      "ĠOn": 2155,
      "idd": 2156,
      "Ġcoll": 2157,
      "Ġhours": 2158,
      "leep": 2159,
      "Ġdraw": 2160,
      "ification": 2161,
      "raph": 2162,
      "ĠEng": 2163,
      "Ġnecessary": 2164,
      "Ġtri": 2165,
      "istic": 2166,
      "aching": 2167,
      "Ġsafety": 2168,
      "Ġdifference": 2169,
      "Ġinteract": 2170,
      "Ġperformance": 2171,
      "Ġbacter": 2172,
      "ney": 2173,
      "Ġlove": 2174,
      "Ġtell": 2175,
      "ĠOne": 2176,
      "ĠIm": 2177,
      "ĠAI": 2178,
      "Ġfru": 2179,
      "ales": 2180,
      "Ġill": 2181,
      "itch": 2182,
      ",Ċ": 2183,
      "Ġbuy": 2184,
      "Ġglob": 2185,
      "duct": 2186,
      "Ġconnect": 2187,
      "Ġneeded": 2188,
      "Ġbelow": 2189,
      "Ġpersonal": 2190,
      "iques": 2191,
      "overed": 2192,
      "21": 2193,
      "Ġalready": 2194,
      "Ġconcer": 2195,
      "**": 2196,
      "ibr": 2197,
      "for": 2198,
      "ength": 2199,
      "Ġcommunity": 2200,
      "Ch": 2201,
      "Ġcrit": 2202,
      "ik": 2203,
      "lying": 2204,
      "Ġhistory": 2205,
      "Ġindividual": 2206,
      "Ġdoing": 2207,
      "Ġindustry": 2208,
      "Ġsn": 2209,
      "ograp": 2210,
      "Ġevent": 2211,
      "rown": 2212,
      "ĠNo": 2213,
      "Ġmechan": 2214,
      "Ġmix": 2215,
      "ae": 2216,
      "Ġresearchers": 2217,
      "Ġhot": 2218,
      "man": 2219,
      "ditional": 2220,
      "Ġfeatures": 2221,
      "aken": 2222,
      "Ġtree": 2223,
      "Ġindic": 2224,
      "Ġfat": 2225,
      "Ġhappen": 2226,
      "Ġmo": 2227,
      "Ġsustain": 2228,
      "Ġbreak": 2229,
      "Ġdescrib": 2230,
      "sc": 2231,
      "rel": 2232,
      "ird": 2233,
      "edi": 2234,
      "ask": 2235,
      "Ġmanufact": 2236,
      "Ġsymptoms": 2237,
      "Ġhyd": 2238,
      "Ġever": 2239,
      "Ġinside": 2240,
      "osing": 2241,
      "utions": 2242,
      "ows": 2243,
      "Ġexist": 2244,
      "Ġtools": 2245,
      "Ġinit": 2246,
      "just": 2247,
      "Ġknowledge": 2248,
      "Ġcontent": 2249,
      "Ġstructure": 2250,
      "eral": 2251,
      "60": 2252,
      "ĠEar": 2253,
      "Ġask": 2254,
      "mit": 2255,
      "Ġselect": 2256,
      "vert": 2257,
      "Ġleaves": 2258,
      "Ġimage": 2259,
      "Ġchalleng": 2260,
      "Ġactivities": 2261,
      "Ġrecord": 2262,
      "ĠAll": 2263,
      "Ġonline": 2264,
      "ilt": 2265,
      "Ġbuilding": 2266,
      "24": 2267,
      "Ġarticle": 2268,
      "aps": 2269,
      "Ġlonger": 2270,
      "use": 2271,
      "Ġslow": 2272,
      "Ġresist": 2273,
      "Ġrequired": 2274,
      "ront": 2275,
      "Ġpan": 2276,
      "by": 2277,
      "ument": 2278,
      "app": 2279,
      "Ġox": 2280,
      "Ġseen": 2281,
      "nam": 2282,
      "Ġsuper": 2283,
      "ply": 2284,
      "aling": 2285,
      ".,": 2286,
      "Ġstrateg": 2287,
      "gar": 2288,
      "aving": 2289,
      "gs": 2290,
      "Ġquestions": 2291,
      "Ġmention": 2292,
      "Ġminim": 2293,
      "Ġfarm": 2294,
      "Ġenvironmental": 2295,
      "Ġcontact": 2296,
      "Ġpath": 2297,
      "Ġself": 2298,
      "Ġcompany": 2299,
      "fully": 2300,
      "Ġmethods": 2301,
      "Ġprec": 2302,
      "Ġbar": 2303,
      "sel": 2304,
      "Ġrate": 2305,
      "Ġhumans": 2306,
      "Ġcorrect": 2307,
      "Ġperfect": 2308,
      "Ġtaking": 2309,
      "Ġdeep": 2310,
      "upp": 2311,
      "Ġopportun": 2312,
      "ura": 2313,
      "Ġpay": 2314,
      "Ġuser": 2315,
      "Ġidea": 2316,
      "Ġmonths": 2317,
      "reng": 2318,
      "Ġexerc": 2319,
      "Ġinstall": 2320,
      "Ġtot": 2321,
      "Ġliving": 2322,
      "Ġprint": 2323,
      "Ġaddress": 2324,
      "Ġtypically": 2325,
      "way": 2326,
      "Ġcancer": 2327,
      "erence": 2328,
      "Ġnature": 2329,
      "illed": 2330,
      "Ġsomeone": 2331,
      "ites": 2332,
      "Ġencou": 2333,
      "ĠQu": 2334,
      "Ġseason": 2335,
      "ctions": 2336,
      "ding": 2337,
      "Ġeasily": 2338,
      "Ġyoung": 2339,
      "rate": 2340,
      "Ġremov": 2341,
      "inary": 2342,
      "ĠAmerican": 2343,
      "Ġwhole": 2344,
      "Al": 2345,
      "Ġneg": 2346,
      "ule": 2347,
      "Ġfit": 2348,
      "room": 2349,
      "Ġjour": 2350,
      "Ġappear": 2351,
      "Ġisn": 2352,
      "22": 2353,
      "Ġactivity": 2354,
      "ervation": 2355,
      "ysis": 2356,
      "ĠWor": 2357,
      "selves": 2358,
      "Ġtar": 2359,
      "iency": 2360,
      "Ġtrees": 2361,
      "ties": 2362,
      "Ġprep": 2363,
      "Ġindividuals": 2364,
      "Ġtravel": 2365,
      "amp": 2366,
      "Ġsqu": 2367,
      "ĠCent": 2368,
      "erve": 2369,
      "Ġelectr": 2370,
      "âĢĵ": 2371,
      "Ġintrodu": 2372,
      "Ġmat": 2373,
      "Ġapproach": 2374,
      "____": 2375,
      "Ġprop": 2376,
      "Ġminutes": 2377,
      "Ġsitu": 2378,
      "Ġut": 2379,
      "Ġgeneral": 2380,
      "urs": 2381,
      "Ġgrowing": 2382,
      "Ġbehavior": 2383,
      "Ġ.": 2384,
      "Ġhor": 2385,
      "Ġpositive": 2386,
      "nces": 2387,
      "Ġmoney": 2388,
      "Ġanswer": 2389,
      "Ġmillion": 2390,
      "aches": 2391,
      "ises": 2392,
      "Ġtechniques": 2393,
      "Ġextra": 2394,
      "Ġcrucial": 2395,
      "Ġmole": 2396,
      "Ġharm": 2397,
      "idered": 2398,
      "uck": 2399,
      "Ġla": 2400,
      "amin": 2401,
      "Ġroom": 2402,
      "Ġlaw": 2403,
      "het": 2404,
      "Ġcreating": 2405,
      "Ġvac": 2406,
      "Ġvideo": 2407,
      "Ġbring": 2408,
      "Ġmedical": 2409,
      "reme": 2410,
      "Ġentire": 2411,
      "Ġing": 2412,
      "Ġrelations": 2413,
      "ured": 2414,
      ".\"Ċ": 2415,
      "Ġcold": 2416,
      ").Ċ": 2417,
      "Ġwall": 2418,
      "Ġjob": 2419,
      "Ġmeet": 2420,
      "So": 2421,
      "ĠDr": 2422,
      "Ġport": 2423,
      "Ġcases": 2424,
      "ese": 2425,
      ".\"ĊĊ": 2426,
      "Ġprimary": 2427,
      "ze": 2428,
      "Ġoverall": 2429,
      "Ġpoll": 2430,
      "Ġcollect": 2431,
      "Ġemb": 2432,
      "Ġetc": 2433,
      "anguage": 2434,
      "Ġresources": 2435,
      "ume": 2436,
      "verse": 2437,
      "Ġstay": 2438,
      "ĠNe": 2439,
      "Ġmagn": 2440,
      "Ġuses": 2441,
      "onst": 2442,
      "Ġsolution": 2443,
      "ges": 2444,
      "Ġbeaut": 2445,
      "rams": 2446,
      "Ġcomfort": 2447,
      "ĠWhile": 2448,
      "iment": 2449,
      "Ġaud": 2450,
      "Ġmanagement": 2451,
      "Ġmen": 2452,
      "Ġrecogn": 2453,
      "Ġconsidered": 2454,
      "Ġposition": 2455,
      "Ġcover": 2456,
      "Ġrather": 2457,
      "Ġyourself": 2458,
      "ĠShe": 2459,
      "aced": 2460,
      "Ġquickly": 2461,
      "aily": 2462,
      "era": 2463,
      "Ġpatients": 2464,
      "Ġgot": 2465,
      "80": 2466,
      "Ġassociated": 2467,
      "cks": 2468,
      "osis": 2469,
      "Ġthroughout": 2470,
      "Ġsleep": 2471,
      "ging": 2472,
      "Ġchoose": 2473,
      "Ġbirds": 2474,
      "Ġwar": 2475,
      "Th": 2476,
      "Ġcook": 2477,
      "Ġstreng": 2478,
      "iation": 2479,
      "Ġinflu": 2480,
      "ulations": 2481,
      "eter": 2482,
      "Ġinteg": 2483,
      "Ġprofessional": 2484,
      "uff": 2485,
      "-based": 2486,
      "Ġwomen": 2487,
      "Ġlater": 2488,
      "Ġcapt": 2489,
      "ounds": 2490,
      "icles": 2491,
      "Ġaverage": 2492,
      "Ġexc": 2493,
      "Ġsam": 2494,
      "lex": 2495,
      "Ġhowever": 2496,
      "erous": 2497,
      "ipment": 2498,
      "ival": 2499,
      "Ġpack": 2500,
      "Ġoptions": 2501,
      "Ġthought": 2502,
      "IN": 2503,
      "eding": 2504,
      "Ġeyes": 2505,
      "lor": 2506,
      "ĠCar": 2507,
      "Ġservice": 2508,
      "aged": 2509,
      "Ġtakes": 2510,
      "Ġidentify": 2511,
      "Ġsense": 2512,
      "Ġbad": 2513,
      "Ġfund": 2514,
      "Ġfoot": 2515,
      "Ġgover": 2516,
      "ils": 2517,
      "Ġcreated": 2518,
      "Ġeconom": 2519,
      "Ġpractice": 2520,
      "Ġissue": 2521,
      "Ġsepar": 2522,
      "sect": 2523,
      "ellow": 2524,
      "Ġoutside": 2525,
      "Ġprotein": 2526,
      "ĠDo": 2527,
      "oll": 2528,
      "Ġheav": 2529,
      "pro": 2530,
      "lease": 2531,
      "Ġemploy": 2532,
      "Ġadult": 2533,
      "ĠComp": 2534,
      "Ġprobably": 2535,
      "Ġfeet": 2536,
      "Ġrelationship": 2537,
      "ĠCO": 2538,
      "aff": 2539,
      "ene": 2540,
      "Ġappl": 2541,
      "Ġdeveloped": 2542,
      "earch": 2543,
      "Ġbur": 2544,
      "Ġpopulation": 2545,
      "Ġmodern": 2546,
      "Ġfoods": 2547,
      "Ġfast": 2548,
      "Ġcauses": 2549,
      "Ġcompan": 2550,
      "Ġsimply": 2551,
      "Ġtend": 2552,
      "Ġnormal": 2553,
      "Ġmachine": 2554,
      "Ġwebs": 2555,
      "Ġconsist": 2556,
      "Ġmultiple": 2557,
      "Ġhalf": 2558,
      "Ġnight": 2559,
      "Ġrepresent": 2560,
      "Ġwaste": 2561,
      "Ġtarget": 2562,
      "Ġacid": 2563,
      "-w": 2564,
      "rict": 2565,
      "Ġrob": 2566,
      "Ġstra": 2567,
      "Ġbab": 2568,
      "Ġincreased": 2569,
      "play": 2570,
      "ĠLe": 2571,
      "Ġsubject": 2572,
      "Ġoptim": 2573,
      "Ġcop": 2574,
      "Ġsomet": 2575,
      "Ġconcept": 2576,
      "Ġservices": 2577,
      "Ġcannot": 2578,
      "nov": 2579,
      "ĠComm": 2580,
      "Ġcompet": 2581,
      "Ġincludes": 2582,
      "Ġur": 2583,
      "Ġscientists": 2584,
      "ĠX": 2585,
      "Ġinstead": 2586,
      "elling": 2587,
      "Ġpict": 2588,
      "ES": 2589,
      "Ġann": 2590,
      "Ġalmost": 2591,
      "Ġdevice": 2592,
      "Ġtraditional": 2593,
      "Ġrelated": 2594,
      "uit": 2595,
      "augh": 2596,
      "Ġweather": 2597,
      "rated": 2598,
      "Ġfuel": 2599,
      "xim": 2600,
      "Ġwinter": 2601,
      "Ġteac": 2602,
      "urope": 2603,
      "Ġattention": 2604,
      "val": 2605,
      "Ġeducation": 2606,
      "Ġglobal": 2607,
      "Ġquant": 2608,
      "Ġsil": 2609,
      "Ġremove": 2610,
      "ĠUnited": 2611,
      "cre": 2612,
      "Ġapplications": 2613,
      "mb": 2614,
      "Ġgovern": 2615,
      "Ġshape": 2616,
      "Ġbattery": 2617,
      "Ġhabit": 2618,
      "Ġremain": 2619,
      "Ġparticip": 2620,
      "Ġfive": 2621,
      "abor": 2622,
      "Ġfram": 2623,
      "Ġlarger": 2624,
      "cies": 2625,
      "Ġstudies": 2626,
      "Ġextreme": 2627,
      "Ġsat": 2628,
      "ĠNational": 2629,
      "ĠHere": 2630,
      "asc": 2631,
      "rig": 2632,
      "Ġautom": 2633,
      "Ġelements": 2634,
      "Ġspread": 2635,
      "Ġincreasing": 2636,
      "Ġcountry": 2637,
      "ners": 2638,
      ".S": 2639,
      "Ġefficient": 2640,
      "Ġsometimes": 2641,
      "ĠUs": 2642,
      "-in": 2643,
      "Ġaltern": 2644,
      "Ġfresh": 2645,
      "Ġbase": 2646,
      "asons": 2647,
      "Ġlength": 2648,
      "itor": 2649,
      "Ġwon": 2650,
      "AT": 2651,
      "Ġoffers": 2652,
      "Ġhun": 2653,
      "Ġwa": 2654,
      "Ad": 2655,
      "ift": 2656,
      "Ġadvant": 2657,
      "ED": 2658,
      "Ġface": 2659,
      "AR": 2660,
      "Ġfail": 2661,
      "Ġbasic": 2662,
      "23": 2663,
      "ison": 2664,
      "Ġproviding": 2665,
      "acks": 2666,
      "Ġeverything": 2667,
      "Ġcra": 2668,
      "Ġcompared": 2669,
      "Ġanything": 2670,
      "âĢĿ": 2671,
      "Ġdetermine": 2672,
      "umb": 2673,
      "ians": 2674,
      "Ġchoice": 2675,
      "Ġaccount": 2676,
      "Ġnutri": 2677,
      "urity": 2678,
      "Ġstory": 2679,
      "ĠMed": 2680,
      "gest": 2681,
      "Ġcaused": 2682,
      "OT": 2683,
      "ĠCal": 2684,
      "Ġequipment": 2685,
      "cean": 2686,
      "Ġbacteria": 2687,
      "Ġdevices": 2688,
      "ograph": 2689,
      "ĠCont": 2690,
      "Ġshows": 2691,
      "ned": 2692,
      "Ġge": 2693,
      "oh": 2694,
      "Ġyet": 2695,
      "Ġseem": 2696,
      "Ġexplain": 2697,
      "igure": 2698,
      "Ġmedic": 2699,
      "ĠEarth": 2700,
      "ground": 2701,
      "Ġpri": 2702,
      "Ġadjust": 2703,
      "Ġquite": 2704,
      "Ġtotal": 2705,
      "Ġestab": 2706,
      "yl": 2707,
      "Ġones": 2708,
      "Ġlog": 2709,
      "Ġsurv": 2710,
      "ropri": 2711,
      "ively": 2712,
      "Ġinj": 2713,
      "Ġmetal": 2714,
      "isc": 2715,
      "onse": 2716,
      "Ġdom": 2717,
      "Ġoption": 2718,
      "sy": 2719,
      "Ġfire": 2720,
      "ged": 2721,
      "Ġsite": 2722,
      "Ġexact": 2723,
      "One": 2724,
      "Ġce": 2725,
      "Ġsuit": 2726,
      "ights": 2727,
      "ĠApp": 2728,
      "rogen": 2729,
      "Ġmentioned": 2730,
      "Ġcomponents": 2731,
      "Ġgenerally": 2732,
      "Ġtaken": 2733,
      "izes": 2734,
      "ley": 2735,
      "ĠAf": 2736,
      "Ġbott": 2737,
      "Ġstarted": 2738,
      "ĠEurope": 2739,
      "Ġang": 2740,
      "Ġfib": 2741,
      "Ġbox": 2742,
      "Ġmeat": 2743,
      "rapy": 2744,
      "ules": 2745,
      "ronic": 2746,
      "Ġpurpose": 2747,
      "Ġshare": 2748,
      "Ġdark": 2749,
      "ĠTr": 2750,
      "Ġfem": 2751,
      "where": 2752,
      "ched": 2753,
      "Ġkids": 2754,
      "mon": 2755,
      "Ġdri": 2756,
      "Ġsummer": 2757,
      "icial": 2758,
      "min": 2759,
      "Ġlanguage": 2760,
      "Ġtrue": 2761,
      "Ġadapt": 2762,
      "Ġstandard": 2763,
      "Ġdru": 2764,
      "Ġball": 2765,
      "Ġthemselves": 2766,
      "Ġdigital": 2767,
      "AS": 2768,
      "Ġplastic": 2769,
      "Ġswe": 2770,
      "ography": 2771,
      "Why": 2772,
      "isms": 2773,
      "ditionally": 2774,
      "aim": 2775,
      "imately": 2776,
      "ests": 2777,
      "Ġfront": 2778,
      "Ġtrying": 2779,
      "Ġglass": 2780,
      "rad": 2781,
      "ĠCons": 2782,
      "itud": 2783,
      "go": 2784,
      "Ġrot": 2785,
      "ĠHealth": 2786,
      "90": 2787,
      "Ġdaily": 2788,
      "icy": 2789,
      "Ġsea": 2790,
      "Ġmilk": 2791,
      "Ġlo": 2792,
      "ension": 2793,
      "Ġago": 2794,
      "Ġrelative": 2795,
      "hern": 2796,
      "Ġitself": 2797,
      "Ġexplore": 2798,
      "hib": 2799,
      "Ġgroups": 2800,
      "Ġterms": 2801,
      "Ġdy": 2802,
      "Ġwords": 2803,
      "ĠAfter": 2804,
      "Ġtable": 2805,
      "Ġsoftware": 2806,
      "Ġgain": 2807,
      "Ġachieve": 2808,
      "Ġproperties": 2809,
      "Ġreading": 2810,
      "Ġsteps": 2811,
      "Ġemot": 2812,
      "Ġrequires": 2813,
      "Ġmom": 2814,
      "ecause": 2815,
      "Ġice": 2816,
      "ipe": 2817,
      "oses": 2818,
      "Ġprevious": 2819,
      "Ġcontinu": 2820,
      "istics": 2821,
      "Ġcolors": 2822,
      "Ġbehind": 2823,
      "oon": 2824,
      "Ġwond": 2825,
      "alking": 2826,
      "Ġcard": 2827,
      "ino": 2828,
      "Ġaspect": 2829,
      "tenance": 2830,
      "70": 2831,
      "Ġingred": 2832,
      "Ġconduct": 2833,
      "ĠDes": 2834,
      "Ġlayer": 2835,
      "ening": 2836,
      "Ġbelieve": 2837,
      "Ġcode": 2838,
      "Ġassess": 2839,
      "ccording": 2840,
      "Ġrout": 2841,
      "Ġregard": 2842,
      "Ġeating": 2843,
      "Ġsmaller": 2844,
      "Pro": 2845,
      "arily": 2846,
      "Ġmoist": 2847,
      "Ġdiseases": 2848,
      "Ġir": 2849,
      "Ġfamil": 2850,
      "ĠMan": 2851,
      "Ġtou": 2852,
      "ext": 2853,
      "Ġblue": 2854,
      "Ġdiagn": 2855,
      "Ġforce": 2856,
      "Ġinsect": 2857,
      ").ĊĊ": 2858,
      "Ġadded": 2859,
      "Ġanalysis": 2860,
      "iot": 2861,
      "ON": 2862,
      "acy": 2863,
      "Ġleading": 2864,
      "Ġdoc": 2865,
      "Ġbul": 2866,
      "Ġarr": 2867,
      "Ġcats": 2868,
      "ĠAm": 2869,
      "iring": 2870,
      "Ġeggs": 2871,
      "Ġparticularly": 2872,
      "ĠYes": 2873,
      "Ġload": 2874,
      "aries": 2875,
      "ĠPr": 2876,
      "Ġvehicle": 2877,
      "Ġprovided": 2878,
      "ricult": 2879,
      "Ġadditional": 2880,
      "Ġlink": 2881,
      "rition": 2882,
      "Ġparents": 2883,
      "oles": 2884,
      "'d": 2885,
      "ĠStates": 2886,
      "Ġassist": 2887,
      "Ġbelie": 2888,
      "Ġkit": 2889,
      "ĠAfric": 2890,
      "Ġshown": 2891,
      "Ġsolar": 2892,
      "osure": 2893,
      "illing": 2894,
      "Ġaction": 2895,
      "Ex": 2896,
      "iding": 2897,
      "ĠDNA": 2898,
      "But": 2899,
      "Ġmess": 2900,
      "pid": 2901,
      "Ġtowards": 2902,
      "Ġemerg": 2903,
      "ID": 2904,
      "Ġstudent": 2905,
      "Ġaware": 2906,
      "ences": 2907,
      "li": 2908,
      "inct": 2909,
      "nter": 2910,
      "Ġreach": 2911,
      "Ġteeth": 2912,
      "Ġweeks": 2913,
      "like": 2914,
      "Ġdefin": 2915,
      "Ġdirectly": 2916,
      "Ġhighly": 2917,
      "Ġtiss": 2918,
      "ĠPre": 2919,
      "Ġpurch": 2920,
      "Ġrecommended": 2921,
      "Ġeveryone": 2922,
      "ĠStud": 2923,
      "Ġlives": 2924,
      "ĠCo": 2925,
      "Ġhar": 2926,
      "ĠAust": 2927,
      "Ġsugar": 2928,
      "ulate": 2929,
      "ades": 2930,
      "Ġcontinue": 2931,
      "Ġdest": 2932,
      "Ġresponse": 2933,
      "Ġmaxim": 2934,
      "ĠMay": 2935,
      "rid": 2936,
      "Ġdistrib": 2937,
      "ription": 2938,
      "Ġinvolved": 2939,
      "Ġpoints": 2940,
      "Ġsources": 2941,
      "iddle": 2942,
      "Ġeasier": 2943,
      "Ġful": 2944,
      "ĠSchool": 2945,
      "Ġguide": 2946,
      "oph": 2947,
      "Ġimages": 2948,
      "Ġrecommend": 2949,
      "ĠNorth": 2950,
      "head": 2951,
      "Ġlands": 2952,
      "artment": 2953,
      "Ġvit": 2954,
      "ĠMy": 2955,
      "Ġroad": 2956,
      "vere": 2957,
      "rist": 2958,
      "Ġreview": 2959,
      "ai": 2960,
      "Ġobserv": 2961,
      "Is": 2962,
      "Ġforest": 2963,
      "Ġitems": 2964,
      "Ġcapac": 2965,
      "-st": 2966,
      "Sh": 2967,
      "Â°": 2968,
      "unch": 2969,
      "new": 2970,
      "Ġdou": 2971,
      "yp": 2972,
      "ĠNot": 2973,
      "Ġreplace": 2974,
      "ĠMe": 2975,
      "Ġappropri": 2976,
      "osition": 2977,
      "ĠGu": 2978,
      "Ġhair": 2979,
      "ĠKe": 2980,
      "ops": 2981,
      "ĠAre": 2982,
      "Ġproduced": 2983,
      "Ġmodels": 2984,
      "ĠFe": 2985,
      "anks": 2986,
      "vant": 2987,
      "Ġbed": 2988,
      "Ġtips": 2989,
      "Ġnegative": 2990,
      "ĠOf": 2991,
      "Ġgoal": 2992,
      "Ġdang": 2993,
      "Ġgenetic": 2994,
      "-g": 2995,
      "itation": 2996,
      "Ġapplication": 2997,
      "Ġpret": 2998,
      "clusion": 2999,
      "sh": 3000,
      "Ġstore": 3001,
      "nal": 3002,
      "Ġsearch": 3003,
      "Ġwear": 3004,
      "Ġevidence": 3005,
      "Ġexercise": 3006,
      "Ġmembers": 3007,
      "Ġelse": 3008,
      "-h": 3009,
      "Ġstrength": 3010,
      "Ġspeak": 3011,
      "Ġrecent": 3012,
      "Ġtemperatures": 3013,
      "Ġaim": 3014,
      "cles": 3015,
      "Ġcountries": 3016,
      "Ġdeath": 3017,
      "Ġrunning": 3018,
      "aur": 3019,
      "orpor": 3020,
      "Ġregion": 3021,
      "Ġconcent": 3022,
      "Ġbreat": 3023,
      "alu": 3024,
      "...ĊĊ": 3025,
      "Ġsand": 3026,
      "Ġearth": 3027,
      "oming": 3028,
      "aks": 3029,
      "Ġbrand": 3030,
      "reg": 3031,
      "wh": 3032,
      "ancy": 3033,
      "-to": 3034,
      "Ġimplement": 3035,
      "sequ": 3036,
      "ĠScience": 3037,
      "Ġseeds": 3038,
      "Ġwebsite": 3039,
      "ma": 3040,
      "ung": 3041,
      "issions": 3042,
      "Ġflowers": 3043,
      "Ġproperly": 3044,
      "abric": 3045,
      "ĠAss": 3046,
      "ĠMost": 3047,
      "Ġscreen": 3048,
      "Ġdidn": 3049,
      "Ġcompletely": 3050,
      "ellig": 3051,
      "ĠInt": 3052,
      "Ġnumbers": 3053,
      "Ġliqu": 3054,
      "Ġtransform": 3055,
      "Ġconstant": 3056,
      "Ġmor": 3057,
      "endly": 3058,
      "vest": 3059,
      "Can": 3060,
      "Ġserious": 3061,
      "Ġcamera": 3062,
      "Ġevents": 3063,
      "come": 3064,
      "Ġdecre": 3065,
      "Ġstat": 3066,
      "Ġspring": 3067,
      "iles": 3068,
      "Ġrain": 3069,
      "Ġ/": 3070,
      "ĠMore": 3071,
      "Ġbalance": 3072,
      "Ġmeaning": 3073,
      "Ġpiece": 3074,
      "Ġpatient": 3075,
      "water": 3076,
      "ĠGen": 3077,
      "terns": 3078,
      "Ġvisit": 3079,
      "Ġpoly": 3080,
      "Ġtransport": 3081,
      "Ġx": 3082,
      "life": 3083,
      "Ġstri": 3084,
      "Ġ+": 3085,
      "Ġuseful": 3086,
      "abet": 3087,
      "ygen": 3088,
      "icate": 3089,
      "Ġmovement": 3090,
      "Ġprocesses": 3091,
      "Ġfert": 3092,
      "Ġefficiency": 3093,
      "irm": 3094,
      "Ġchallenges": 3095,
      "ĠDep": 3096,
      "ocks": 3097,
      "rees": 3098,
      "Ġvisual": 3099,
      "itute": 3100,
      "ĠâĢľ": 3101,
      "Ġhands": 3102,
      "ociety": 3103,
      "Ġbenefit": 3104,
      "tings": 3105,
      "Ġfix": 3106,
      "rial": 3107,
      "ster": 3108,
      "Ġgoes": 3109,
      "Ġalg": 3110,
      "iful": 3111,
      "pper": 3112,
      "Ġprior": 3113,
      "Ġblock": 3114,
      "Ġsupply": 3115,
      "Ġactive": 3116,
      "Ġthreat": 3117,
      "ĠFrom": 3118,
      "Ġlines": 3119,
      "att": 3120,
      "rast": 3121,
      "Ġinnov": 3122,
      "Ġcalcul": 3123,
      "Ġseries": 3124,
      "Ġgreater": 3125,
      "Ġword": 3126,
      "Ġstyle": 3127,
      "Ġcritical": 3128,
      "Ġmedia": 3129,
      "ror": 3130,
      "ping": 3131,
      "Ġbird": 3132,
      "ĠWhy": 3133,
      "Ġtalk": 3134,
      "Ġcarry": 3135,
      "Ġchick": 3136,
      "Ġbag": 3137,
      "fl": 3138,
      "Ġguid": 3139,
      "Ġbuilt": 3140,
      "AC": 3141,
      "Ġusers": 3142,
      "Ġcosts": 3143,
      "Ġfriends": 3144,
      "Ġrespect": 3145,
      "Ġsus": 3146,
      "Ġinitial": 3147,
      "Ġallowing": 3148,
      "Ġmoving": 3149,
      "Ġprograms": 3150,
      "Ġcontains": 3151,
      "ĠâĢ¦": 3152,
      "Ġprojects": 3153,
      "Ġsix": 3154,
      "bol": 3155,
      "Ġhappens": 3156,
      "Ġmusic": 3157,
      "Ġanaly": 3158,
      "Ġdrive": 3159,
      "Ġthick": 3160,
      "Ġreflect": 3161,
      "Ġpatterns": 3162,
      "Ġprinc": 3163,
      "Ġreasons": 3164,
      "Ġprefer": 3165,
      "Ġscientific": 3166,
      "Ġcontroll": 3167,
      "Ġnews": 3168,
      "Ġcommonly": 3169,
      "Ġprice": 3170,
      "sych": 3171,
      "Ġdeal": 3172,
      "Ġfruit": 3173,
      "imin": 3174,
      "back": 3175,
      "Ġunit": 3176,
      "ached": 3177,
      "Ġabsor": 3178,
      "Ġgets": 3179,
      "Ġimmedi": 3180,
      "atives": 3181,
      "Ġrefer": 3182,
      "Ġwatch": 3183,
      "Ġcompanies": 3184,
      "ĠGo": 3185,
      "ĠUse": 3186,
      "Ġleave": 3187,
      "ĠSouth": 3188,
      "Ġdeveloping": 3189,
      "Ġoutput": 3190,
      "ightly": 3191,
      "Ġdepending": 3192,
      "onn": 3193,
      "board": 3194,
      "Ġmotor": 3195,
      "orage": 3196,
      "Ġattract": 3197,
      "Ġsurround": 3198,
      "Ġforms": 3199,
      "rec": 3200,
      "Ġvirus": 3201,
      "Ġorganic": 3202,
      "elt": 3203,
      "Ġsuff": 3204,
      "Ġmaintenance": 3205,
      "Ġlocation": 3206,
      "Ġplat": 3207,
      "Ġevolution": 3208,
      "overy": 3209,
      "Ġenhance": 3210,
      "hens": 3211,
      "ĠMany": 3212,
      "Ġcooking": 3213,
      "Cl": 3214,
      "ĠPe": 3215,
      "ensity": 3216,
      "airs": 3217,
      "oe": 3218,
      "Ġgar": 3219,
      "cape": 3220,
      "load": 3221,
      "Ġprotection": 3222,
      "Ġ,": 3223,
      "ocol": 3224,
      "Ġmental": 3225,
      "Ġcommunication": 3226,
      "Ġsigns": 3227,
      "Ġvision": 3228,
      "Ġelectrical": 3229,
      "rs": 3230,
      "cient": 3231,
      "IS": 3232,
      "Ġcross": 3233,
      "Ġinstruct": 3234,
      "iny": 3235,
      "OR": 3236,
      "ĠAmerica": 3237,
      "rum": 3238,
      "Ġimportance": 3239,
      "Ġdemonst": 3240,
      "Ġpublished": 3241,
      "enn": 3242,
      "ĠWorld": 3243,
      "Ġgrass": 3244,
      "ĠAb": 3245,
      "ĠAustral": 3246,
      "Ġbaby": 3247,
      "iable": 3248,
      "Ġgovernment": 3249,
      "Ġobjects": 3250,
      "irt": 3251,
      "-e": 3252,
      "uge": 3253,
      "Ġremember": 3254,
      "istry": 3255,
      "AN": 3256,
      "While": 3257,
      "Ġpretty": 3258,
      "Ġinput": 3259,
      "Ġsave": 3260,
      "Ġseems": 3261,
      "term": 3262,
      "Ġvacc": 3263,
      "ube": 3264,
      "fficient": 3265,
      "Ġkn": 3266,
      "uted": 3267,
      "ĠThen": 3268,
      "He": 3269,
      "Ġfine": 3270,
      "onds": 3271,
      "ĠResearch": 3272,
      "Ġsequ": 3273,
      "odies": 3274,
      "Ġ--": 3275,
      "Ġult": 3276,
      "Ġappropriate": 3277,
      "EN": 3278,
      "rops": 3279,
      "Ġpage": 3280,
      "set": 3281,
      "ucle": 3282,
      "Ġfabric": 3283,
      "Ġtheory": 3284,
      "Ġpick": 3285,
      "Ġreturn": 3286,
      "ript": 3287,
      "\",": 3288,
      "Ġmount": 3289,
      "Ġoriginal": 3290,
      "ologies": 3291,
      "Ġlens": 3292,
      "Ġshap": 3293,
      "Ġsoon": 3294,
      "epend": 3295,
      "Ġbecomes": 3296,
      "emic": 3297,
      "Ġproced": 3298,
      "Ġinfection": 3299,
      "Ġaccur": 3300,
      "Ġexcell": 3301,
      "ĠMar": 3302,
      "Ġbottom": 3303,
      "Ġclaim": 3304,
      "Ġrare": 3305,
      "yond": 3306,
      "asks": 3307,
      "Ġcame": 3308,
      "Ġpractices": 3309,
      "Ġlimited": 3310,
      "Ġready": 3311,
      "zz": 3312,
      "Ġexcess": 3313,
      "Ġideas": 3314,
      "Ġther": 3315,
      "ried": 3316,
      "Ġtail": 3317,
      "eration": 3318,
      "With": 3319,
      "Ġdistance": 3320,
      "Ġutil": 3321,
      "Ġcry": 3322,
      "mosp": 3323,
      "Ġbill": 3324,
      "Ġlate": 3325,
      "ĠChe": 3326,
      "hol": 3327,
      "Ġstates": 3328,
      "Ġcenter": 3329,
      "Ġvalues": 3330,
      "Ġcleaning": 3331,
      "35": 3332,
      "Ġseed": 3333,
      "Ġsignal": 3334,
      "Ġgives": 3335,
      "Ġdisplay": 3336,
      "Ġsustainable": 3337,
      "Ġhearing": 3338,
      "Ġideal": 3339,
      "Ġfavor": 3340,
      "Ġresistance": 3341,
      "iate": 3342,
      "Ġdetect": 3343,
      "ls": 3344,
      "Ġreducing": 3345,
      "By": 3346,
      "....": 3347,
      "These": 3348,
      "Ġvary": 3349,
      "Ġimmune": 3350,
      "Ġorigin": 3351,
      "vey": 3352,
      "Ġcity": 3353,
      "Ġtouch": 3354,
      "itude": 3355,
      "Ġdisord": 3356,
      "ĠPer": 3357,
      "Ġaren": 3358,
      "Ġroot": 3359,
      "Ġtesting": 3360,
      "wor": 3361,
      "ky": 3362,
      "Ġupon": 3363,
      "Ġoxygen": 3364,
      "Ġinvolves": 3365,
      "Ġarg": 3366,
      "rage": 3367,
      "Ġinfect": 3368,
      "Ġdirection": 3369,
      "Ġsolutions": 3370,
      "Ġworth": 3371,
      "cking": 3372,
      "ony": 3373,
      "wise": 3374,
      "Ġevalu": 3375,
      "umin": 3376,
      "ĠReg": 3377,
      "Ġensuring": 3378,
      "Ġpow": 3379,
      "--------": 3380,
      "aly": 3381,
      "ields": 3382,
      "oud": 3383,
      "Ġwriting": 3384,
      "Ġingredients": 3385,
      "Ġarch": 3386,
      "Ġresponsible": 3387,
      "Ġfro": 3388,
      "Ġmanufacture": 3389,
      "Ġgold": 3390,
      "At": 3391,
      "more": 3392,
      "Ġpredict": 3393,
      "Ġpull": 3394,
      "Ġnetwork": 3395,
      "ula": 3396,
      "Ġsuitable": 3397,
      "ros": 3398,
      "hood": 3399,
      "Ġthinking": 3400,
      "Ġrich": 3401,
      "mber": 3402,
      "Ġver": 3403,
      "mat": 3404,
      "Ġvalu": 3405,
      "Ġhost": 3406,
      "Ġhope": 3407,
      "ĠOur": 3408,
      "Ġoutd": 3409,
      "Ġjo": 3410,
      "mission": 3411,
      "Ġplatform": 3412,
      "Ġrequirements": 3413,
      "ĠSm": 3414,
      "lege": 3415,
      "Ġrev": 3416,
      "ball": 3417,
      "abetes": 3418,
      "Ġboard": 3419,
      "ĠWho": 3420,
      "Ġthr": 3421,
      "Ġmemory": 3422,
      "Ġnutrients": 3423,
      "Ġspot": 3424,
      "Ġrock": 3425,
      "Ġbeautiful": 3426,
      "Ġstarting": 3427,
      "Ġaccept": 3428,
      "Ġpriv": 3429,
      "Ġyellow": 3430,
      "Ġpen": 3431,
      "ixt": 3432,
      "Ġrat": 3433,
      "They": 3434,
      "ero": 3435,
      "Ġlack": 3436,
      "isions": 3437,
      "Ġimpl": 3438,
      "Ġprogress": 3439,
      "Ġroll": 3440,
      "ana": 3441,
      "Ġgames": 3442,
      "Ġadding": 3443,
      "ĠAlso": 3444,
      "Ġsignificantly": 3445,
      "Ġpowerful": 3446,
      "Ġelement": 3447,
      "Ġsevere": 3448,
      "âĢ¢": 3449,
      "ĠLet": 3450,
      "ĠNow": 3451,
      "Ġinfl": 3452,
      "01": 3453,
      "Ġvolt": 3454,
      "Ġsection": 3455,
      "Ġnothing": 3456,
      "Ġvegetables": 3457,
      "standing": 3458,
      "ran": 3459,
      "Con": 3460,
      "Ġconstruction": 3461,
      "Ġcycle": 3462,
      "Ġsmooth": 3463,
      "acing": 3464,
      "Ġfile": 3465,
      "Ġdisp": 3466,
      "dd": 3467,
      "Ġfinal": 3468,
      "Ġpieces": 3469,
      "Ġmiss": 3470,
      "ĠIntern": 3471,
      "Ġpoor": 3472,
      "Ġnutrition": 3473,
      "Ġtechnique": 3474,
      "Ġsent": 3475,
      "ulated": 3476,
      "Ġantib": 3477,
      "Ġexpress": 3478,
      "inking": 3479,
      "Ġheavy": 3480,
      "Ġcommit": 3481,
      "ifically": 3482,
      "ibly": 3483,
      "Ġsalt": 3484,
      "Ġlimit": 3485,
      "craft": 3486,
      "Ġtook": 3487,
      "hold": 3488,
      "Ġtrack": 3489,
      "Ġled": 3490,
      "Ġiron": 3491,
      "ĠTheir": 3492,
      "Ġrecy": 3493,
      "Ġcommer": 3494,
      "ashion": 3495,
      "inks": 3496,
      "rought": 3497,
      "Ġcausing": 3498,
      "rehens": 3499,
      "ĠRem": 3500,
      "ĠGe": 3501,
      "45": 3502,
      "ĠOnce": 3503,
      "Ġdiam": 3504,
      "Ġstorage": 3505,
      "ously": 3506,
      "And": 3507,
      "Ġsetting": 3508,
      "On": 3509,
      "Ġliquid": 3510,
      "Ġhorse": 3511,
      "ffect": 3512,
      "ĠAir": 3513,
      "Ġplaces": 3514,
      "empt": 3515,
      "Ġweb": 3516,
      "pite": 3517,
      "oun": 3518,
      "char": 3519,
      "iet": 3520,
      "Ġocean": 3521,
      "ĠGl": 3522,
      "Ġfully": 3523,
      "Ġwire": 3524,
      "Im": 3525,
      "Step": 3526,
      "Ġatmosp": 3527,
      "rew": 3528,
      "Ġapply": 3529,
      "Ġowners": 3530,
      "Ġfactor": 3531,
      "arian": 3532,
      "hel": 3533,
      "Ġinvestig": 3534,
      "Ġstage": 3535,
      "Ġfaster": 3536,
      "Ġwrong": 3537,
      "Ġcurrently": 3538,
      "lands": 3539,
      "Ġcentury": 3540,
      "Ġcars": 3541,
      "Ġdead": 3542,
      "osystem": 3543,
      "IC": 3544,
      "Ġinsp": 3545,
      "hetic": 3546,
      "Ġrapid": 3547,
      "Ġimag": 3548,
      "hether": 3549,
      "Ġbehavi": 3550,
      "Ġtransfer": 3551,
      "Ġbud": 3552,
      "Ġgraph": 3553,
      "ĠNOT": 3554,
      "Ġtox": 3555,
      "ened": 3556,
      "Ġwalk": 3557,
      "ĠLear": 3558,
      "arr": 3559,
      "ester": 3560,
      "Ġtaste": 3561,
      "ault": 3562,
      "Ġbreed": 3563,
      "Ġsituation": 3564,
      "ificial": 3565,
      "28": 3566,
      "Ġagricult": 3567,
      "Ġobtain": 3568,
      "Ġmoment": 3569,
      "Ġanyone": 3570,
      "Ġjoint": 3571,
      "Ġswim": 3572,
      "Ġsuccessful": 3573,
      "Ġexactly": 3574,
      "Ġbroad": 3575,
      "Do": 3576,
      "ĠWater": 3577,
      "Ġlat": 3578,
      "IT": 3579,
      ".com": 3580,
      "amb": 3581,
      "Ġexpert": 3582,
      "Ġpromot": 3583,
      "Ġswitch": 3584,
      "amed": 3585,
      "ha": 3586,
      "Ġexcellent": 3587,
      "ĠAdditionally": 3588,
      "\".": 3589,
      "Ġreaction": 3590,
      "Ġstraight": 3591,
      "Ġlocated": 3592,
      "Ġconvers": 3593,
      "enge": 3594,
      "Ġcharge": 3595,
      "Ġeffectively": 3596,
      "Ġintellig": 3597,
      "Ġpattern": 3598,
      "ĠArt": 3599,
      "Ġcircuit": 3600,
      "Ġbutter": 3601,
      "Ġshar": 3602,
      "Ġincorpor": 3603,
      "ancing": 3604,
      "Ġcloth": 3605,
      "ken": 3606,
      "Re": 3607,
      "Ġdemand": 3608,
      "Ġmouth": 3609,
      "Ġsecurity": 3610,
      "ĠAc": 3611,
      "Ġcommercial": 3612,
      "duc": 3613,
      "Ġinteresting": 3614,
      "Ġmuscle": 3615,
      "26": 3616,
      "ister": 3617,
      "Ġapplied": 3618,
      "estic": 3619,
      "care": 3620,
      "Ġopportunity": 3621,
      "Ġpump": 3622,
      "Ġdepend": 3623,
      "ĠTechn": 3624,
      "Ġoccurs": 3625,
      "pping": 3626,
      "Ġexposure": 3627,
      "Ġcoming": 3628,
      "Ġjourney": 3629,
      "ĠOver": 3630,
      "Ġmoisture": 3631,
      "Ġexperiment": 3632,
      "Ġpaint": 3633,
      "Ġculture": 3634,
      "Ġsex": 3635,
      "ogen": 3636,
      "Ġwet": 3637,
      "Ġresid": 3638,
      "Ġestim": 3639,
      "Ġreve": 3640,
      "cular": 3641,
      "Now": 3642,
      "oration": 3643,
      "cling": 3644,
      "-term": 3645,
      "Ġdoctor": 3646,
      "Ġcapacity": 3647,
      "Ġdocument": 3648,
      "Ġsolid": 3649,
      "ender": 3650,
      "Ġliter": 3651,
      "Ġroof": 3652,
      "Ġchance": 3653,
      "ĠTra": 3654,
      "Ġtherapy": 3655,
      "odes": 3656,
      "apter": 3657,
      "Ġreceive": 3658,
      "Ġlooks": 3659,
      "bor": 3660,
      "Ġcollabor": 3661,
      "ĠWest": 3662,
      "efore": 3663,
      "Ġadvanced": 3664,
      "Ġproperty": 3665,
      "27": 3666,
      "Ġschools": 3667,
      "AL": 3668,
      "Ġscale": 3669,
      "Pl": 3670,
      "Ġsymbol": 3671,
      "Ġstrategies": 3672,
      "roduction": 3673,
      "Ġexperiences": 3674,
      "urt": 3675,
      "Ġgene": 3676,
      "Ġcontribute": 3677,
      "Ġelectricity": 3678,
      "Ġexpensive": 3679,
      "erson": 3680,
      "ĠBecause": 3681,
      "Ġfunctions": 3682,
      "Ġkeeping": 3683,
      "Ġep": 3684,
      "Ġwat": 3685,
      "Ġinches": 3686,
      "itis": 3687,
      "Ġvia": 3688,
      "Ġfertil": 3689,
      "Ġthird": 3690,
      "Ġinterf": 3691,
      "ĠSw": 3692,
      "Ġphotos": 3693,
      "Ġdetails": 3694,
      "ĠFl": 3695,
      "cohol": 3696,
      "ĠEm": 3697,
      "Ġ|": 3698,
      "Ġcamp": 3699,
      "Ġflex": 3700,
      "ĠAg": 3701,
      "Ġpregn": 3702,
      "ĠJust": 3703,
      "avig": 3704,
      "ĠRed": 3705,
      "anging": 3706,
      "Ġnote": 3707,
      "ĠOther": 3708,
      "Ġdecision": 3709,
      "Ġbirth": 3710,
      "Ġsteel": 3711,
      "Ġnotice": 3712,
      "Ġtank": 3713,
      "Ġcombination": 3714,
      "Ġgiving": 3715,
      "iar": 3716,
      "ada": 3717,
      "32": 3718,
      "iforn": 3719,
      "Ġbrown": 3720,
      "Ġbecame": 3721,
      "imens": 3722,
      "Ġconsumption": 3723,
      "Ġdrain": 3724,
      "Ġnative": 3725,
      "Ġeffort": 3726,
      "ĠDis": 3727,
      "Ġfrequency": 3728,
      "Ġgradu": 3729,
      "Ġextremely": 3730,
      "Ġtask": 3731,
      "ĠEach": 3732,
      "Ġrecently": 3733,
      "Ġbeyond": 3734,
      "Ġbooks": 3735,
      "Ġclin": 3736,
      "ided": 3737,
      "Ġthous": 3738,
      "hest": 3739,
      "Ġpref": 3740,
      "Ġforward": 3741,
      "Ġ...": 3742,
      "Ġincluded": 3743,
      "Ġpsych": 3744,
      "book": 3745,
      "ails": 3746,
      "xi": 3747,
      "Ġolder": 3748,
      "ĠMake": 3749,
      "Ġparticles": 3750,
      "ĠBrit": 3751,
      "Ġcutting": 3752,
      "Ġconnected": 3753,
      "Ġcoast": 3754,
      "zy": 3755,
      "Ġexamples": 3756,
      "omb": 3757,
      "Ġund": 3758,
      "Ġsmart": 3759,
      "iling": 3760,
      "Ġdegrees": 3761,
      "Ġcontext": 3762,
      "Ġreduced": 3763,
      "ancial": 3764,
      "ober": 3765,
      "Ġonto": 3766,
      "Ġtherefore": 3767,
      "zing": 3768,
      "Ġhuge": 3769,
      "apan": 3770,
      "place": 3771,
      "Ġwin": 3772,
      "Ġflavor": 3773,
      "Ġtissue": 3774,
      "09": 3775,
      "Ġhandle": 3776,
      "ching": 3777,
      "erences": 3778,
      "ĠĠĠĠ": 3779,
      "right": 3780,
      "izations": 3781,
      "Ġprocessing": 3782,
      "ĠCenter": 3783,
      "ĠEnglish": 3784,
      "othes": 3785,
      "alt": 3786,
      "Ġalternative": 3787,
      "ĠÂ": 3788,
      "ipes": 3789,
      "uries": 3790,
      "ĠAct": 3791,
      "Some": 3792,
      "Ġaqu": 3793,
      "fish": 3794,
      "08": 3795,
      "ĠMin": 3796,
      "Ġstream": 3797,
      "Ġtests": 3798,
      "Ġnoise": 3799,
      "Ġtherm": 3800,
      "Ġsaw": 3801,
      ".g": 3802,
      "ĠSim": 3803,
      "ica": 3804,
      "olar": 3805,
      "Ġaffected": 3806,
      "Ġemissions": 3807,
      "Ġbow": 3808,
      "Un": 3809,
      "Ġ#": 3810,
      "Ġheight": 3811,
      "Ġpicture": 3812,
      "Ġdiscovered": 3813,
      "ifornia": 3814,
      "ĠRec": 3815,
      "Ġmother": 3816,
      "Ġnucle": 3817,
      "RE": 3818,
      "Ġlargest": 3819,
      "Ġmob": 3820,
      "rick": 3821,
      "Ġcommunities": 3822,
      "Ġecosystem": 3823,
      "Ġpresence": 3824,
      "Ġwrite": 3825,
      "bits": 3826,
      "Ġupd": 3827,
      "gery": 3828,
      "Ġmiddle": 3829,
      "Ġconservation": 3830,
      "oman": 3831,
      "pan": 3832,
      "oors": 3833,
      "Ġsnow": 3834,
      "Ġarm": 3835,
      "Ġslightly": 3836,
      "Ġplanet": 3837,
      "Ġfair": 3838,
      "Ġclim": 3839,
      "lier": 3840,
      "redit": 3841,
      "Ġrelease": 3842,
      "Ġphone": 3843,
      "pped": 3844,
      "Ġvoltage": 3845,
      "Ġtasks": 3846,
      "Ġgenes": 3847,
      "off": 3848,
      "Ġexpected": 3849,
      "Ġlost": 3850,
      "ĠGerm": 3851,
      "Ġcomfortable": 3852,
      "lebr": 3853,
      "met": 3854,
      "Ġtrend": 3855,
      "inding": 3856,
      "ipl": 3857,
      "Ġagg": 3858,
      "ĠEven": 3859,
      "abilities": 3860,
      "Ġflat": 3861,
      "ĠIts": 3862,
      "ĠChrist": 3863,
      "orith": 3864,
      "enty": 3865,
      "ĠState": 3866,
      "crete": 3867,
      "Ġstructures": 3868,
      "ĠSystem": 3869,
      "Ġdriving": 3870,
      "Ġopportunities": 3871,
      "Ġhit": 3872,
      "Ġgoals": 3873,
      "eing": 3874,
      "Ġchanging": 3875,
      "Ġvaluable": 3876,
      "Ġadults": 3877,
      "cules": 3878,
      "Ġfemale": 3879,
      "ams": 3880,
      "Ġincreases": 3881,
      "Ġthus": 3882,
      "Ġsounds": 3883,
      "Ġmonit": 3884,
      "Ġflight": 3885,
      "Res": 3886,
      "icon": 3887,
      "Ġsynt": 3888,
      "Ġmaximum": 3889,
      "aught": 3890,
      "Ġalthough": 3891,
      "haps": 3892,
      "ĠAccording": 3893,
      "Ġdepth": 3894,
      "OS": 3895,
      "Ġcomprehens": 3896,
      "Ġremains": 3897,
      "Ġround": 3898,
      "Ġdepends": 3899,
      "asts": 3900,
      "Ġplaced": 3901,
      "Ġteaching": 3902,
      "05": 3903,
      "Ġsites": 3904,
      "uration": 3905,
      "rench": 3906,
      "ĠJoh": 3907,
      "ogs": 3908,
      "Ġadvantage": 3909,
      "Ġteachers": 3910,
      "ĠGra": 3911,
      "Ġrelatively": 3912,
      "asting": 3913,
      "Ġversion": 3914,
      "-y": 3915,
      "urally": 3916,
      "Ġattempt": 3917,
      "Ġtooth": 3918,
      "gram": 3919,
      "Ġtechnologies": 3920,
      "Ġprofession": 3921,
      "Ġfilm": 3922,
      "can": 3923,
      "Ġsess": 3924,
      "Ġexpand": 3925,
      "Ġsweet": 3926,
      "Ġmedium": 3927,
      "Ġinsects": 3928,
      "Ġmid": 3929,
      "hyd": 3930,
      "ban": 3931,
      "Ġmanage": 3932,
      "Ġbran": 3933,
      "tes": 3934,
      "Ġast": 3935,
      "ĠHigh": 3936,
      "Ġ:": 3937,
      "Ġstar": 3938,
      "Ġproteins": 3939,
      "house": 3940,
      "Ġtrig": 3941,
      "Ġmotion": 3942,
      "uild": 3943,
      "Ġstim": 3944,
      "Ġsold": 3945,
      "Ġbright": 3946,
      "Ġcharacteristics": 3947,
      "Ġspect": 3948,
      "Ġadop": 3949,
      "Ġdifferences": 3950,
      "Ġapprox": 3951,
      "Ġeth": 3952,
      "ĠPhot": 3953,
      "Ġinstance": 3954,
      "Ġtit": 3955,
      "Ġstuff": 3956,
      "Ġtrou": 3957,
      "Ġcateg": 3958,
      "Ġmeasures": 3959,
      "Ġfluid": 3960,
      "Ġdiabetes": 3961,
      "ĠAut": 3962,
      "Ġbackground": 3963,
      "bing": 3964,
      "Ġmag": 3965,
      "Ġdiv": 3966,
      "Ġkill": 3967,
      "Ġvolume": 3968,
      "Ġfeeling": 3969,
      "Ġconnection": 3970,
      "ĠFirst": 3971,
      "Ġdish": 3972,
      "Ġalone": 3973,
      "...Ċ": 3974,
      "rim": 3975,
      "Ġfurn": 3976,
      "celer": 3977,
      "ĠTw": 3978,
      "rates": 3979,
      "ĠCalifornia": 3980,
      "ĠIndia": 3981,
      "uce": 3982,
      "Ġfilter": 3983,
      "Ġvirt": 3984,
      "Ġbone": 3985,
      "Ġreported": 3986,
      "Here": 3987,
      "Ġefforts": 3988,
      "Ġmut": 3989,
      "know": 3990,
      "vity": 3991,
      "Ġdistinct": 3992,
      "Ġhistor": 3993,
      "Ġresulting": 3994,
      "ĠInstitute": 3995,
      "-up": 3996,
      "Ġlabor": 3997,
      "07": 3998,
      "Ġrules": 3999,
      "ille": 4000,
      "dom": 4001,
      "ses": 4002,
      "Ġdoor": 4003,
      "Ġdescribed": 4004,
      "rier": 4005,
      "Ġaspects": 4006,
      "xiety": 4007,
      "ok": 4008,
      "Ġroots": 4009,
      "hop": 4010,
      "ĠMod": 4011,
      "Ġplanning": 4012,
      "Ġrub": 4013,
      "Ġachie": 4014,
      "Ġfashion": 4015,
      "oom": 4016,
      "Ġsurpr": 4017,
      "ressive": 4018,
      "Ġwent": 4019,
      "Ġdate": 4020,
      "Ġbegan": 4021,
      "Ġpool": 4022,
      "Ġlights": 4023,
      "ups": 4024,
      "urance": 4025,
      "ĠServ": 4026,
      "Ã©": 4027,
      "chen": 4028,
      "Ġdiscover": 4029,
      "eed": 4030,
      "Ġclos": 4031,
      "Ġevol": 4032,
      "Ġfight": 4033,
      "AM": 4034,
      "Ġserve": 4035,
      "ĠDon": 4036,
      "Ġfly": 4037,
      "Ġpets": 4038,
      "However": 4039,
      "ĠRead": 4040,
      "Ġwonder": 4041,
      "ĠJapan": 4042,
      "Ġchicken": 4043,
      "undred": 4044,
      "Ġhyp": 4045,
      "cription": 4046,
      "Ġindepend": 4047,
      "ads": 4048,
      "Ġfinding": 4049,
      "Ġfoss": 4050,
      "Ġinfluence": 4051,
      "Ġexisting": 4052,
      "fess": 4053,
      "Ġmaintaining": 4054,
      "iction": 4055,
      "Ġchallenge": 4056,
      "Ġspir": 4057,
      "Ġhear": 4058,
      "wers": 4059,
      "Ġappearance": 4060,
      "Ġalgorith": 4061,
      "Ġmatch": 4062,
      "ĠAlthough": 4063,
      "pre": 4064,
      "Ġdeb": 4065,
      "Ġmale": 4066,
      "Ġvital": 4067,
      "Ġwel": 4068,
      "icks": 4069,
      "unction": 4070,
      "Ph": 4071,
      "Ġpig": 4072,
      "Ġhabitat": 4073,
      "ĠRep": 4074,
      "ped": 4075,
      "Ġnit": 4076,
      "ctors": 4077,
      "AD": 4078,
      "Ġregularly": 4079,
      "Ġimmediately": 4080,
      "02": 4081,
      "Ġfinancial": 4082,
      "Ġrates": 4083,
      "iant": 4084,
      "Ġpal": 4085,
      "29": 4086,
      "Ġhighlight": 4087,
      "Ġded": 4088,
      "36": 4089,
      "ĠPart": 4090,
      "Ġrise": 4091,
      "Ġcovered": 4092,
      "Ġdat": 4093,
      "Ġpush": 4094,
      "Ġcollection": 4095
    },
    "merges": [
      [
        "Ġ",
        "t"
      ],
      [
        "Ġ",
        "a"
      ],
      [
        "i",
        "n"
      ],
      [
        "h",
        "e"
      ],
      [
        "r",
        "e"
      ],
      [
        "o",
        "n"
      ],
      [
        "Ġt",
        "he"
      ],
      [
        "e",
        "r"
      ],
      [
        "Ġ",
        "s"
      ],
      [
        "a",
        "t"
      ],
      [
        "Ġ",
        "c"
      ],
      [
        "Ġ",
        "o"
      ],
      [
        "e",
        "s"
      ],
      [
        "e",
        "n"
      ],
      [
        "Ġ",
        "w"
      ],
      [
        "n",
        "d"
      ],
      [
        "in",
        "g"
      ],
      [
        "i",
        "t"
      ],
      [
        "i",
        "s"
      ],
      [
        "Ġ",
        "p"
      ],
      [
        "Ġ",
        "b"
      ],
      [
        "o",
        "r"
      ],
      [
        "Ġ",
        "f"
      ],
      [
        "o",
        "u"
      ],
      [
        "a",
        "l"
      ],
      [
        "a",
        "n"
      ],
      [
        "Ġ",
        "m"
      ],
      [
        "Ġt",
        "o"
      ],
      [
        "e",
        "d"
      ],
      [
        "a",
        "r"
      ],
      [
        "Ġo",
        "f"
      ],
      [
        "Ġ",
        "in"
      ],
      [
        "Ġa",
        "nd"
      ],
      [
        "Ġ",
        "d"
      ],
      [
        "i",
        "c"
      ],
      [
        "i",
        "on"
      ],
      [
        "l",
        "e"
      ],
      [
        "r",
        "o"
      ],
      [
        "a",
        "s"
      ],
      [
        "Ġ",
        "h"
      ],
      [
        "Ġt",
        "h"
      ],
      [
        "c",
        "t"
      ],
      [
        "Ġ",
        "e"
      ],
      [
        "en",
        "t"
      ],
      [
        "Ġ",
        "l"
      ],
      [
        "v",
        "e"
      ],
      [
        "i",
        "l"
      ],
      [
        "Ġ",
        "re"
      ],
      [
        "o",
        "m"
      ],
      [
        "u",
        "s"
      ],
      [
        "Ġ",
        "is"
      ],
      [
        ".",
        "Ċ"
      ],
      [
        "Ġ",
        "y"
      ],
      [
        "Ġ",
        "n"
      ],
      [
        "e",
        "t"
      ],
      [
        "l",
        "y"
      ],
      [
        "Ġ",
        "g"
      ],
      [
        "Ġy",
        "ou"
      ],
      [
        "o",
        "w"
      ],
      [
        "Ġb",
        "e"
      ],
      [
        "u",
        "t"
      ],
      [
        "o",
        "t"
      ],
      [
        "i",
        "m"
      ],
      [
        "Ġ",
        "T"
      ],
      [
        "i",
        "d"
      ],
      [
        "s",
        "t"
      ],
      [
        "o",
        "l"
      ],
      [
        "c",
        "e"
      ],
      [
        "Ġf",
        "or"
      ],
      [
        "i",
        "g"
      ],
      [
        "r",
        "a"
      ],
      [
        "Ġ",
        "A"
      ],
      [
        "c",
        "h"
      ],
      [
        "u",
        "r"
      ],
      [
        "at",
        "ion"
      ],
      [
        "Ġ",
        "on"
      ],
      [
        "Ġs",
        "t"
      ],
      [
        "Ġ",
        "I"
      ],
      [
        "Ġth",
        "at"
      ],
      [
        "i",
        "r"
      ],
      [
        "e",
        "l"
      ],
      [
        "v",
        "er"
      ],
      [
        "Ġ",
        "it"
      ],
      [
        "Ġa",
        "re"
      ],
      [
        "a",
        "y"
      ],
      [
        "u",
        "l"
      ],
      [
        "it",
        "h"
      ],
      [
        "Ġp",
        "ro"
      ],
      [
        "s",
        "e"
      ],
      [
        "i",
        "f"
      ],
      [
        "Ġa",
        "n"
      ],
      [
        "Ġw",
        "ith"
      ],
      [
        "a",
        "m"
      ],
      [
        "Ġ",
        "S"
      ],
      [
        "es",
        "t"
      ],
      [
        "Ġo",
        "r"
      ],
      [
        "Ġc",
        "on"
      ],
      [
        "Ġa",
        "s"
      ],
      [
        ".Ċ",
        "Ċ"
      ],
      [
        "Ġa",
        "l"
      ],
      [
        "o",
        "d"
      ],
      [
        "he",
        "r"
      ],
      [
        "a",
        "d"
      ],
      [
        "Ġ",
        "C"
      ],
      [
        "Ċ",
        "Ċ"
      ],
      [
        "k",
        "e"
      ],
      [
        "t",
        "er"
      ],
      [
        "Ġc",
        "an"
      ],
      [
        "u",
        "n"
      ],
      [
        "Ġw",
        "h"
      ],
      [
        "g",
        "e"
      ],
      [
        "u",
        "re"
      ],
      [
        "es",
        "s"
      ],
      [
        "Ġh",
        "a"
      ],
      [
        "ĠT",
        "he"
      ],
      [
        "il",
        "l"
      ],
      [
        "at",
        "e"
      ],
      [
        "Ġ",
        "W"
      ],
      [
        "Ġc",
        "om"
      ],
      [
        "u",
        "m"
      ],
      [
        "a",
        "b"
      ],
      [
        "Ġ",
        "he"
      ],
      [
        "Ġe",
        "x"
      ],
      [
        "er",
        "s"
      ],
      [
        "an",
        "t"
      ],
      [
        "o",
        "re"
      ],
      [
        "p",
        "e"
      ],
      [
        "ig",
        "h"
      ],
      [
        "q",
        "u"
      ],
      [
        "'",
        "s"
      ],
      [
        "t",
        "h"
      ],
      [
        "Ġyou",
        "r"
      ],
      [
        "i",
        "ve"
      ],
      [
        "Ġ",
        "us"
      ],
      [
        "m",
        "ent"
      ],
      [
        "i",
        "es"
      ],
      [
        "Ġ",
        "v"
      ],
      [
        "Ġd",
        "e"
      ],
      [
        "o",
        "p"
      ],
      [
        "a",
        "c"
      ],
      [
        "Ġw",
        "e"
      ],
      [
        "it",
        "y"
      ],
      [
        "a",
        "in"
      ],
      [
        "o",
        "s"
      ],
      [
        "l",
        "d"
      ],
      [
        "is",
        "t"
      ],
      [
        "ro",
        "m"
      ],
      [
        "Ġ",
        "P"
      ],
      [
        "Ġ",
        "M"
      ],
      [
        "Ġs",
        "e"
      ],
      [
        "Ġn",
        "e"
      ],
      [
        "e",
        "m"
      ],
      [
        "Ġ",
        "B"
      ],
      [
        "Ġc",
        "h"
      ],
      [
        "Ġ",
        "en"
      ],
      [
        "p",
        "p"
      ],
      [
        "Ġ",
        "("
      ],
      [
        "Ġ",
        "r"
      ],
      [
        "e",
        "ct"
      ],
      [
        "Ġa",
        "t"
      ],
      [
        "Ġs",
        "u"
      ],
      [
        "Ġs",
        "h"
      ],
      [
        "i",
        "al"
      ],
      [
        "Ġha",
        "ve"
      ],
      [
        "Ġf",
        "rom"
      ],
      [
        "i",
        "v"
      ],
      [
        "igh",
        "t"
      ],
      [
        "or",
        "t"
      ],
      [
        "Ġ",
        "le"
      ],
      [
        "Ġd",
        "o"
      ],
      [
        "n",
        "t"
      ],
      [
        "Ġ",
        "D"
      ],
      [
        "Ġp",
        "l"
      ],
      [
        "re",
        "s"
      ],
      [
        "Ġb",
        "y"
      ],
      [
        "Ġ",
        "H"
      ],
      [
        "a",
        "nd"
      ],
      [
        "Ġn",
        "ot"
      ],
      [
        "ar",
        "t"
      ],
      [
        "p",
        "er"
      ],
      [
        "o",
        "c"
      ],
      [
        "u",
        "d"
      ],
      [
        "us",
        "t"
      ],
      [
        "al",
        "l"
      ],
      [
        "Ġ",
        "F"
      ],
      [
        "om",
        "e"
      ],
      [
        "ic",
        "al"
      ],
      [
        "Ġth",
        "is"
      ],
      [
        "n",
        "s"
      ],
      [
        "id",
        "e"
      ],
      [
        "r",
        "i"
      ],
      [
        "Ġa",
        "b"
      ],
      [
        "r",
        "ou"
      ],
      [
        "ou",
        "ld"
      ],
      [
        "Ġ",
        "u"
      ],
      [
        "in",
        "e"
      ],
      [
        "ou",
        "t"
      ],
      [
        "Ġ",
        "E"
      ],
      [
        "p",
        "t"
      ],
      [
        "a",
        "ct"
      ],
      [
        "Ġm",
        "a"
      ],
      [
        "o",
        "st"
      ],
      [
        "Ġ",
        "im"
      ],
      [
        "ar",
        "d"
      ],
      [
        "o",
        "g"
      ],
      [
        "el",
        "l"
      ],
      [
        "ion",
        "s"
      ],
      [
        "d",
        "u"
      ],
      [
        "Ġw",
        "he"
      ],
      [
        "Ġw",
        "ill"
      ],
      [
        "re",
        "d"
      ],
      [
        "ic",
        "h"
      ],
      [
        "Ġ",
        "R"
      ],
      [
        "Ġw",
        "or"
      ],
      [
        "as",
        "t"
      ],
      [
        "Ġcom",
        "p"
      ],
      [
        "Ġthe",
        "ir"
      ],
      [
        "Ġthe",
        "y"
      ],
      [
        "ou",
        "r"
      ],
      [
        "f",
        "f"
      ],
      [
        "â",
        "Ģ"
      ],
      [
        "g",
        "h"
      ],
      [
        "o",
        "od"
      ],
      [
        "Ġ",
        "k"
      ],
      [
        "Ġin",
        "t"
      ],
      [
        "k",
        "ing"
      ],
      [
        "t",
        "her"
      ],
      [
        "T",
        "he"
      ],
      [
        "i",
        "z"
      ],
      [
        "a",
        "ge"
      ],
      [
        "Ġa",
        "d"
      ],
      [
        "at",
        "er"
      ],
      [
        "p",
        "l"
      ],
      [
        "Ġ",
        "N"
      ],
      [
        "Ġal",
        "l"
      ],
      [
        "Ġ",
        "L"
      ],
      [
        "h",
        "at"
      ],
      [
        "a",
        "g"
      ],
      [
        "Ġm",
        "ore"
      ],
      [
        "ab",
        "le"
      ],
      [
        "w",
        "er"
      ],
      [
        "Ġw",
        "as"
      ],
      [
        "at",
        "ed"
      ],
      [
        "en",
        "d"
      ],
      [
        "est",
        "ion"
      ],
      [
        "Q",
        "u"
      ],
      [
        "Ġ",
        "G"
      ],
      [
        "Ġcon",
        "t"
      ],
      [
        "e",
        "re"
      ],
      [
        "o",
        "o"
      ],
      [
        "Ġb",
        "ut"
      ],
      [
        "al",
        "ly"
      ],
      [
        "k",
        "s"
      ],
      [
        "ul",
        "t"
      ],
      [
        "Ġs",
        "o"
      ],
      [
        "i",
        "b"
      ],
      [
        "an",
        "s"
      ],
      [
        "Ġt",
        "e"
      ],
      [
        "i",
        "p"
      ],
      [
        "ou",
        "s"
      ],
      [
        "Ġ",
        "O"
      ],
      [
        "Ġin",
        "c"
      ],
      [
        "s",
        "o"
      ],
      [
        "in",
        "d"
      ],
      [
        "r",
        "u"
      ],
      [
        "e",
        "p"
      ],
      [
        "Ġm",
        "e"
      ],
      [
        "r",
        "y"
      ],
      [
        "Ġ",
        "j"
      ],
      [
        "i",
        "ke"
      ],
      [
        "a",
        "re"
      ],
      [
        "on",
        "g"
      ],
      [
        "c",
        "c"
      ],
      [
        "ns",
        "wer"
      ],
      [
        "Ġc",
        "l"
      ],
      [
        "an",
        "ce"
      ],
      [
        "Qu",
        "estion"
      ],
      [
        "Ġre",
        "s"
      ],
      [
        "Ġd",
        "is"
      ],
      [
        "Ġh",
        "as"
      ],
      [
        "or",
        "m"
      ],
      [
        "ĠA",
        "nswer"
      ],
      [
        "Ġwh",
        "ich"
      ],
      [
        "Ġo",
        "ut"
      ],
      [
        "Ġ",
        "\""
      ],
      [
        "Ġs",
        "p"
      ],
      [
        "ve",
        "l"
      ],
      [
        "e",
        "ar"
      ],
      [
        "Ġim",
        "p"
      ],
      [
        "ation",
        "s"
      ],
      [
        "Ġ",
        "un"
      ],
      [
        "h",
        "is"
      ],
      [
        "Ġo",
        "ther"
      ],
      [
        "i",
        "e"
      ],
      [
        "ct",
        "ion"
      ],
      [
        "on",
        "e"
      ],
      [
        "'",
        "t"
      ],
      [
        "Ġal",
        "so"
      ],
      [
        "a",
        "v"
      ],
      [
        "Ġm",
        "an"
      ],
      [
        "re",
        "at"
      ],
      [
        "Ġt",
        "im"
      ],
      [
        "ent",
        "s"
      ],
      [
        "Ġon",
        "e"
      ],
      [
        "Ġs",
        "pe"
      ],
      [
        "a",
        "us"
      ],
      [
        "ver",
        "y"
      ],
      [
        "en",
        "s"
      ],
      [
        "a",
        "ce"
      ],
      [
        "ic",
        "e"
      ],
      [
        "Ġf",
        "e"
      ],
      [
        "en",
        "ce"
      ],
      [
        "a",
        "ch"
      ],
      [
        "2",
        "0"
      ],
      [
        "Ġthe",
        "m"
      ],
      [
        "ig",
        "n"
      ],
      [
        "as",
        "e"
      ],
      [
        "as",
        "s"
      ],
      [
        "a",
        "p"
      ],
      [
        "Ġ",
        "U"
      ],
      [
        "Ġab",
        "out"
      ],
      [
        "it",
        "ion"
      ],
      [
        "ac",
        "k"
      ],
      [
        "l",
        "ow"
      ],
      [
        "or",
        "s"
      ],
      [
        "Ġp",
        "er"
      ],
      [
        "ĠI",
        "n"
      ],
      [
        "ĠI",
        "t"
      ],
      [
        "Ġl",
        "ike"
      ],
      [
        "Ġu",
        "p"
      ],
      [
        "ar",
        "y"
      ],
      [
        "Ġp",
        "re"
      ],
      [
        "Ġ",
        "ro"
      ],
      [
        "res",
        "s"
      ],
      [
        "Ġs",
        "c"
      ],
      [
        "if",
        "f"
      ],
      [
        "il",
        "d"
      ],
      [
        "Ġwhe",
        "n"
      ],
      [
        "Ġs",
        "ome"
      ],
      [
        "Ġ",
        "qu"
      ],
      [
        "n",
        "ow"
      ],
      [
        "i",
        "le"
      ],
      [
        "i",
        "re"
      ],
      [
        "Ġe",
        "v"
      ],
      [
        "u",
        "e"
      ],
      [
        "Ġ",
        "if"
      ],
      [
        "it",
        "e"
      ],
      [
        "Ġs",
        "y"
      ],
      [
        "i",
        "a"
      ],
      [
        "ou",
        "nd"
      ],
      [
        "Ġne",
        "ed"
      ],
      [
        "c",
        "es"
      ],
      [
        "Ġp",
        "art"
      ],
      [
        "Ġint",
        "o"
      ],
      [
        "o",
        "se"
      ],
      [
        "Ġus",
        "e"
      ],
      [
        "Ġc",
        "ol"
      ],
      [
        "ĠW",
        "hat"
      ],
      [
        "Ġh",
        "ow"
      ],
      [
        "Ġd",
        "iff"
      ],
      [
        "ĠT",
        "his"
      ],
      [
        "Ġhe",
        "l"
      ],
      [
        "Ġtim",
        "e"
      ],
      [
        "a",
        "k"
      ],
      [
        "r",
        "ic"
      ],
      [
        "Ġ",
        "Y"
      ],
      [
        "Ġm",
        "ay"
      ],
      [
        "Ġa",
        "pp"
      ],
      [
        "ay",
        "s"
      ],
      [
        "am",
        "e"
      ],
      [
        "f",
        "orm"
      ],
      [
        "Ġth",
        "an"
      ],
      [
        "ro",
        "w"
      ],
      [
        "Ġit",
        "s"
      ],
      [
        "a",
        "il"
      ],
      [
        "re",
        "e"
      ],
      [
        "l",
        "l"
      ],
      [
        "Ġthe",
        "re"
      ],
      [
        "b",
        "er"
      ],
      [
        "ing",
        "s"
      ],
      [
        "Ġhel",
        "p"
      ],
      [
        "Ġp",
        "e"
      ],
      [
        "Ġbe",
        "c"
      ],
      [
        "Ġt",
        "ra"
      ],
      [
        "Ġa",
        "r"
      ],
      [
        "Ġan",
        "y"
      ],
      [
        "Ġo",
        "ver"
      ],
      [
        "Ġb",
        "l"
      ],
      [
        "Ġre",
        "c"
      ],
      [
        "aus",
        "e"
      ],
      [
        "le",
        "ct"
      ],
      [
        "al",
        "s"
      ],
      [
        "Ġcom",
        "m"
      ],
      [
        "if",
        "ic"
      ],
      [
        "Ġb",
        "et"
      ],
      [
        "at",
        "ing"
      ],
      [
        "nd",
        "er"
      ],
      [
        "Ġspe",
        "c"
      ],
      [
        "Ġk",
        "now"
      ],
      [
        "Ġcon",
        "s"
      ],
      [
        "l",
        "es"
      ],
      [
        "c",
        "ess"
      ],
      [
        "Ġthe",
        "se"
      ],
      [
        "o",
        "ve"
      ],
      [
        "an",
        "g"
      ],
      [
        "Ġg",
        "o"
      ],
      [
        "Ġg",
        "et"
      ],
      [
        "ou",
        "gh"
      ],
      [
        "a",
        "ke"
      ],
      [
        "is",
        "h"
      ],
      [
        "or",
        "d"
      ],
      [
        "Ġs",
        "a"
      ],
      [
        "in",
        "t"
      ],
      [
        "h",
        "y"
      ],
      [
        ".",
        "."
      ],
      [
        "Ġw",
        "ater"
      ],
      [
        "ol",
        "og"
      ],
      [
        "Ġd",
        "es"
      ],
      [
        "Ġst",
        "ud"
      ],
      [
        "w",
        "e"
      ],
      [
        "t",
        "e"
      ],
      [
        "Ġ",
        "âĢ"
      ],
      [
        "on",
        "d"
      ],
      [
        "on",
        "s"
      ],
      [
        "rou",
        "gh"
      ],
      [
        "Ġus",
        "ed"
      ],
      [
        "Ġpro",
        "du"
      ],
      [
        "Ġo",
        "ur"
      ],
      [
        "Ġwh",
        "at"
      ],
      [
        "Ġt",
        "r"
      ],
      [
        "Ġin",
        "d"
      ],
      [
        "st",
        "em"
      ],
      [
        "ou",
        "nt"
      ],
      [
        "Ġc",
        "o"
      ],
      [
        "Ġf",
        "l"
      ],
      [
        "Ġe",
        "ff"
      ],
      [
        "u",
        "b"
      ],
      [
        "at",
        "ure"
      ],
      [
        "Ġ",
        "ra"
      ],
      [
        "al",
        "th"
      ],
      [
        "or",
        "y"
      ],
      [
        "ul",
        "ar"
      ],
      [
        "Ġy",
        "ear"
      ],
      [
        "Ġm",
        "ost"
      ],
      [
        "m",
        "s"
      ],
      [
        "ar",
        "i"
      ],
      [
        "Ġdiff",
        "ere"
      ],
      [
        "Ġof",
        "f"
      ],
      [
        "rou",
        "nd"
      ],
      [
        "oo",
        "k"
      ],
      [
        "t",
        "ing"
      ],
      [
        "n",
        "ing"
      ],
      [
        "op",
        "le"
      ],
      [
        "Ġg",
        "en"
      ],
      [
        "Ġ",
        "J"
      ],
      [
        "ic",
        "k"
      ],
      [
        "Ġma",
        "ke"
      ],
      [
        "l",
        "ud"
      ],
      [
        "c",
        "k"
      ],
      [
        "Ġa",
        "ct"
      ],
      [
        "ver",
        "s"
      ],
      [
        "n",
        "e"
      ],
      [
        "Ġwh",
        "o"
      ],
      [
        "Ġa",
        "cc"
      ],
      [
        "Ġsu",
        "ch"
      ],
      [
        "Ġu",
        "nder"
      ],
      [
        "Ġpro",
        "v"
      ],
      [
        "er",
        "v"
      ],
      [
        "Ġne",
        "w"
      ],
      [
        "Ġa",
        "m"
      ],
      [
        "i",
        "ent"
      ],
      [
        "Ġsh",
        "ould"
      ],
      [
        "Ġs",
        "m"
      ],
      [
        "Ġad",
        "d"
      ],
      [
        "x",
        "t"
      ],
      [
        "Ġa",
        "g"
      ],
      [
        "et",
        "h"
      ],
      [
        "Ġc",
        "ar"
      ],
      [
        "p",
        "le"
      ],
      [
        "Ġwe",
        "re"
      ],
      [
        "f",
        "ul"
      ],
      [
        "Ġpe",
        "ople"
      ],
      [
        "ur",
        "ing"
      ],
      [
        "il",
        "ity"
      ],
      [
        "at",
        "es"
      ],
      [
        "Ġt",
        "w"
      ],
      [
        "ĠS",
        "t"
      ],
      [
        "ot",
        "h"
      ],
      [
        "j",
        "ect"
      ],
      [
        "er",
        "g"
      ],
      [
        "Ġbe",
        "en"
      ],
      [
        "Ġe",
        "m"
      ],
      [
        "Ġw",
        "ould"
      ],
      [
        "an",
        "ge"
      ],
      [
        "ment",
        "s"
      ],
      [
        "Ġwor",
        "k"
      ],
      [
        "ir",
        "st"
      ],
      [
        "Ġth",
        "rough"
      ],
      [
        "Ġinc",
        "lud"
      ],
      [
        "Ġt",
        "y"
      ],
      [
        "os",
        "s"
      ],
      [
        "Ġd",
        "i"
      ],
      [
        "Ġsy",
        "stem"
      ],
      [
        "p",
        "h"
      ],
      [
        "Ġj",
        "ust"
      ],
      [
        "Ġp",
        "r"
      ],
      [
        "he",
        "s"
      ],
      [
        "b",
        "le"
      ],
      [
        "o",
        "v"
      ],
      [
        "is",
        "e"
      ],
      [
        "Ġon",
        "ly"
      ],
      [
        "ow",
        "er"
      ],
      [
        "ic",
        "s"
      ],
      [
        "1",
        "0"
      ],
      [
        "Ġpl",
        "ant"
      ],
      [
        "it",
        "s"
      ],
      [
        "Ġn",
        "o"
      ],
      [
        "it",
        "ies"
      ],
      [
        "Ġ",
        "ke"
      ],
      [
        "t",
        "en"
      ],
      [
        "Ġman",
        "y"
      ],
      [
        "Ġm",
        "y"
      ],
      [
        "Ġ",
        "K"
      ],
      [
        "ar",
        "k"
      ],
      [
        "c",
        "ed"
      ],
      [
        "o",
        "b"
      ],
      [
        "Ġs",
        "ur"
      ],
      [
        "Ġh",
        "igh"
      ],
      [
        "Ġp",
        "o"
      ],
      [
        "at",
        "ive"
      ],
      [
        "Ġhe",
        "alth"
      ],
      [
        "Ġ",
        "V"
      ],
      [
        "he",
        "n"
      ],
      [
        "Ġw",
        "ell"
      ],
      [
        "Ġb",
        "u"
      ],
      [
        "Ġdo",
        "es"
      ],
      [
        "Ġin",
        "ter"
      ],
      [
        "vel",
        "op"
      ],
      [
        "ib",
        "le"
      ],
      [
        "ol",
        "d"
      ],
      [
        "Ġre",
        "g"
      ],
      [
        "ch",
        "n"
      ],
      [
        "Ġre",
        "l"
      ],
      [
        "ow",
        "n"
      ],
      [
        "u",
        "al"
      ],
      [
        "e",
        "f"
      ],
      [
        "Ġtw",
        "o"
      ],
      [
        "ra",
        "ct"
      ],
      [
        "Ġdiffere",
        "nt"
      ],
      [
        "Ġre",
        "m"
      ],
      [
        "Ġex",
        "per"
      ],
      [
        "f",
        "ter"
      ],
      [
        "re",
        "n"
      ],
      [
        "t",
        "ain"
      ],
      [
        "i",
        "ence"
      ],
      [
        "in",
        "k"
      ],
      [
        "l",
        "ic"
      ],
      [
        "Ġa",
        "c"
      ],
      [
        "?",
        "Ċ"
      ],
      [
        "Ġf",
        "irst"
      ],
      [
        "Ġwhe",
        "re"
      ],
      [
        "Ġl",
        "ong"
      ],
      [
        "Ġc",
        "he"
      ],
      [
        "ra",
        "m"
      ],
      [
        "we",
        "en"
      ],
      [
        "1",
        "9"
      ],
      [
        "f",
        "t"
      ],
      [
        "Ġ",
        "-"
      ],
      [
        "as",
        "ed"
      ],
      [
        "Ġw",
        "ay"
      ],
      [
        "he",
        "d"
      ],
      [
        "Ġimp",
        "ort"
      ],
      [
        "g",
        "et"
      ],
      [
        "Ġm",
        "od"
      ],
      [
        "Ġde",
        "velop"
      ],
      [
        "u",
        "ch"
      ],
      [
        "if",
        "e"
      ],
      [
        "ar",
        "m"
      ],
      [
        "c",
        "y"
      ],
      [
        "iz",
        "e"
      ],
      [
        "f",
        "ore"
      ],
      [
        "ad",
        "e"
      ],
      [
        "u",
        "ally"
      ],
      [
        "Ġre",
        "p"
      ],
      [
        "Ġs",
        "im"
      ],
      [
        "Ġf",
        "ood"
      ],
      [
        "Ġbet",
        "ween"
      ],
      [
        "Ġpro",
        "cess"
      ],
      [
        "ĠI",
        "f"
      ],
      [
        "Ġus",
        "ing"
      ],
      [
        "Ġtr",
        "ans"
      ],
      [
        "I",
        "n"
      ],
      [
        "Ġv",
        "ari"
      ],
      [
        "Ġc",
        "ould"
      ],
      [
        "Ġsu",
        "pp"
      ],
      [
        "Ġo",
        "b"
      ],
      [
        "Ġp",
        "at"
      ],
      [
        "ent",
        "ial"
      ],
      [
        "r",
        "it"
      ],
      [
        "Ġde",
        "c"
      ],
      [
        "Ġthe",
        "n"
      ],
      [
        "t",
        "s"
      ],
      [
        "Ġe",
        "very"
      ],
      [
        "Ġev",
        "en"
      ],
      [
        "Ġc",
        "re"
      ],
      [
        "ĠC",
        "h"
      ],
      [
        "Ġin",
        "st"
      ],
      [
        "ir",
        "on"
      ],
      [
        "Ġin",
        "v"
      ],
      [
        "Ġbec",
        "ause"
      ],
      [
        "Ġin",
        "f"
      ],
      [
        "Ġg",
        "row"
      ],
      [
        "er",
        "m"
      ],
      [
        "ĠH",
        "ow"
      ],
      [
        "Ġd",
        "et"
      ],
      [
        "w",
        "n"
      ],
      [
        "ĠThe",
        "y"
      ],
      [
        "Ġm",
        "ain"
      ],
      [
        "i",
        "ous"
      ],
      [
        "Ġte",
        "chn"
      ],
      [
        "Ġat",
        "t"
      ],
      [
        "Ġas",
        "s"
      ],
      [
        "Ġp",
        "h"
      ],
      [
        "ical",
        "ly"
      ],
      [
        "e",
        "ver"
      ],
      [
        "is",
        "s"
      ],
      [
        "ri",
        "b"
      ],
      [
        "Ġ",
        "very"
      ],
      [
        "Ġeff",
        "ect"
      ],
      [
        "il",
        "y"
      ],
      [
        "Ġse",
        "e"
      ],
      [
        "g",
        "an"
      ],
      [
        "i",
        "qu"
      ],
      [
        "'",
        "re"
      ],
      [
        "ĠY",
        "ou"
      ],
      [
        "p",
        "s"
      ],
      [
        "m",
        "er"
      ],
      [
        "in",
        "es"
      ],
      [
        "o",
        "ol"
      ],
      [
        "o",
        "y"
      ],
      [
        "ur",
        "al"
      ],
      [
        "ar",
        "ch"
      ],
      [
        "Ġs",
        "k"
      ],
      [
        "Ġle",
        "ar"
      ],
      [
        "pe",
        "ct"
      ],
      [
        "in",
        "s"
      ],
      [
        "Ġre",
        "se"
      ],
      [
        "Ġm",
        "uch"
      ],
      [
        "Ġre",
        "qu"
      ],
      [
        "Ġsu",
        "b"
      ],
      [
        "ure",
        "s"
      ],
      [
        "ut",
        "ion"
      ],
      [
        "Ġh",
        "um"
      ],
      [
        "g",
        "g"
      ],
      [
        "Ġex",
        "t"
      ],
      [
        "Ġl",
        "ight"
      ],
      [
        "Ġl",
        "ar"
      ],
      [
        "Ġin",
        "s"
      ],
      [
        "n",
        "ess"
      ],
      [
        "Ġb",
        "ack"
      ],
      [
        "od",
        "y"
      ],
      [
        "Ġg",
        "ood"
      ],
      [
        "v",
        "ent"
      ],
      [
        "Ġe",
        "ach"
      ],
      [
        "olog",
        "y"
      ],
      [
        "Ġd",
        "on"
      ],
      [
        "Ġfor",
        "m"
      ],
      [
        "Ġimport",
        "ant"
      ],
      [
        "?",
        "ĊĊ"
      ],
      [
        "Ġch",
        "ild"
      ],
      [
        "0",
        "0"
      ],
      [
        "ĠâĢ",
        "ĵ"
      ],
      [
        "Ġn",
        "um"
      ],
      [
        "ĠW",
        "h"
      ],
      [
        "c",
        "ial"
      ],
      [
        "Ġw",
        "ant"
      ],
      [
        "Ġyear",
        "s"
      ],
      [
        "Ġex",
        "p"
      ],
      [
        "Ġm",
        "in"
      ],
      [
        "Ġg",
        "ra"
      ],
      [
        "v",
        "iron"
      ],
      [
        "erg",
        "y"
      ],
      [
        "r",
        "on"
      ],
      [
        "Ġs",
        "ol"
      ],
      [
        "i",
        "an"
      ],
      [
        "Ġf",
        "ind"
      ],
      [
        "Ġs",
        "et"
      ],
      [
        "Ġdis",
        "c"
      ],
      [
        "Ġf",
        "ol"
      ],
      [
        "Ġs",
        "ign"
      ],
      [
        "Ġgen",
        "er"
      ],
      [
        "st",
        "and"
      ],
      [
        "Ġsm",
        "all"
      ],
      [
        "Ġp",
        "ers"
      ],
      [
        "Ġdo",
        "g"
      ],
      [
        "Ġc",
        "le"
      ],
      [
        "Ġwh",
        "ile"
      ],
      [
        "Ġh",
        "ad"
      ],
      [
        "et",
        "y"
      ],
      [
        "Ġ",
        "ve"
      ],
      [
        "Ġex",
        "am"
      ],
      [
        "Ġf",
        "un"
      ],
      [
        "Ġinc",
        "re"
      ],
      [
        "el",
        "f"
      ],
      [
        "Ġa",
        "v"
      ],
      [
        "Ġst",
        "art"
      ],
      [
        "Ġe",
        "ar"
      ],
      [
        "ru",
        "ct"
      ],
      [
        "Ġa",
        "fter"
      ],
      [
        ")",
        "."
      ],
      [
        "u",
        "c"
      ],
      [
        "Ġt",
        "ake"
      ],
      [
        "Ġa",
        "ir"
      ],
      [
        "Ġm",
        "ed"
      ],
      [
        "al",
        "ity"
      ],
      [
        "Ġg",
        "l"
      ],
      [
        "s",
        "s"
      ],
      [
        "Ġl",
        "oc"
      ],
      [
        "u",
        "es"
      ],
      [
        "Ġh",
        "is"
      ],
      [
        "Ġdes",
        "ign"
      ],
      [
        "Ġe",
        "lect"
      ],
      [
        "Ġf",
        "ound"
      ],
      [
        "at",
        "a"
      ],
      [
        "ation",
        "al"
      ],
      [
        "e",
        "c"
      ],
      [
        "ot",
        "her"
      ],
      [
        "Ġp",
        "res"
      ],
      [
        "Ġwor",
        "ld"
      ],
      [
        "Ġar",
        "t"
      ],
      [
        "ist",
        "s"
      ],
      [
        "ur",
        "n"
      ],
      [
        "Ġres",
        "ult"
      ],
      [
        "ic",
        "es"
      ],
      [
        "Ġbe",
        "ing"
      ],
      [
        "Ġc",
        "ur"
      ],
      [
        "Ġb",
        "re"
      ],
      [
        "i",
        "ed"
      ],
      [
        "Ġa",
        "round"
      ],
      [
        "i",
        "x"
      ],
      [
        "Ġe",
        "as"
      ],
      [
        "ater",
        "ial"
      ],
      [
        "d",
        "s"
      ],
      [
        "Ġre",
        "f"
      ],
      [
        ")",
        ","
      ],
      [
        "ĠU",
        "n"
      ],
      [
        "Ġha",
        "nd"
      ],
      [
        "t",
        "le"
      ],
      [
        "viron",
        "ment"
      ],
      [
        "Ġbe",
        "fore"
      ],
      [
        "Ġd",
        "uring"
      ],
      [
        "Ġle",
        "vel"
      ],
      [
        "ĠW",
        "e"
      ],
      [
        "Ġ",
        "her"
      ],
      [
        "Ġc",
        "all"
      ],
      [
        "Ġf",
        "act"
      ],
      [
        "Ġp",
        "ot"
      ],
      [
        "n",
        "ce"
      ],
      [
        "Ġfol",
        "low"
      ],
      [
        "as",
        "es"
      ],
      [
        "Ġall",
        "ow"
      ],
      [
        "Ġb",
        "r"
      ],
      [
        "Ġcomp",
        "le"
      ],
      [
        "ag",
        "es"
      ],
      [
        "Ġc",
        "ell"
      ],
      [
        "Ġd",
        "own"
      ],
      [
        "iv",
        "es"
      ],
      [
        "pt",
        "ion"
      ],
      [
        "Ġpro",
        "ble"
      ],
      [
        "oc",
        "k"
      ],
      [
        "Ġs",
        "he"
      ],
      [
        "Ġo",
        "wn"
      ],
      [
        "Ġpro",
        "g"
      ],
      [
        "Ġde",
        "p"
      ],
      [
        "e",
        "g"
      ],
      [
        "Ġse",
        "c"
      ],
      [
        "d",
        "ition"
      ],
      [
        "id",
        "er"
      ],
      [
        "Ġin",
        "form"
      ],
      [
        "Ġc",
        "or"
      ],
      [
        "Ġs",
        "ame"
      ],
      [
        "om",
        "m"
      ],
      [
        "Ġty",
        "p"
      ],
      [
        "ch",
        "ool"
      ],
      [
        "Ġex",
        "pl"
      ],
      [
        "Ġm",
        "on"
      ],
      [
        "Ġt",
        "em"
      ],
      [
        "-",
        "-"
      ],
      [
        "el",
        "s"
      ],
      [
        "Ġst",
        "r"
      ],
      [
        "Ġd",
        "ist"
      ],
      [
        "Ġv",
        "al"
      ],
      [
        "Ġan",
        "im"
      ],
      [
        "w",
        "ard"
      ],
      [
        "Ġre",
        "du"
      ],
      [
        "Ġl",
        "ife"
      ],
      [
        "Ġof",
        "ten"
      ],
      [
        "a",
        "ir"
      ],
      [
        ".",
        "\""
      ],
      [
        "iz",
        "ed"
      ],
      [
        "Ġth",
        "ose"
      ],
      [
        "c",
        "er"
      ],
      [
        "Ġle",
        "ad"
      ],
      [
        "Ġke",
        "ep"
      ],
      [
        "ro",
        "p"
      ],
      [
        "Ġen",
        "ergy"
      ],
      [
        "Ġb",
        "o"
      ],
      [
        "Ġa",
        "ut"
      ],
      [
        "Ġpart",
        "ic"
      ],
      [
        "Ġ",
        "ent"
      ],
      [
        "et",
        "s"
      ],
      [
        "Ġb",
        "est"
      ],
      [
        "Ġm",
        "aterial"
      ],
      [
        ":",
        "Ċ"
      ],
      [
        "at",
        "her"
      ],
      [
        "c",
        "l"
      ],
      [
        "Ġb",
        "oth"
      ],
      [
        "a",
        "w"
      ],
      [
        "ter",
        "n"
      ],
      [
        "Ġr",
        "ight"
      ],
      [
        "Ġto",
        "o"
      ],
      [
        "Ġp",
        "ower"
      ],
      [
        "Ġv",
        "is"
      ],
      [
        "Ġb",
        "ody"
      ],
      [
        "Ġsh",
        "ow"
      ],
      [
        "e",
        "w"
      ],
      [
        "y",
        "s"
      ],
      [
        "Ġre",
        "ad"
      ],
      [
        "W",
        "hat"
      ],
      [
        "g",
        "er"
      ],
      [
        "Ġm",
        "ade"
      ],
      [
        "Ġg",
        "u"
      ],
      [
        "ro",
        "l"
      ],
      [
        "al",
        "e"
      ],
      [
        "id",
        "es"
      ],
      [
        "i",
        "en"
      ],
      [
        "id",
        "ent"
      ],
      [
        "at",
        "ter"
      ],
      [
        "Ġ",
        "ed"
      ],
      [
        "i",
        "o"
      ],
      [
        "Ġcomm",
        "on"
      ],
      [
        "Ġc",
        "at"
      ],
      [
        "t",
        "y"
      ],
      [
        "Ġl",
        "ess"
      ],
      [
        "re",
        "ad"
      ],
      [
        "Ġd",
        "r"
      ],
      [
        "Ġch",
        "ar"
      ],
      [
        "Ġc",
        "are"
      ],
      [
        "Ġprodu",
        "ct"
      ],
      [
        "Ġpers",
        "on"
      ],
      [
        "Ġs",
        "om"
      ],
      [
        "Ġpro",
        "t"
      ],
      [
        "i",
        "um"
      ],
      [
        "Ġp",
        "op"
      ],
      [
        "ie",
        "w"
      ],
      [
        "Ġpl",
        "ay"
      ],
      [
        "ul",
        "l"
      ],
      [
        "Ġen",
        "vironment"
      ],
      [
        "re",
        "en"
      ],
      [
        "ĠF",
        "or"
      ],
      [
        "Ġt",
        "est"
      ],
      [
        "iv",
        "ing"
      ],
      [
        "v",
        "ing"
      ],
      [
        "Ġen",
        "g"
      ],
      [
        "ra",
        "in"
      ],
      [
        "ĠP",
        "ro"
      ],
      [
        "a",
        "king"
      ],
      [
        "Ġen",
        "d"
      ],
      [
        "ar",
        "s"
      ],
      [
        "Ġp",
        "oss"
      ],
      [
        "ic",
        "t"
      ],
      [
        "Ġd",
        "ay"
      ],
      [
        "Ġh",
        "ome"
      ],
      [
        "Ġm",
        "et"
      ],
      [
        "Ġd",
        "ata"
      ],
      [
        "Ġunder",
        "stand"
      ],
      [
        "a",
        "ve"
      ],
      [
        "Ġad",
        "v"
      ],
      [
        "ĠH",
        "e"
      ],
      [
        "-",
        "b"
      ],
      [
        "im",
        "ate"
      ],
      [
        "i",
        "el"
      ],
      [
        "i",
        "er"
      ],
      [
        "Ġsa",
        "id"
      ],
      [
        "ĠA",
        "s"
      ],
      [
        "n",
        "g"
      ],
      [
        "en",
        "g"
      ],
      [
        "Ġ",
        "'"
      ],
      [
        "H",
        "ow"
      ],
      [
        "ĠA",
        "l"
      ],
      [
        "i",
        "vers"
      ],
      [
        "at",
        "h"
      ],
      [
        "it",
        "ed"
      ],
      [
        "Ġl",
        "it"
      ],
      [
        "act",
        "er"
      ],
      [
        "ut",
        "e"
      ],
      [
        "Ġt",
        "reat"
      ],
      [
        "c",
        "ing"
      ],
      [
        "as",
        "on"
      ],
      [
        "Ġsa",
        "f"
      ],
      [
        "hy",
        "s"
      ],
      [
        "Ġcomm",
        "un"
      ],
      [
        "Ġinform",
        "ation"
      ],
      [
        "Ġpro",
        "per"
      ],
      [
        "v",
        "es"
      ],
      [
        "u",
        "p"
      ],
      [
        "Ġres",
        "p"
      ],
      [
        "Ġen",
        "s"
      ],
      [
        "Ġde",
        "f"
      ],
      [
        "ra",
        "p"
      ],
      [
        "Ġor",
        "gan"
      ],
      [
        "Ġspec",
        "ies"
      ],
      [
        "Ġpo",
        "int"
      ],
      [
        "Ġb",
        "en"
      ],
      [
        "re",
        "nt"
      ],
      [
        "l",
        "ed"
      ],
      [
        "v",
        "en"
      ],
      [
        "Ġm",
        "ight"
      ],
      [
        "Ġe",
        "qu"
      ],
      [
        "an",
        "y"
      ],
      [
        "id",
        "s"
      ],
      [
        "iv",
        "id"
      ],
      [
        "v",
        "ed"
      ],
      [
        "1",
        "2"
      ],
      [
        "and",
        "s"
      ],
      [
        "Ġl",
        "ook"
      ],
      [
        "t",
        "ed"
      ],
      [
        "eth",
        "od"
      ],
      [
        "d",
        "er"
      ],
      [
        "ĠThe",
        "se"
      ],
      [
        "per",
        "ature"
      ],
      [
        "Ġprov",
        "ide"
      ],
      [
        "ce",
        "pt"
      ],
      [
        "Ġn",
        "ow"
      ],
      [
        "Ġpl",
        "an"
      ],
      [
        ",",
        "\""
      ],
      [
        "Ġnum",
        "ber"
      ],
      [
        "Ġstud",
        "y"
      ],
      [
        "Ġs",
        "erv"
      ],
      [
        "ion",
        "al"
      ],
      [
        "oc",
        "i"
      ],
      [
        "Ġa",
        "w"
      ],
      [
        "on",
        "t"
      ],
      [
        "-",
        "s"
      ],
      [
        "Ġbet",
        "ter"
      ],
      [
        "Ġf",
        "am"
      ],
      [
        "ect",
        "ion"
      ],
      [
        "as",
        "h"
      ],
      [
        "or",
        "k"
      ],
      [
        "Ġrese",
        "arch"
      ],
      [
        "Ġa",
        "p"
      ],
      [
        "T",
        "his"
      ],
      [
        "Ġp",
        "ol"
      ],
      [
        "Ġimp",
        "ro"
      ],
      [
        "in",
        "ing"
      ],
      [
        "Ġp",
        "ur"
      ],
      [
        "b",
        "s"
      ],
      [
        "Ġdis",
        "e"
      ],
      [
        "Ġwith",
        "out"
      ],
      [
        "Ġsupp",
        "ort"
      ],
      [
        "Ġc",
        "ent"
      ],
      [
        "Ġg",
        "reat"
      ],
      [
        "e",
        "ad"
      ],
      [
        "c",
        "ent"
      ],
      [
        "Ġd",
        "ire"
      ],
      [
        "Ġcl",
        "ass"
      ],
      [
        "ĠT",
        "h"
      ],
      [
        "h",
        "ip"
      ],
      [
        "Ġa",
        "ff"
      ],
      [
        "w",
        "ays"
      ],
      [
        "ot",
        "s"
      ],
      [
        "Ġd",
        "id"
      ],
      [
        "Ġstud",
        "ents"
      ],
      [
        "k",
        "es"
      ],
      [
        "i",
        "red"
      ],
      [
        "Ġc",
        "reat"
      ],
      [
        "Ġst",
        "ill"
      ],
      [
        "Ġbe",
        "h"
      ],
      [
        "Ġo",
        "p"
      ],
      [
        "u",
        "nd"
      ],
      [
        "t",
        "he"
      ],
      [
        "ĠT",
        "o"
      ],
      [
        "ĠA",
        "n"
      ],
      [
        "Ġplant",
        "s"
      ],
      [
        "it",
        "ions"
      ],
      [
        "l",
        "ess"
      ],
      [
        "ant",
        "s"
      ],
      [
        "Ġpro",
        "f"
      ],
      [
        "Ġte",
        "xt"
      ],
      [
        "Ġma",
        "king"
      ],
      [
        "d",
        "ay"
      ],
      [
        "Ġr",
        "is"
      ],
      [
        "er",
        "ing"
      ],
      [
        "Ġtem",
        "perature"
      ],
      [
        "Ġm",
        "ethod"
      ],
      [
        "Ġact",
        "iv"
      ],
      [
        "Ġp",
        "ain"
      ],
      [
        "Ġinclud",
        "ing"
      ],
      [
        "Ġlar",
        "ge"
      ],
      [
        "I",
        "f"
      ],
      [
        "Ġbu",
        "ild"
      ],
      [
        "in",
        "al"
      ],
      [
        "in",
        "ce"
      ],
      [
        "Ġn",
        "at"
      ],
      [
        ":",
        "ĊĊ"
      ],
      [
        "it",
        "ive"
      ],
      [
        "Ġch",
        "ange"
      ],
      [
        "Ġis",
        "s"
      ],
      [
        "Ġto",
        "p"
      ],
      [
        "ĠB",
        "ut"
      ],
      [
        "Ġe",
        "y"
      ],
      [
        "ĠThe",
        "re"
      ],
      [
        "Ġben",
        "ef"
      ],
      [
        "Ġfe",
        "w"
      ],
      [
        "Ġcre",
        "ate"
      ],
      [
        "her",
        "s"
      ],
      [
        "om",
        "s"
      ],
      [
        "ul",
        "ation"
      ],
      [
        "er",
        "t"
      ],
      [
        "ab",
        "ility"
      ],
      [
        "Ġha",
        "pp"
      ],
      [
        "ĠA",
        "nd"
      ],
      [
        "âĢ",
        "Ļ"
      ],
      [
        "I",
        "t"
      ],
      [
        "in",
        "ed"
      ],
      [
        "-",
        "f"
      ],
      [
        "Ġty",
        "pe"
      ],
      [
        "Ġf",
        "low"
      ],
      [
        "Ġknow",
        "n"
      ],
      [
        "Ġ",
        "ide"
      ],
      [
        "Ġg",
        "rou"
      ],
      [
        "Ġo",
        "cc"
      ],
      [
        "Ġp",
        "os"
      ],
      [
        "Ġth",
        "ink"
      ],
      [
        "Ġc",
        "aus"
      ],
      [
        "ent",
        "ion"
      ],
      [
        "Ġh",
        "y"
      ],
      [
        "Ġp",
        "ract"
      ],
      [
        "Ġhum",
        "an"
      ],
      [
        "1",
        "5"
      ],
      [
        "l",
        "ine"
      ],
      [
        "Ġexam",
        "ple"
      ],
      [
        "ou",
        "se"
      ],
      [
        "Ġm",
        "em"
      ],
      [
        "i",
        "or"
      ],
      [
        "Ġs",
        "w"
      ],
      [
        "Ġs",
        "l"
      ],
      [
        "Ġpl",
        "ace"
      ],
      [
        "Ġcont",
        "ain"
      ],
      [
        "Ġch",
        "ang"
      ],
      [
        "it",
        "al"
      ],
      [
        "Ġlear",
        "n"
      ],
      [
        "Ġcont",
        "rol"
      ],
      [
        "ord",
        "ing"
      ],
      [
        "ro",
        "ss"
      ],
      [
        "Ġag",
        "ain"
      ],
      [
        "_",
        "_"
      ],
      [
        "Ġs",
        "er"
      ],
      [
        "Ġo",
        "pt"
      ],
      [
        "c",
        "o"
      ],
      [
        "a",
        "red"
      ],
      [
        "Ġchild",
        "ren"
      ],
      [
        "Ġc",
        "ause"
      ],
      [
        "Ġr",
        "un"
      ],
      [
        "oo",
        "king"
      ],
      [
        "at",
        "s"
      ],
      [
        "if",
        "y"
      ],
      [
        "ro",
        "du"
      ],
      [
        "Ġth",
        "ough"
      ],
      [
        "Ġfe",
        "el"
      ],
      [
        "Ġ",
        "ess"
      ],
      [
        "Ġth",
        "ree"
      ],
      [
        "Ġbe",
        "l"
      ],
      [
        "Ġper",
        "form"
      ],
      [
        "Ġs",
        "chool"
      ],
      [
        "Ġm",
        "us"
      ],
      [
        "'",
        "ll"
      ],
      [
        "Ġs",
        "ure"
      ],
      [
        "Ġpro",
        "ject"
      ],
      [
        "a",
        "pt"
      ],
      [
        "is",
        "m"
      ],
      [
        "o",
        "id"
      ],
      [
        "Ġc",
        "ount"
      ],
      [
        "ter",
        "s"
      ],
      [
        "at",
        "or"
      ],
      [
        "Ġth",
        "ings"
      ],
      [
        "3",
        "0"
      ],
      [
        "Ġc",
        "al"
      ],
      [
        "Ġl",
        "ow"
      ],
      [
        "Ġm",
        "ust"
      ],
      [
        "1",
        "8"
      ],
      [
        "Ġe",
        "le"
      ],
      [
        "iqu",
        "e"
      ],
      [
        "Ġp",
        "ress"
      ],
      [
        "in",
        "ess"
      ],
      [
        "Ġh",
        "ard"
      ],
      [
        "Ġd",
        "el"
      ],
      [
        "Ġpre",
        "vent"
      ],
      [
        "Ġd",
        "am"
      ],
      [
        "Ġb",
        "ir"
      ],
      [
        "he",
        "re"
      ],
      [
        "Ġind",
        "ivid"
      ],
      [
        "Ġare",
        "a"
      ],
      [
        "n",
        "er"
      ],
      [
        "ĠA",
        "d"
      ],
      [
        "Ġcle",
        "an"
      ],
      [
        "r",
        "al"
      ],
      [
        "Ġt",
        "re"
      ],
      [
        "Ġc",
        "ost"
      ],
      [
        "eth",
        "ing"
      ],
      [
        "Ġpot",
        "ential"
      ],
      [
        "Ġp",
        "hys"
      ],
      [
        "ĠHow",
        "ever"
      ],
      [
        "ĠW",
        "hen"
      ],
      [
        "Ġcall",
        "ed"
      ],
      [
        "o",
        "le"
      ],
      [
        "Ġb",
        "as"
      ],
      [
        "Ġme",
        "as"
      ],
      [
        "Ġsur",
        "f"
      ],
      [
        "Ġph",
        "ot"
      ],
      [
        "Ġapp",
        "ro"
      ],
      [
        "Ġde",
        "v"
      ],
      [
        "iv",
        "en"
      ],
      [
        "m",
        "e"
      ],
      [
        "Ġg",
        "r"
      ],
      [
        "Ġb",
        "i"
      ],
      [
        "ar",
        "ing"
      ],
      [
        "e",
        "x"
      ],
      [
        "g",
        "en"
      ],
      [
        "Ġcon",
        "f"
      ],
      [
        "ĠS",
        "o"
      ],
      [
        "mer",
        "ic"
      ],
      [
        "Ġwh",
        "y"
      ],
      [
        "Ġwith",
        "in"
      ],
      [
        "om",
        "p"
      ],
      [
        "Ġcon",
        "n"
      ],
      [
        "iel",
        "d"
      ],
      [
        "Ġcon",
        "st"
      ],
      [
        "Ġcont",
        "in"
      ],
      [
        "ic",
        "le"
      ],
      [
        "ĠS",
        "c"
      ],
      [
        "Ġs",
        "our"
      ],
      [
        "Ġcur",
        "rent"
      ],
      [
        "-",
        "c"
      ],
      [
        "a",
        "x"
      ],
      [
        "en",
        "se"
      ],
      [
        "ill",
        "s"
      ],
      [
        "u",
        "g"
      ],
      [
        "ir",
        "c"
      ],
      [
        "Ġp",
        "ub"
      ],
      [
        "'",
        "ve"
      ],
      [
        "a",
        "pe"
      ],
      [
        "Ġt",
        "ry"
      ],
      [
        "Ġre",
        "al"
      ],
      [
        "er",
        "n"
      ],
      [
        "Ġexper",
        "ience"
      ],
      [
        "Ġsom",
        "ething"
      ],
      [
        "l",
        "ing"
      ],
      [
        "Ġm",
        "ove"
      ],
      [
        "at",
        "ch"
      ],
      [
        "e",
        "red"
      ],
      [
        "ent",
        "al"
      ],
      [
        "t",
        "o"
      ],
      [
        "..",
        "."
      ],
      [
        "p",
        "r"
      ],
      [
        "Ġre",
        "st"
      ],
      [
        "Ġinclud",
        "e"
      ],
      [
        "Ġspec",
        "ific"
      ],
      [
        "Ġab",
        "le"
      ],
      [
        "Ġc",
        "ap"
      ],
      [
        "Ġm",
        "ark"
      ],
      [
        "ent",
        "ly"
      ],
      [
        "im",
        "e"
      ],
      [
        "Ġs",
        "it"
      ],
      [
        "i",
        "ents"
      ],
      [
        "in",
        "ation"
      ],
      [
        "Ġto",
        "ol"
      ],
      [
        "Ġre",
        "ally"
      ],
      [
        "Ġd",
        "ue"
      ],
      [
        "Ġnat",
        "ural"
      ],
      [
        "Ġst",
        "ep"
      ],
      [
        "b",
        "r"
      ],
      [
        "Ġfollow",
        "ing"
      ],
      [
        "Ġsign",
        "ific"
      ],
      [
        "ivers",
        "ity"
      ],
      [
        "i",
        "ver"
      ],
      [
        "an",
        "k"
      ],
      [
        "Ġcons",
        "ider"
      ],
      [
        "ere",
        "st"
      ],
      [
        "oc",
        "us"
      ],
      [
        "Ġst",
        "and"
      ],
      [
        "Ġposs",
        "ible"
      ],
      [
        "Ġc",
        "our"
      ],
      [
        "Ġwe",
        "e"
      ],
      [
        "Ġav",
        "ail"
      ],
      [
        "Ġcol",
        "or"
      ],
      [
        "Ġsy",
        "m"
      ],
      [
        "Ġf",
        "ree"
      ],
      [
        "Ġan",
        "other"
      ],
      [
        "5",
        "0"
      ],
      [
        "Ġim",
        "m"
      ],
      [
        "Ġl",
        "ot"
      ],
      [
        "er",
        "tain"
      ],
      [
        "end",
        "s"
      ],
      [
        "ect",
        "ed"
      ],
      [
        "Ġbec",
        "ome"
      ],
      [
        "Ġ",
        "ident"
      ],
      [
        "us",
        "h"
      ],
      [
        "Ġprog",
        "ram"
      ],
      [
        "Ġfun",
        "ction"
      ],
      [
        "ak",
        "es"
      ],
      [
        "Ġgo",
        "ing"
      ],
      [
        "Ġbl",
        "ood"
      ],
      [
        "Ġvari",
        "ous"
      ],
      [
        "Ġcon",
        "d"
      ],
      [
        "ĠP",
        "l"
      ],
      [
        "Ġhe",
        "ad"
      ],
      [
        "Ġadd",
        "ition"
      ],
      [
        "Ġf",
        "ish"
      ],
      [
        "Ġp",
        "ut"
      ],
      [
        "Ġdire",
        "ct"
      ],
      [
        "iz",
        "ation"
      ],
      [
        "Ġam",
        "ount"
      ],
      [
        "Ġo",
        "per"
      ],
      [
        "Ġo",
        "ld"
      ],
      [
        "p",
        "ort"
      ],
      [
        "Ġcom",
        "e"
      ],
      [
        "S",
        "t"
      ],
      [
        "ra",
        "w"
      ],
      [
        "us",
        "s"
      ],
      [
        "ĠA",
        "meric"
      ],
      [
        "Ġhe",
        "re"
      ],
      [
        "Ġso",
        "il"
      ],
      [
        "Ġimp",
        "act"
      ],
      [
        "Ġal",
        "ways"
      ],
      [
        "ed",
        "s"
      ],
      [
        "Ġst",
        "ate"
      ],
      [
        "Ġan",
        "t"
      ],
      [
        "Ġlit",
        "tle"
      ],
      [
        "l",
        "and"
      ],
      [
        "o",
        "ot"
      ],
      [
        "Ġme",
        "ans"
      ],
      [
        "th",
        "ing"
      ],
      [
        "Ġap",
        "pe"
      ],
      [
        "o",
        "f"
      ],
      [
        "Ġcell",
        "s"
      ],
      [
        "os",
        "ed"
      ],
      [
        "is",
        "hed"
      ],
      [
        "1",
        "1"
      ],
      [
        "Ġneed",
        "s"
      ],
      [
        "Ġle",
        "t"
      ],
      [
        "Ġl",
        "ast"
      ],
      [
        "Ġse",
        "ver"
      ],
      [
        "Ġf",
        "il"
      ],
      [
        "Ġop",
        "en"
      ],
      [
        "et",
        "ic"
      ],
      [
        "Ġinv",
        "ol"
      ],
      [
        "ĠA",
        "r"
      ],
      [
        "Ġhe",
        "at"
      ],
      [
        "Ġsec",
        "ond"
      ],
      [
        "Ġn",
        "ut"
      ],
      [
        "ĠWh",
        "ich"
      ],
      [
        "ast",
        "e"
      ],
      [
        "Ġcomp",
        "ut"
      ],
      [
        "Ġre",
        "t"
      ],
      [
        "r",
        "ation"
      ],
      [
        "Ġp",
        "ass"
      ],
      [
        "Ġb",
        "us"
      ],
      [
        "Ġc",
        "r"
      ],
      [
        "Ġe",
        "l"
      ],
      [
        "Ġl",
        "im"
      ],
      [
        "av",
        "es"
      ],
      [
        "a",
        "per"
      ],
      [
        "Ġp",
        "ar"
      ],
      [
        "Ġs",
        "ay"
      ],
      [
        "Ġsp",
        "ace"
      ],
      [
        "cc",
        "ess"
      ],
      [
        "Ġe",
        "c"
      ],
      [
        "an",
        "e"
      ],
      [
        "d",
        "e"
      ],
      [
        "ard",
        "en"
      ],
      [
        "Ġcom",
        "b"
      ],
      [
        "Ġst",
        "ruct"
      ],
      [
        "Ġh",
        "ig"
      ],
      [
        "Ġc",
        "ut"
      ],
      [
        "ic",
        "ro"
      ],
      [
        "on",
        "es"
      ],
      [
        "Ġ",
        "es"
      ],
      [
        "Ġproble",
        "m"
      ],
      [
        "Ġs",
        "ize"
      ],
      [
        "Ġm",
        "ult"
      ],
      [
        "Ġrequ",
        "ire"
      ],
      [
        "e",
        "e"
      ],
      [
        "Ġf",
        "ocus"
      ],
      [
        "Ġ",
        "est"
      ],
      [
        "Ġtyp",
        "es"
      ],
      [
        "Ġc",
        "am"
      ],
      [
        "c",
        "le"
      ],
      [
        "Ġare",
        "as"
      ],
      [
        "Ġan",
        "al"
      ],
      [
        "Ġavail",
        "able"
      ],
      [
        "o",
        "ad"
      ],
      [
        "ate",
        "g"
      ],
      [
        "r",
        "ies"
      ],
      [
        "Ġsignific",
        "ant"
      ],
      [
        "Ġv",
        "ol"
      ],
      [
        "Ġens",
        "ure"
      ],
      [
        "Ġind",
        "ust"
      ],
      [
        "Ġun",
        "t"
      ],
      [
        "are",
        "nt"
      ],
      [
        "Ġlear",
        "ning"
      ],
      [
        "b",
        "ers"
      ],
      [
        "Ġf",
        "in"
      ],
      [
        "o",
        "ver"
      ],
      [
        "Ġsc",
        "ient"
      ],
      [
        "Ġr",
        "ange"
      ],
      [
        "Ġdise",
        "ase"
      ],
      [
        "o",
        "es"
      ],
      [
        "Ġfe",
        "ature"
      ],
      [
        "Ġme",
        "an"
      ],
      [
        "ip",
        "s"
      ],
      [
        "Ġprov",
        "id"
      ],
      [
        "Ġsever",
        "al"
      ],
      [
        "or",
        "n"
      ],
      [
        "ĠI",
        "s"
      ],
      [
        "Ġpro",
        "m"
      ],
      [
        "ie",
        "ve"
      ],
      [
        "o",
        "x"
      ],
      [
        "Ġc",
        "irc"
      ],
      [
        "Ġte",
        "am"
      ],
      [
        "Ġdevelop",
        "ment"
      ],
      [
        "Ġprof",
        "ess"
      ],
      [
        "ĠE",
        "x"
      ],
      [
        "i",
        "od"
      ],
      [
        "ard",
        "s"
      ],
      [
        "end",
        "ing"
      ],
      [
        "oc",
        "ial"
      ],
      [
        "Ġpres",
        "ent"
      ],
      [
        "ac",
        "es"
      ],
      [
        "pe",
        "cial"
      ],
      [
        "Ġus",
        "ually"
      ],
      [
        "Ġtim",
        "es"
      ],
      [
        "Ġo",
        "il"
      ],
      [
        "Ġess",
        "ential"
      ],
      [
        "Ġm",
        "ot"
      ],
      [
        "Ġint",
        "erest"
      ],
      [
        "Ġen",
        "ough"
      ],
      [
        "Ġke",
        "y"
      ],
      [
        "Ġris",
        "k"
      ],
      [
        "end",
        "ed"
      ],
      [
        "Ġma",
        "kes"
      ],
      [
        "if",
        "ied"
      ],
      [
        "ĠS",
        "h"
      ],
      [
        "an",
        "ces"
      ],
      [
        "Ġanim",
        "als"
      ],
      [
        "Ġapp",
        "lic"
      ],
      [
        "Ġbe",
        "g"
      ],
      [
        "our",
        "s"
      ],
      [
        "Ġl",
        "ay"
      ],
      [
        "Ġg",
        "ive"
      ],
      [
        "il",
        "ar"
      ],
      [
        "om",
        "es"
      ],
      [
        "Ġc",
        "y"
      ],
      [
        "Ġqu",
        "ality"
      ],
      [
        "Ġeffect",
        "ive"
      ],
      [
        "-",
        "d"
      ],
      [
        "Ġmon",
        "th"
      ],
      [
        "ar",
        "c"
      ],
      [
        "em",
        "s"
      ],
      [
        "-",
        "p"
      ],
      [
        "ab",
        "ly"
      ],
      [
        "Ġb",
        "ig"
      ],
      [
        "Ġspec",
        "ial"
      ],
      [
        "ot",
        "e"
      ],
      [
        "Ġeng",
        "ine"
      ],
      [
        "f",
        "ort"
      ],
      [
        "Ġacc",
        "ess"
      ],
      [
        "Ġs",
        "ens"
      ],
      [
        "a",
        "z"
      ],
      [
        "Ġsystem",
        "s"
      ],
      [
        "W",
        "e"
      ],
      [
        "Ġcond",
        "itions"
      ],
      [
        "âĢ",
        "Ķ"
      ],
      [
        "Ġb",
        "ased"
      ],
      [
        "ou",
        "th"
      ],
      [
        "Ġmaterial",
        "s"
      ],
      [
        "Ġtechn",
        "ology"
      ],
      [
        "t",
        "on"
      ],
      [
        "Ġs",
        "al"
      ],
      [
        "Ġp",
        "ost"
      ],
      [
        "Ġche",
        "m"
      ],
      [
        "Ġ",
        "$"
      ],
      [
        "Ġh",
        "ist"
      ],
      [
        "od",
        "e"
      ],
      [
        "Ġob",
        "ject"
      ],
      [
        "a",
        "f"
      ],
      [
        "Ġf",
        "re"
      ],
      [
        "Ġocc",
        "ur"
      ],
      [
        "ĠC",
        "an"
      ],
      [
        "'",
        "m"
      ],
      [
        "Ġch",
        "o"
      ],
      [
        "ĠC",
        "l"
      ],
      [
        "Ġm",
        "ill"
      ],
      [
        "is",
        "ion"
      ],
      [
        "al",
        "k"
      ],
      [
        "g",
        "n"
      ],
      [
        "Ġd",
        "ig"
      ],
      [
        "a",
        "u"
      ],
      [
        "h",
        "or"
      ],
      [
        "1",
        "6"
      ],
      [
        "Ġl",
        "ist"
      ],
      [
        "Ġc",
        "ertain"
      ],
      [
        "at",
        "ic"
      ],
      [
        "Ġs",
        "ide"
      ],
      [
        "ĠR",
        "e"
      ],
      [
        "Ġeff",
        "ic"
      ],
      [
        "Ġcons",
        "um"
      ],
      [
        "a",
        "ut"
      ],
      [
        "or",
        "ies"
      ],
      [
        "oo",
        "se"
      ],
      [
        "Ġo",
        "pp"
      ],
      [
        "en",
        "cy"
      ],
      [
        "i",
        "res"
      ],
      [
        "Ġsurf",
        "ace"
      ],
      [
        "Ġde",
        "m"
      ],
      [
        "Ġm",
        "il"
      ],
      [
        "v",
        "iew"
      ],
      [
        "A",
        "s"
      ],
      [
        "Ġs",
        "ound"
      ],
      [
        "Ġdet",
        "erm"
      ],
      [
        "Ġpress",
        "ure"
      ],
      [
        "Ġimpro",
        "ve"
      ],
      [
        "Ġpartic",
        "ular"
      ],
      [
        "r",
        "ing"
      ],
      [
        "b",
        "e"
      ],
      [
        "Ġor",
        "der"
      ],
      [
        "Ġn",
        "on"
      ],
      [
        "ĠI",
        "nd"
      ],
      [
        "ĠW",
        "ith"
      ],
      [
        "olog",
        "ical"
      ],
      [
        "ust",
        "om"
      ],
      [
        "Ġunt",
        "il"
      ],
      [
        "Ġpr",
        "im"
      ],
      [
        "ab",
        "les"
      ],
      [
        "1",
        "4"
      ],
      [
        "Ġto",
        "get"
      ],
      [
        "Ġtoget",
        "her"
      ],
      [
        "p",
        "ar"
      ],
      [
        "Ġw",
        "ind"
      ],
      [
        "b",
        "on"
      ],
      [
        "Ġrec",
        "omm"
      ],
      [
        "or",
        "ing"
      ],
      [
        "W",
        "hen"
      ],
      [
        "ur",
        "ther"
      ],
      [
        "Ġbeh",
        "av"
      ],
      [
        "Ġproble",
        "ms"
      ],
      [
        "Ġed",
        "uc"
      ],
      [
        "Ġlevel",
        "s"
      ],
      [
        "it",
        "ing"
      ],
      [
        "Ġs",
        "ince"
      ],
      [
        "pl",
        "es"
      ],
      [
        "as",
        "ter"
      ],
      [
        "ĠB",
        "y"
      ],
      [
        ")",
        "Ċ"
      ],
      [
        "Ġ",
        "z"
      ],
      [
        "Ġb",
        "ra"
      ],
      [
        "as",
        "ing"
      ],
      [
        "Ġwe",
        "ight"
      ],
      [
        "ic",
        "ation"
      ],
      [
        "Ġl",
        "ine"
      ],
      [
        "Ġwor",
        "ks"
      ],
      [
        "Ġdes",
        "c"
      ],
      [
        "Ġaw",
        "ay"
      ],
      [
        "ol",
        "ution"
      ],
      [
        "in",
        "c"
      ],
      [
        "Ġe",
        "t"
      ],
      [
        "p",
        "ut"
      ],
      [
        "l",
        "u"
      ],
      [
        "Ġfam",
        "ily"
      ],
      [
        "ain",
        "s"
      ],
      [
        "Ġwor",
        "king"
      ],
      [
        "ĠR",
        "es"
      ],
      [
        "Ġne",
        "ar"
      ],
      [
        "ate",
        "ly"
      ],
      [
        "Ġfe",
        "ed"
      ],
      [
        "Ġs",
        "un"
      ],
      [
        "le",
        "t"
      ],
      [
        "Ġt",
        "er"
      ],
      [
        "Ġrep",
        "ort"
      ],
      [
        "Y",
        "ou"
      ],
      [
        "Ġn",
        "ame"
      ],
      [
        "Ġsu",
        "ccess"
      ],
      [
        "Ġch",
        "all"
      ],
      [
        "Ġ",
        "Ġ"
      ],
      [
        "Ġ",
        "&"
      ],
      [
        "Ġ",
        "="
      ],
      [
        "s",
        "elf"
      ],
      [
        "Ġproduct",
        "s"
      ],
      [
        "Ġsh",
        "ort"
      ],
      [
        "ur",
        "y"
      ],
      [
        "Ġm",
        "ov"
      ],
      [
        "1",
        "3"
      ],
      [
        "Ġgrou",
        "p"
      ],
      [
        "Ġm",
        "ar"
      ],
      [
        "ut",
        "es"
      ],
      [
        "c",
        "ul"
      ],
      [
        "om",
        "en"
      ],
      [
        "a",
        "h"
      ],
      [
        "ut",
        "ure"
      ],
      [
        "Ġre",
        "pl"
      ],
      [
        "Ġen",
        "c"
      ],
      [
        "ĠN",
        "ew"
      ],
      [
        "Ġf",
        "ore"
      ],
      [
        "Ġd",
        "ays"
      ],
      [
        "Ġmain",
        "tain"
      ],
      [
        "pecial",
        "ly"
      ],
      [
        "Ġne",
        "xt"
      ],
      [
        "em",
        "ber"
      ],
      [
        "Ġcomple",
        "te"
      ],
      [
        "in",
        "ter"
      ],
      [
        "Ġprot",
        "ect"
      ],
      [
        "um",
        "p"
      ],
      [
        "Ġc",
        "ult"
      ],
      [
        "Ġcom",
        "es"
      ],
      [
        "Ġqu",
        "ick"
      ],
      [
        "Ġma",
        "ch"
      ],
      [
        "one",
        "y"
      ],
      [
        "Ġal",
        "ong"
      ],
      [
        "Ġsu",
        "gg"
      ],
      [
        "Ġt",
        "urn"
      ],
      [
        "Ġincre",
        "ase"
      ],
      [
        "ore",
        "d"
      ],
      [
        "ic",
        "ult"
      ],
      [
        "Ġk",
        "ind"
      ],
      [
        "Ġle",
        "g"
      ],
      [
        "o",
        "int"
      ],
      [
        "w",
        "are"
      ],
      [
        "Ġre",
        "le"
      ],
      [
        "f",
        "act"
      ],
      [
        "Ġne",
        "cess"
      ],
      [
        "j",
        "or"
      ],
      [
        "Ġear",
        "ly"
      ],
      [
        "Ġresult",
        "s"
      ],
      [
        "im",
        "es"
      ],
      [
        "Ġeas",
        "y"
      ],
      [
        "Ġc",
        "ase"
      ],
      [
        "Ġha",
        "ving"
      ],
      [
        "Ġg",
        "arden"
      ],
      [
        "ĠT",
        "hat"
      ],
      [
        "Ġt",
        "ru"
      ],
      [
        "Ġper",
        "iod"
      ],
      [
        "Ġother",
        "s"
      ],
      [
        "it",
        "her"
      ],
      [
        "Ġcour",
        "se"
      ],
      [
        "Ġs",
        "ing"
      ],
      [
        "The",
        "re"
      ],
      [
        "N",
        "A"
      ],
      [
        "Ġloc",
        "al"
      ],
      [
        "os",
        "p"
      ],
      [
        "Ġlike",
        "ly"
      ],
      [
        "-",
        "l"
      ],
      [
        "ĠUn",
        "iversity"
      ],
      [
        "Ġredu",
        "ce"
      ],
      [
        "1",
        "7"
      ],
      [
        "un",
        "e"
      ],
      [
        "Ġhealth",
        "y"
      ],
      [
        "Ġra",
        "d"
      ],
      [
        "o",
        "or"
      ],
      [
        "Ġf",
        "ri"
      ],
      [
        "age",
        "ment"
      ],
      [
        "on",
        "om"
      ],
      [
        "Ġgrow",
        "th"
      ],
      [
        "Ġtreat",
        "ment"
      ],
      [
        "f",
        "er"
      ],
      [
        "er",
        "c"
      ],
      [
        "Ġhig",
        "her"
      ],
      [
        "ĠS",
        "e"
      ],
      [
        "Ġc",
        "ou"
      ],
      [
        "w",
        "ork"
      ],
      [
        "Ġd",
        "ry"
      ],
      [
        "og",
        "n"
      ],
      [
        "Ġf",
        "ull"
      ],
      [
        "ct",
        "or"
      ],
      [
        "Ġl",
        "ab"
      ],
      [
        "Ġbus",
        "iness"
      ],
      [
        "Ġsugg",
        "est"
      ],
      [
        "Ġstr",
        "ong"
      ],
      [
        "Ġpro",
        "te"
      ],
      [
        "ĠA",
        "t"
      ],
      [
        "âĢ",
        "¦"
      ],
      [
        "Ġs",
        "ocial"
      ],
      [
        "Ġdoes",
        "n"
      ],
      [
        "Ġg",
        "round"
      ],
      [
        "Ġst",
        "e"
      ],
      [
        "Ġchang",
        "es"
      ],
      [
        "Ġg",
        "reen"
      ],
      [
        "p",
        "or"
      ],
      [
        "at",
        "ors"
      ],
      [
        "Ġdog",
        "s"
      ],
      [
        "l",
        "ight"
      ],
      [
        "Ġt",
        "ur"
      ],
      [
        "-",
        "m"
      ],
      [
        "c",
        "hes"
      ],
      [
        "Ġact",
        "ually"
      ],
      [
        "Ġf",
        "ac"
      ],
      [
        "oo",
        "ks"
      ],
      [
        "Ġmeas",
        "ure"
      ],
      [
        "re",
        "t"
      ],
      [
        "Ġw",
        "arm"
      ],
      [
        "ag",
        "ing"
      ],
      [
        "b",
        "it"
      ],
      [
        "Ġiss",
        "ues"
      ],
      [
        "Ġsim",
        "ilar"
      ],
      [
        "i",
        "pp"
      ],
      [
        "Ġsim",
        "ple"
      ],
      [
        "n",
        "ot"
      ],
      [
        "Ġl",
        "ower"
      ],
      [
        "Ġro",
        "le"
      ],
      [
        "Ġun",
        "ique"
      ],
      [
        "Ġle",
        "ast"
      ],
      [
        "Ġso",
        "ft"
      ],
      [
        "Ġl",
        "ive"
      ],
      [
        "Ġe",
        "at"
      ],
      [
        "Ġhe",
        "art"
      ],
      [
        "l",
        "er"
      ],
      [
        "is",
        "ed"
      ],
      [
        "âĢĻ",
        "s"
      ],
      [
        "Ġre",
        "ason"
      ],
      [
        "Ġre",
        "ce"
      ],
      [
        "Ġor",
        "ig"
      ],
      [
        "re",
        "am"
      ],
      [
        "Ġw",
        "ays"
      ],
      [
        "Ġsaf",
        "e"
      ],
      [
        "Ġma",
        "jor"
      ],
      [
        "Ġre",
        "d"
      ],
      [
        "Ġdi",
        "et"
      ],
      [
        "Ġres",
        "our"
      ],
      [
        "Ġav",
        "oid"
      ],
      [
        "A",
        "n"
      ],
      [
        "Ġan",
        "s"
      ],
      [
        "ast",
        "ic"
      ],
      [
        "ag",
        "n"
      ],
      [
        "Ġes",
        "pecially"
      ],
      [
        "Ġmod",
        "el"
      ],
      [
        "Ġp",
        "ie"
      ],
      [
        "Ġc",
        "ustom"
      ],
      [
        "iv",
        "ity"
      ],
      [
        "Ġa",
        "ge"
      ],
      [
        "iz",
        "ing"
      ],
      [
        "--",
        "--"
      ],
      [
        "Ġ",
        "["
      ],
      [
        "Ġf",
        "uture"
      ],
      [
        "Ġb",
        "ro"
      ],
      [
        "ĠT",
        "e"
      ],
      [
        "re",
        "ct"
      ],
      [
        "Ġs",
        "um"
      ],
      [
        "Ġche",
        "ck"
      ],
      [
        "am",
        "es"
      ],
      [
        "Ġm",
        "ind"
      ],
      [
        "f",
        "ect"
      ],
      [
        "Ġf",
        "ar"
      ],
      [
        "Ġ",
        "i"
      ],
      [
        "ust",
        "ain"
      ],
      [
        "Ġac",
        "ross"
      ],
      [
        "Ġdam",
        "age"
      ],
      [
        "Ġinv",
        "est"
      ],
      [
        "at",
        "ory"
      ],
      [
        "Ġey",
        "e"
      ],
      [
        "il",
        "ities"
      ],
      [
        "Ġv",
        "ide"
      ],
      [
        "ra",
        "g"
      ],
      [
        "ĠB",
        "e"
      ],
      [
        "-",
        "t"
      ],
      [
        "Ġm",
        "icro"
      ],
      [
        "Ġaff",
        "ect"
      ],
      [
        "an",
        "n"
      ],
      [
        "Ġprodu",
        "ction"
      ],
      [
        "ĠD",
        "e"
      ],
      [
        "Ġsk",
        "in"
      ],
      [
        "2",
        "5"
      ],
      [
        "Ġv",
        "ir"
      ],
      [
        "Ġw",
        "rit"
      ],
      [
        "Ġd",
        "one"
      ],
      [
        "v",
        "ious"
      ],
      [
        "Ġf",
        "our"
      ],
      [
        "Ġfre",
        "qu"
      ],
      [
        "Ġchar",
        "acter"
      ],
      [
        "Ġth",
        "ing"
      ],
      [
        "Ġp",
        "red"
      ],
      [
        "Ġval",
        "ue"
      ],
      [
        "Ġmark",
        "et"
      ],
      [
        "4",
        "0"
      ],
      [
        "Ġn",
        "orm"
      ],
      [
        "Ġne",
        "ver"
      ],
      [
        "ĠC",
        "on"
      ],
      [
        "ot",
        "t"
      ],
      [
        "Ġass",
        "oci"
      ],
      [
        "Ġbeg",
        "in"
      ],
      [
        "or",
        "th"
      ],
      [
        "ver",
        "age"
      ],
      [
        "Ġg",
        "as"
      ],
      [
        "Ġh",
        "im"
      ],
      [
        "Ġdiff",
        "icult"
      ],
      [
        "ĠS",
        "ome"
      ],
      [
        "Ġacc",
        "ording"
      ],
      [
        "Ġb",
        "atter"
      ],
      [
        "ĠS",
        "p"
      ],
      [
        "Ġp",
        "aper"
      ],
      [
        "l",
        "ish"
      ],
      [
        "Ġb",
        "it"
      ],
      [
        "j",
        "oy"
      ],
      [
        "Ġrese",
        "arc"
      ],
      [
        "he",
        "m"
      ],
      [
        "ig",
        "ns"
      ],
      [
        "ress",
        "ion"
      ],
      [
        "Ġreg",
        "ular"
      ],
      [
        "Ġco",
        "ol"
      ],
      [
        "Ġhelp",
        "s"
      ],
      [
        "Ġs",
        "ays"
      ],
      [
        "Ġagain",
        "st"
      ],
      [
        "Ġre",
        "act"
      ],
      [
        "ch",
        "an"
      ],
      [
        "an",
        "ced"
      ],
      [
        "Ġf",
        "ield"
      ],
      [
        "y",
        "m"
      ],
      [
        "ĠY",
        "our"
      ],
      [
        "Ġh",
        "ouse"
      ],
      [
        "Ġl",
        "oss"
      ],
      [
        "Ġbenef",
        "its"
      ],
      [
        "Ġp",
        "ast"
      ],
      [
        "Ġb",
        "ook"
      ],
      [
        "us",
        "ion"
      ],
      [
        "Ġg",
        "iven"
      ],
      [
        "m",
        "ost"
      ],
      [
        "ĠE",
        "n"
      ],
      [
        "Ġfl",
        "u"
      ],
      [
        "Ġpop",
        "ular"
      ],
      [
        "ra",
        "y"
      ],
      [
        "Ġl",
        "ooking"
      ],
      [
        "Ġpro",
        "b"
      ],
      [
        "est",
        "ions"
      ],
      [
        "y",
        "le"
      ],
      [
        "b",
        "o"
      ],
      [
        "Ġwh",
        "ite"
      ],
      [
        "ip",
        "le"
      ],
      [
        "Ġpart",
        "s"
      ],
      [
        "Ġg",
        "re"
      ],
      [
        "iss",
        "ion"
      ],
      [
        "Ġab",
        "ove"
      ],
      [
        "s",
        "ide"
      ],
      [
        "th",
        "ough"
      ],
      [
        "iv",
        "ed"
      ],
      [
        "Ġpub",
        "lic"
      ],
      [
        "Ġa",
        "ch"
      ],
      [
        "am",
        "m"
      ],
      [
        "led",
        "ge"
      ],
      [
        "u",
        "ro"
      ],
      [
        "Ġchem",
        "ical"
      ],
      [
        "ward",
        "s"
      ],
      [
        "Ġeffect",
        "s"
      ],
      [
        "om",
        "et"
      ],
      [
        "ff",
        "ic"
      ],
      [
        "Ġcle",
        "ar"
      ],
      [
        "!",
        "ĊĊ"
      ],
      [
        "ĠC",
        "ol"
      ],
      [
        "Ġelect",
        "ric"
      ],
      [
        "Ġcont",
        "rib"
      ],
      [
        "Ġresp",
        "ons"
      ],
      [
        "Ġl",
        "and"
      ],
      [
        "Ġcomp",
        "on"
      ],
      [
        "Ġob",
        "s"
      ],
      [
        "Ġinter",
        "n"
      ],
      [
        "id",
        "ence"
      ],
      [
        "Ġle",
        "ft"
      ],
      [
        "Ġ",
        "Z"
      ],
      [
        "Ġdet",
        "ail"
      ],
      [
        "Ġw",
        "ide"
      ],
      [
        "Ġdesign",
        "ed"
      ],
      [
        "ĠB",
        "l"
      ],
      [
        "Ġab",
        "s"
      ],
      [
        "Ġsing",
        "le"
      ],
      [
        "Ġphys",
        "ical"
      ],
      [
        "pt",
        "oms"
      ],
      [
        "av",
        "or"
      ],
      [
        "Ġdisc",
        "uss"
      ],
      [
        "ĠP",
        "h"
      ],
      [
        "ib",
        "ility"
      ],
      [
        "Ġunderstand",
        "ing"
      ],
      [
        "Ġfact",
        "ors"
      ],
      [
        "Ġcl",
        "ose"
      ],
      [
        "Ġcon",
        "dition"
      ],
      [
        "ra",
        "ft"
      ],
      [
        "ĠâĢ",
        "Ķ"
      ],
      [
        "ens",
        "ive"
      ],
      [
        "u",
        "als"
      ],
      [
        "Ġwee",
        "k"
      ],
      [
        ")",
        "ĊĊ"
      ],
      [
        "Ġsour",
        "ce"
      ],
      [
        "Ġw",
        "r"
      ],
      [
        "Ġcomple",
        "x"
      ],
      [
        "h",
        "ing"
      ],
      [
        "Ġoff",
        "er"
      ],
      [
        "T",
        "o"
      ],
      [
        "Ġtra",
        "ining"
      ],
      [
        "Ġt",
        "erm"
      ],
      [
        "u",
        "fact"
      ],
      [
        "pl",
        "oy"
      ],
      [
        "Ġb",
        "al"
      ],
      [
        "Ġc",
        "ru"
      ],
      [
        "Ġw",
        "ood"
      ],
      [
        "is",
        "ing"
      ],
      [
        "!",
        "Ċ"
      ],
      [
        "Ġe",
        "gg"
      ],
      [
        "Ġex",
        "ce"
      ],
      [
        "Ġto",
        "day"
      ],
      [
        "Ġaut",
        "hor"
      ],
      [
        "Ġanim",
        "al"
      ],
      [
        "Ġh",
        "old"
      ],
      [
        "Ġon",
        "ce"
      ],
      [
        "Ġper",
        "cent"
      ],
      [
        "ort",
        "s"
      ],
      [
        "Ġen",
        "joy"
      ],
      [
        "ro",
        "ll"
      ],
      [
        "Ġcl",
        "imate"
      ],
      [
        "Ġallow",
        "s"
      ],
      [
        "Ġsk",
        "ills"
      ],
      [
        "Ġth",
        "in"
      ],
      [
        "Ġv",
        "iew"
      ],
      [
        "Ġget",
        "ting"
      ],
      [
        "Ġ",
        "er"
      ],
      [
        "Ġp",
        "et"
      ],
      [
        "Ġm",
        "ass"
      ],
      [
        "Ġw",
        "ild"
      ],
      [
        "Ġprodu",
        "ce"
      ],
      [
        "Ġve",
        "h"
      ],
      [
        "Ġe",
        "ither"
      ],
      [
        "Ġst",
        "ress"
      ],
      [
        "Ġsub",
        "st"
      ],
      [
        "in",
        "a"
      ],
      [
        "ort",
        "un"
      ],
      [
        "Ġrep",
        "res"
      ],
      [
        "W",
        "h"
      ],
      [
        "Ġg",
        "ame"
      ],
      [
        "Ġex",
        "pect"
      ],
      [
        "Ġab",
        "ility"
      ],
      [
        "Ġsm",
        "o"
      ],
      [
        "Ġprov",
        "ides"
      ],
      [
        "ĠO",
        "r"
      ],
      [
        "F",
        "or"
      ],
      [
        "Ġam",
        "ong"
      ],
      [
        "ang",
        "u"
      ],
      [
        "al",
        "f"
      ],
      [
        "Ġst",
        "op"
      ],
      [
        "E",
        "R"
      ],
      [
        "Ġspe",
        "ed"
      ],
      [
        "ĠIn",
        "st"
      ],
      [
        "c",
        "om"
      ],
      [
        "Ġf",
        "all"
      ],
      [
        "Ġl",
        "if"
      ],
      [
        "ĠU",
        "S"
      ],
      [
        "o",
        "pe"
      ],
      [
        "l",
        "ished"
      ],
      [
        "m",
        "ing"
      ],
      [
        "er",
        "y"
      ],
      [
        "Ġbl",
        "ack"
      ],
      [
        "Ġde",
        "g"
      ],
      [
        "read",
        "y"
      ],
      [
        "ore",
        "s"
      ],
      [
        "ru",
        "ction"
      ],
      [
        "le",
        "ment"
      ],
      [
        "Ġqu",
        "estion"
      ],
      [
        "y",
        "stem"
      ],
      [
        "Ġcar",
        "bon"
      ],
      [
        "le",
        "ction"
      ],
      [
        "Ġ",
        "vers"
      ],
      [
        "Ġvari",
        "ety"
      ],
      [
        "Ġen",
        "h"
      ],
      [
        "Ġcomput",
        "er"
      ],
      [
        "Ġve",
        "get"
      ],
      [
        "Ġn",
        "et"
      ],
      [
        "Ġf",
        "u"
      ],
      [
        "Ġsc",
        "ience"
      ],
      [
        "Ġp",
        "arent"
      ],
      [
        "Ġwhe",
        "ther"
      ],
      [
        "Ġm",
        "atter"
      ],
      [
        "res",
        "h"
      ],
      [
        "Ġpur",
        "p"
      ],
      [
        "Ġexper",
        "ien"
      ],
      [
        "Ġf",
        "urther"
      ],
      [
        "Ġb",
        "rain"
      ],
      [
        "ĠO",
        "n"
      ],
      [
        "id",
        "d"
      ],
      [
        "Ġcol",
        "l"
      ],
      [
        "Ġh",
        "ours"
      ],
      [
        "le",
        "ep"
      ],
      [
        "Ġd",
        "raw"
      ],
      [
        "ific",
        "ation"
      ],
      [
        "ra",
        "ph"
      ],
      [
        "ĠE",
        "ng"
      ],
      [
        "Ġnecess",
        "ary"
      ],
      [
        "Ġt",
        "ri"
      ],
      [
        "ist",
        "ic"
      ],
      [
        "ach",
        "ing"
      ],
      [
        "Ġsaf",
        "ety"
      ],
      [
        "Ġdiffere",
        "nce"
      ],
      [
        "Ġinter",
        "act"
      ],
      [
        "Ġperform",
        "ance"
      ],
      [
        "Ġb",
        "acter"
      ],
      [
        "ne",
        "y"
      ],
      [
        "Ġl",
        "ove"
      ],
      [
        "Ġt",
        "ell"
      ],
      [
        "ĠO",
        "ne"
      ],
      [
        "ĠI",
        "m"
      ],
      [
        "ĠA",
        "I"
      ],
      [
        "Ġf",
        "ru"
      ],
      [
        "al",
        "es"
      ],
      [
        "Ġ",
        "ill"
      ],
      [
        "it",
        "ch"
      ],
      [
        ",",
        "Ċ"
      ],
      [
        "Ġbu",
        "y"
      ],
      [
        "Ġgl",
        "ob"
      ],
      [
        "du",
        "ct"
      ],
      [
        "Ġconn",
        "ect"
      ],
      [
        "Ġneed",
        "ed"
      ],
      [
        "Ġbe",
        "low"
      ],
      [
        "Ġperson",
        "al"
      ],
      [
        "iqu",
        "es"
      ],
      [
        "ove",
        "red"
      ],
      [
        "2",
        "1"
      ],
      [
        "Ġal",
        "ready"
      ],
      [
        "Ġcon",
        "cer"
      ],
      [
        "*",
        "*"
      ],
      [
        "ib",
        "r"
      ],
      [
        "f",
        "or"
      ],
      [
        "eng",
        "th"
      ],
      [
        "Ġcommun",
        "ity"
      ],
      [
        "C",
        "h"
      ],
      [
        "Ġc",
        "rit"
      ],
      [
        "i",
        "k"
      ],
      [
        "ly",
        "ing"
      ],
      [
        "Ġhist",
        "ory"
      ],
      [
        "Ġindivid",
        "ual"
      ],
      [
        "Ġdo",
        "ing"
      ],
      [
        "Ġindust",
        "ry"
      ],
      [
        "Ġs",
        "n"
      ],
      [
        "og",
        "rap"
      ],
      [
        "Ġev",
        "ent"
      ],
      [
        "row",
        "n"
      ],
      [
        "ĠN",
        "o"
      ],
      [
        "Ġme",
        "chan"
      ],
      [
        "Ġm",
        "ix"
      ],
      [
        "a",
        "e"
      ],
      [
        "Ġresearc",
        "hers"
      ],
      [
        "Ġh",
        "ot"
      ],
      [
        "m",
        "an"
      ],
      [
        "dition",
        "al"
      ],
      [
        "Ġfeature",
        "s"
      ],
      [
        "ak",
        "en"
      ],
      [
        "Ġt",
        "ree"
      ],
      [
        "Ġind",
        "ic"
      ],
      [
        "Ġf",
        "at"
      ],
      [
        "Ġhapp",
        "en"
      ],
      [
        "Ġm",
        "o"
      ],
      [
        "Ġs",
        "ustain"
      ],
      [
        "Ġbre",
        "ak"
      ],
      [
        "Ġdesc",
        "rib"
      ],
      [
        "s",
        "c"
      ],
      [
        "re",
        "l"
      ],
      [
        "ir",
        "d"
      ],
      [
        "ed",
        "i"
      ],
      [
        "as",
        "k"
      ],
      [
        "Ġman",
        "ufact"
      ],
      [
        "Ġsym",
        "ptoms"
      ],
      [
        "Ġhy",
        "d"
      ],
      [
        "Ġe",
        "ver"
      ],
      [
        "Ġins",
        "ide"
      ],
      [
        "os",
        "ing"
      ],
      [
        "ut",
        "ions"
      ],
      [
        "ow",
        "s"
      ],
      [
        "Ġex",
        "ist"
      ],
      [
        "Ġtool",
        "s"
      ],
      [
        "Ġin",
        "it"
      ],
      [
        "j",
        "ust"
      ],
      [
        "Ġknow",
        "ledge"
      ],
      [
        "Ġcont",
        "ent"
      ],
      [
        "Ġstruct",
        "ure"
      ],
      [
        "er",
        "al"
      ],
      [
        "6",
        "0"
      ],
      [
        "ĠE",
        "ar"
      ],
      [
        "Ġas",
        "k"
      ],
      [
        "m",
        "it"
      ],
      [
        "Ġse",
        "lect"
      ],
      [
        "ver",
        "t"
      ],
      [
        "Ġle",
        "aves"
      ],
      [
        "Ġim",
        "age"
      ],
      [
        "Ġchall",
        "eng"
      ],
      [
        "Ġactiv",
        "ities"
      ],
      [
        "Ġrec",
        "ord"
      ],
      [
        "ĠA",
        "ll"
      ],
      [
        "Ġon",
        "line"
      ],
      [
        "il",
        "t"
      ],
      [
        "Ġbuild",
        "ing"
      ],
      [
        "2",
        "4"
      ],
      [
        "Ġart",
        "icle"
      ],
      [
        "ap",
        "s"
      ],
      [
        "Ġlong",
        "er"
      ],
      [
        "us",
        "e"
      ],
      [
        "Ġs",
        "low"
      ],
      [
        "Ġres",
        "ist"
      ],
      [
        "Ġrequ",
        "ired"
      ],
      [
        "ron",
        "t"
      ],
      [
        "Ġp",
        "an"
      ],
      [
        "b",
        "y"
      ],
      [
        "um",
        "ent"
      ],
      [
        "a",
        "pp"
      ],
      [
        "Ġo",
        "x"
      ],
      [
        "Ġse",
        "en"
      ],
      [
        "n",
        "am"
      ],
      [
        "Ġsu",
        "per"
      ],
      [
        "p",
        "ly"
      ],
      [
        "al",
        "ing"
      ],
      [
        ".",
        ","
      ],
      [
        "Ġstr",
        "ateg"
      ],
      [
        "g",
        "ar"
      ],
      [
        "av",
        "ing"
      ],
      [
        "g",
        "s"
      ],
      [
        "Ġqu",
        "estions"
      ],
      [
        "Ġm",
        "ention"
      ],
      [
        "Ġmin",
        "im"
      ],
      [
        "Ġf",
        "arm"
      ],
      [
        "Ġenvironment",
        "al"
      ],
      [
        "Ġcont",
        "act"
      ],
      [
        "Ġpat",
        "h"
      ],
      [
        "Ġs",
        "elf"
      ],
      [
        "Ġcomp",
        "any"
      ],
      [
        "ful",
        "ly"
      ],
      [
        "Ġmethod",
        "s"
      ],
      [
        "Ġpre",
        "c"
      ],
      [
        "Ġb",
        "ar"
      ],
      [
        "s",
        "el"
      ],
      [
        "Ġr",
        "ate"
      ],
      [
        "Ġhum",
        "ans"
      ],
      [
        "Ġcor",
        "rect"
      ],
      [
        "Ġper",
        "fect"
      ],
      [
        "Ġt",
        "aking"
      ],
      [
        "Ġde",
        "ep"
      ],
      [
        "u",
        "pp"
      ],
      [
        "Ġopp",
        "ortun"
      ],
      [
        "u",
        "ra"
      ],
      [
        "Ġp",
        "ay"
      ],
      [
        "Ġus",
        "er"
      ],
      [
        "Ġide",
        "a"
      ],
      [
        "Ġmonth",
        "s"
      ],
      [
        "ren",
        "g"
      ],
      [
        "Ġex",
        "erc"
      ],
      [
        "Ġinst",
        "all"
      ],
      [
        "Ġto",
        "t"
      ],
      [
        "Ġl",
        "iving"
      ],
      [
        "Ġpr",
        "int"
      ],
      [
        "Ġadd",
        "ress"
      ],
      [
        "Ġtyp",
        "ically"
      ],
      [
        "w",
        "ay"
      ],
      [
        "Ġcan",
        "cer"
      ],
      [
        "ere",
        "nce"
      ],
      [
        "Ġn",
        "ature"
      ],
      [
        "ill",
        "ed"
      ],
      [
        "Ġsome",
        "one"
      ],
      [
        "it",
        "es"
      ],
      [
        "Ġenc",
        "ou"
      ],
      [
        "Ġ",
        "Qu"
      ],
      [
        "Ġse",
        "ason"
      ],
      [
        "ct",
        "ions"
      ],
      [
        "d",
        "ing"
      ],
      [
        "Ġeas",
        "ily"
      ],
      [
        "Ġyou",
        "ng"
      ],
      [
        "r",
        "ate"
      ],
      [
        "Ġrem",
        "ov"
      ],
      [
        "in",
        "ary"
      ],
      [
        "ĠAmeric",
        "an"
      ],
      [
        "Ġwho",
        "le"
      ],
      [
        "A",
        "l"
      ],
      [
        "Ġne",
        "g"
      ],
      [
        "u",
        "le"
      ],
      [
        "Ġf",
        "it"
      ],
      [
        "ro",
        "om"
      ],
      [
        "Ġj",
        "our"
      ],
      [
        "Ġappe",
        "ar"
      ],
      [
        "Ġis",
        "n"
      ],
      [
        "2",
        "2"
      ],
      [
        "Ġactiv",
        "ity"
      ],
      [
        "erv",
        "ation"
      ],
      [
        "ys",
        "is"
      ],
      [
        "ĠW",
        "or"
      ],
      [
        "sel",
        "ves"
      ],
      [
        "Ġt",
        "ar"
      ],
      [
        "ien",
        "cy"
      ],
      [
        "Ġtre",
        "es"
      ],
      [
        "t",
        "ies"
      ],
      [
        "Ġpre",
        "p"
      ],
      [
        "Ġindivid",
        "uals"
      ],
      [
        "Ġtra",
        "vel"
      ],
      [
        "am",
        "p"
      ],
      [
        "Ġs",
        "qu"
      ],
      [
        "ĠC",
        "ent"
      ],
      [
        "er",
        "ve"
      ],
      [
        "Ġelect",
        "r"
      ],
      [
        "âĢ",
        "ĵ"
      ],
      [
        "Ġint",
        "rodu"
      ],
      [
        "Ġm",
        "at"
      ],
      [
        "Ġappro",
        "ach"
      ],
      [
        "__",
        "__"
      ],
      [
        "Ġpro",
        "p"
      ],
      [
        "Ġmin",
        "utes"
      ],
      [
        "Ġsit",
        "u"
      ],
      [
        "Ġ",
        "ut"
      ],
      [
        "Ġgener",
        "al"
      ],
      [
        "ur",
        "s"
      ],
      [
        "Ġgrow",
        "ing"
      ],
      [
        "Ġbehav",
        "ior"
      ],
      [
        "Ġ",
        "."
      ],
      [
        "Ġh",
        "or"
      ],
      [
        "Ġpos",
        "itive"
      ],
      [
        "n",
        "ces"
      ],
      [
        "Ġm",
        "oney"
      ],
      [
        "Ġans",
        "wer"
      ],
      [
        "Ġmill",
        "ion"
      ],
      [
        "ac",
        "hes"
      ],
      [
        "is",
        "es"
      ],
      [
        "Ġtechn",
        "iques"
      ],
      [
        "Ġext",
        "ra"
      ],
      [
        "Ġcru",
        "cial"
      ],
      [
        "Ġm",
        "ole"
      ],
      [
        "Ġh",
        "arm"
      ],
      [
        "ide",
        "red"
      ],
      [
        "u",
        "ck"
      ],
      [
        "Ġl",
        "a"
      ],
      [
        "am",
        "in"
      ],
      [
        "Ġro",
        "om"
      ],
      [
        "Ġl",
        "aw"
      ],
      [
        "he",
        "t"
      ],
      [
        "Ġcreat",
        "ing"
      ],
      [
        "Ġv",
        "ac"
      ],
      [
        "Ġvide",
        "o"
      ],
      [
        "Ġbr",
        "ing"
      ],
      [
        "Ġmed",
        "ical"
      ],
      [
        "re",
        "me"
      ],
      [
        "Ġent",
        "ire"
      ],
      [
        "Ġ",
        "ing"
      ],
      [
        "Ġrel",
        "ations"
      ],
      [
        "ure",
        "d"
      ],
      [
        ".\"",
        "Ċ"
      ],
      [
        "Ġcol",
        "d"
      ],
      [
        ")",
        ".Ċ"
      ],
      [
        "Ġw",
        "all"
      ],
      [
        "Ġj",
        "ob"
      ],
      [
        "Ġme",
        "et"
      ],
      [
        "S",
        "o"
      ],
      [
        "ĠD",
        "r"
      ],
      [
        "Ġp",
        "ort"
      ],
      [
        "Ġc",
        "ases"
      ],
      [
        "es",
        "e"
      ],
      [
        ".\"",
        "ĊĊ"
      ],
      [
        "Ġprim",
        "ary"
      ],
      [
        "z",
        "e"
      ],
      [
        "Ġover",
        "all"
      ],
      [
        "Ġpol",
        "l"
      ],
      [
        "Ġcol",
        "lect"
      ],
      [
        "Ġem",
        "b"
      ],
      [
        "Ġet",
        "c"
      ],
      [
        "angu",
        "age"
      ],
      [
        "Ġresour",
        "ces"
      ],
      [
        "um",
        "e"
      ],
      [
        "ver",
        "se"
      ],
      [
        "Ġst",
        "ay"
      ],
      [
        "ĠN",
        "e"
      ],
      [
        "Ġma",
        "gn"
      ],
      [
        "Ġus",
        "es"
      ],
      [
        "on",
        "st"
      ],
      [
        "Ġsol",
        "ution"
      ],
      [
        "g",
        "es"
      ],
      [
        "Ġbe",
        "aut"
      ],
      [
        "ra",
        "ms"
      ],
      [
        "Ġcom",
        "fort"
      ],
      [
        "ĠWh",
        "ile"
      ],
      [
        "im",
        "ent"
      ],
      [
        "Ġa",
        "ud"
      ],
      [
        "Ġman",
        "agement"
      ],
      [
        "Ġm",
        "en"
      ],
      [
        "Ġrec",
        "ogn"
      ],
      [
        "Ġcons",
        "idered"
      ],
      [
        "Ġpos",
        "ition"
      ],
      [
        "Ġco",
        "ver"
      ],
      [
        "Ġr",
        "ather"
      ],
      [
        "Ġyour",
        "self"
      ],
      [
        "ĠS",
        "he"
      ],
      [
        "ac",
        "ed"
      ],
      [
        "Ġquick",
        "ly"
      ],
      [
        "ail",
        "y"
      ],
      [
        "er",
        "a"
      ],
      [
        "Ġpat",
        "ients"
      ],
      [
        "Ġg",
        "ot"
      ],
      [
        "8",
        "0"
      ],
      [
        "Ġassoci",
        "ated"
      ],
      [
        "c",
        "ks"
      ],
      [
        "os",
        "is"
      ],
      [
        "Ġthrough",
        "out"
      ],
      [
        "Ġs",
        "leep"
      ],
      [
        "g",
        "ing"
      ],
      [
        "Ġch",
        "oose"
      ],
      [
        "Ġbir",
        "ds"
      ],
      [
        "Ġw",
        "ar"
      ],
      [
        "T",
        "h"
      ],
      [
        "Ġc",
        "ook"
      ],
      [
        "Ġst",
        "reng"
      ],
      [
        "i",
        "ation"
      ],
      [
        "Ġinf",
        "lu"
      ],
      [
        "ul",
        "ations"
      ],
      [
        "et",
        "er"
      ],
      [
        "Ġint",
        "eg"
      ],
      [
        "Ġprofess",
        "ional"
      ],
      [
        "u",
        "ff"
      ],
      [
        "-b",
        "ased"
      ],
      [
        "Ġw",
        "omen"
      ],
      [
        "Ġl",
        "ater"
      ],
      [
        "Ġc",
        "apt"
      ],
      [
        "ound",
        "s"
      ],
      [
        "ic",
        "les"
      ],
      [
        "Ġa",
        "verage"
      ],
      [
        "Ġex",
        "c"
      ],
      [
        "Ġs",
        "am"
      ],
      [
        "le",
        "x"
      ],
      [
        "Ġhow",
        "ever"
      ],
      [
        "er",
        "ous"
      ],
      [
        "ip",
        "ment"
      ],
      [
        "iv",
        "al"
      ],
      [
        "Ġp",
        "ack"
      ],
      [
        "Ġopt",
        "ions"
      ],
      [
        "Ġthough",
        "t"
      ],
      [
        "I",
        "N"
      ],
      [
        "ed",
        "ing"
      ],
      [
        "Ġey",
        "es"
      ],
      [
        "l",
        "or"
      ],
      [
        "ĠC",
        "ar"
      ],
      [
        "Ġserv",
        "ice"
      ],
      [
        "ag",
        "ed"
      ],
      [
        "Ġt",
        "akes"
      ],
      [
        "Ġident",
        "ify"
      ],
      [
        "Ġs",
        "ense"
      ],
      [
        "Ġb",
        "ad"
      ],
      [
        "Ġf",
        "und"
      ],
      [
        "Ġf",
        "oot"
      ],
      [
        "Ġgo",
        "ver"
      ],
      [
        "il",
        "s"
      ],
      [
        "Ġcre",
        "ated"
      ],
      [
        "Ġec",
        "onom"
      ],
      [
        "Ġpract",
        "ice"
      ],
      [
        "Ġiss",
        "ue"
      ],
      [
        "Ġse",
        "par"
      ],
      [
        "se",
        "ct"
      ],
      [
        "ell",
        "ow"
      ],
      [
        "Ġout",
        "side"
      ],
      [
        "Ġprote",
        "in"
      ],
      [
        "ĠD",
        "o"
      ],
      [
        "ol",
        "l"
      ],
      [
        "Ġhe",
        "av"
      ],
      [
        "p",
        "ro"
      ],
      [
        "le",
        "ase"
      ],
      [
        "Ġem",
        "ploy"
      ],
      [
        "Ġad",
        "ult"
      ],
      [
        "ĠC",
        "omp"
      ],
      [
        "Ġprob",
        "ably"
      ],
      [
        "Ġfe",
        "et"
      ],
      [
        "Ġrelations",
        "hip"
      ],
      [
        "ĠC",
        "O"
      ],
      [
        "a",
        "ff"
      ],
      [
        "en",
        "e"
      ],
      [
        "Ġapp",
        "l"
      ],
      [
        "Ġdevelop",
        "ed"
      ],
      [
        "ear",
        "ch"
      ],
      [
        "Ġb",
        "ur"
      ],
      [
        "Ġpop",
        "ulation"
      ],
      [
        "Ġmod",
        "ern"
      ],
      [
        "Ġfood",
        "s"
      ],
      [
        "Ġf",
        "ast"
      ],
      [
        "Ġcaus",
        "es"
      ],
      [
        "Ġcomp",
        "an"
      ],
      [
        "Ġsim",
        "ply"
      ],
      [
        "Ġt",
        "end"
      ],
      [
        "Ġnorm",
        "al"
      ],
      [
        "Ġmach",
        "ine"
      ],
      [
        "Ġwe",
        "bs"
      ],
      [
        "Ġcons",
        "ist"
      ],
      [
        "Ġmult",
        "iple"
      ],
      [
        "Ġh",
        "alf"
      ],
      [
        "Ġn",
        "ight"
      ],
      [
        "Ġrepres",
        "ent"
      ],
      [
        "Ġw",
        "aste"
      ],
      [
        "Ġtar",
        "get"
      ],
      [
        "Ġac",
        "id"
      ],
      [
        "-",
        "w"
      ],
      [
        "ric",
        "t"
      ],
      [
        "Ġro",
        "b"
      ],
      [
        "Ġst",
        "ra"
      ],
      [
        "Ġb",
        "ab"
      ],
      [
        "Ġincre",
        "ased"
      ],
      [
        "pl",
        "ay"
      ],
      [
        "ĠL",
        "e"
      ],
      [
        "Ġsub",
        "ject"
      ],
      [
        "Ġopt",
        "im"
      ],
      [
        "Ġc",
        "op"
      ],
      [
        "Ġsom",
        "et"
      ],
      [
        "Ġcon",
        "cept"
      ],
      [
        "Ġserv",
        "ices"
      ],
      [
        "Ġcan",
        "not"
      ],
      [
        "n",
        "ov"
      ],
      [
        "ĠC",
        "omm"
      ],
      [
        "Ġcomp",
        "et"
      ],
      [
        "Ġinclud",
        "es"
      ],
      [
        "Ġ",
        "ur"
      ],
      [
        "Ġscient",
        "ists"
      ],
      [
        "Ġ",
        "X"
      ],
      [
        "Ġinst",
        "ead"
      ],
      [
        "ell",
        "ing"
      ],
      [
        "Ġp",
        "ict"
      ],
      [
        "E",
        "S"
      ],
      [
        "Ġan",
        "n"
      ],
      [
        "Ġal",
        "most"
      ],
      [
        "Ġdev",
        "ice"
      ],
      [
        "Ġtra",
        "ditional"
      ],
      [
        "Ġrel",
        "ated"
      ],
      [
        "u",
        "it"
      ],
      [
        "au",
        "gh"
      ],
      [
        "Ġwe",
        "ather"
      ],
      [
        "r",
        "ated"
      ],
      [
        "Ġfu",
        "el"
      ],
      [
        "x",
        "im"
      ],
      [
        "Ġw",
        "inter"
      ],
      [
        "Ġte",
        "ac"
      ],
      [
        "uro",
        "pe"
      ],
      [
        "Ġatt",
        "ention"
      ],
      [
        "v",
        "al"
      ],
      [
        "Ġeduc",
        "ation"
      ],
      [
        "Ġglob",
        "al"
      ],
      [
        "Ġqu",
        "ant"
      ],
      [
        "Ġs",
        "il"
      ],
      [
        "Ġrem",
        "ove"
      ],
      [
        "ĠUn",
        "ited"
      ],
      [
        "c",
        "re"
      ],
      [
        "Ġapplic",
        "ations"
      ],
      [
        "m",
        "b"
      ],
      [
        "Ġgover",
        "n"
      ],
      [
        "Ġsh",
        "ape"
      ],
      [
        "Ġbatter",
        "y"
      ],
      [
        "Ġha",
        "bit"
      ],
      [
        "Ġrem",
        "ain"
      ],
      [
        "Ġpartic",
        "ip"
      ],
      [
        "Ġf",
        "ive"
      ],
      [
        "ab",
        "or"
      ],
      [
        "Ġf",
        "ram"
      ],
      [
        "Ġlar",
        "ger"
      ],
      [
        "c",
        "ies"
      ],
      [
        "Ġstud",
        "ies"
      ],
      [
        "Ġext",
        "reme"
      ],
      [
        "Ġs",
        "at"
      ],
      [
        "ĠN",
        "ational"
      ],
      [
        "ĠH",
        "ere"
      ],
      [
        "as",
        "c"
      ],
      [
        "r",
        "ig"
      ],
      [
        "Ġaut",
        "om"
      ],
      [
        "Ġele",
        "ments"
      ],
      [
        "Ġsp",
        "read"
      ],
      [
        "Ġincre",
        "asing"
      ],
      [
        "Ġcount",
        "ry"
      ],
      [
        "n",
        "ers"
      ],
      [
        ".",
        "S"
      ],
      [
        "Ġeffic",
        "ient"
      ],
      [
        "Ġsomet",
        "imes"
      ],
      [
        "ĠU",
        "s"
      ],
      [
        "-",
        "in"
      ],
      [
        "Ġal",
        "tern"
      ],
      [
        "Ġf",
        "resh"
      ],
      [
        "Ġb",
        "ase"
      ],
      [
        "as",
        "ons"
      ],
      [
        "Ġl",
        "ength"
      ],
      [
        "it",
        "or"
      ],
      [
        "Ġw",
        "on"
      ],
      [
        "A",
        "T"
      ],
      [
        "Ġoff",
        "ers"
      ],
      [
        "Ġh",
        "un"
      ],
      [
        "Ġw",
        "a"
      ],
      [
        "A",
        "d"
      ],
      [
        "if",
        "t"
      ],
      [
        "Ġadv",
        "ant"
      ],
      [
        "E",
        "D"
      ],
      [
        "Ġf",
        "ace"
      ],
      [
        "A",
        "R"
      ],
      [
        "Ġf",
        "ail"
      ],
      [
        "Ġbas",
        "ic"
      ],
      [
        "2",
        "3"
      ],
      [
        "is",
        "on"
      ],
      [
        "Ġprovid",
        "ing"
      ],
      [
        "ac",
        "ks"
      ],
      [
        "Ġevery",
        "thing"
      ],
      [
        "Ġc",
        "ra"
      ],
      [
        "Ġcomp",
        "ared"
      ],
      [
        "Ġany",
        "thing"
      ],
      [
        "âĢ",
        "Ŀ"
      ],
      [
        "Ġdeterm",
        "ine"
      ],
      [
        "um",
        "b"
      ],
      [
        "i",
        "ans"
      ],
      [
        "Ġcho",
        "ice"
      ],
      [
        "Ġacc",
        "ount"
      ],
      [
        "Ġnut",
        "ri"
      ],
      [
        "ur",
        "ity"
      ],
      [
        "Ġst",
        "ory"
      ],
      [
        "ĠM",
        "ed"
      ],
      [
        "g",
        "est"
      ],
      [
        "Ġcaus",
        "ed"
      ],
      [
        "O",
        "T"
      ],
      [
        "ĠC",
        "al"
      ],
      [
        "Ġequ",
        "ipment"
      ],
      [
        "ce",
        "an"
      ],
      [
        "Ġbacter",
        "ia"
      ],
      [
        "Ġdev",
        "ices"
      ],
      [
        "og",
        "raph"
      ],
      [
        "ĠC",
        "ont"
      ],
      [
        "Ġshow",
        "s"
      ],
      [
        "n",
        "ed"
      ],
      [
        "Ġg",
        "e"
      ],
      [
        "o",
        "h"
      ],
      [
        "Ġy",
        "et"
      ],
      [
        "Ġse",
        "em"
      ],
      [
        "Ġexpl",
        "ain"
      ],
      [
        "ig",
        "ure"
      ],
      [
        "Ġmed",
        "ic"
      ],
      [
        "ĠEar",
        "th"
      ],
      [
        "g",
        "round"
      ],
      [
        "Ġp",
        "ri"
      ],
      [
        "Ġad",
        "just"
      ],
      [
        "Ġqu",
        "ite"
      ],
      [
        "Ġtot",
        "al"
      ],
      [
        "Ġest",
        "ab"
      ],
      [
        "y",
        "l"
      ],
      [
        "Ġon",
        "es"
      ],
      [
        "Ġl",
        "og"
      ],
      [
        "Ġsur",
        "v"
      ],
      [
        "rop",
        "ri"
      ],
      [
        "ive",
        "ly"
      ],
      [
        "Ġin",
        "j"
      ],
      [
        "Ġmet",
        "al"
      ],
      [
        "is",
        "c"
      ],
      [
        "on",
        "se"
      ],
      [
        "Ġd",
        "om"
      ],
      [
        "Ġo",
        "ption"
      ],
      [
        "s",
        "y"
      ],
      [
        "Ġf",
        "ire"
      ],
      [
        "g",
        "ed"
      ],
      [
        "Ġs",
        "ite"
      ],
      [
        "Ġex",
        "act"
      ],
      [
        "O",
        "ne"
      ],
      [
        "Ġc",
        "e"
      ],
      [
        "Ġsu",
        "it"
      ],
      [
        "ight",
        "s"
      ],
      [
        "ĠA",
        "pp"
      ],
      [
        "ro",
        "gen"
      ],
      [
        "Ġmention",
        "ed"
      ],
      [
        "Ġcompon",
        "ents"
      ],
      [
        "Ġgener",
        "ally"
      ],
      [
        "Ġt",
        "aken"
      ],
      [
        "iz",
        "es"
      ],
      [
        "le",
        "y"
      ],
      [
        "ĠA",
        "f"
      ],
      [
        "Ġb",
        "ott"
      ],
      [
        "Ġstart",
        "ed"
      ],
      [
        "ĠE",
        "urope"
      ],
      [
        "Ġan",
        "g"
      ],
      [
        "Ġf",
        "ib"
      ],
      [
        "Ġbo",
        "x"
      ],
      [
        "Ġme",
        "at"
      ],
      [
        "rap",
        "y"
      ],
      [
        "ul",
        "es"
      ],
      [
        "ron",
        "ic"
      ],
      [
        "Ġpurp",
        "ose"
      ],
      [
        "Ġsh",
        "are"
      ],
      [
        "Ġd",
        "ark"
      ],
      [
        "ĠT",
        "r"
      ],
      [
        "Ġf",
        "em"
      ],
      [
        "w",
        "here"
      ],
      [
        "c",
        "hed"
      ],
      [
        "Ġk",
        "ids"
      ],
      [
        "m",
        "on"
      ],
      [
        "Ġd",
        "ri"
      ],
      [
        "Ġsum",
        "mer"
      ],
      [
        "ic",
        "ial"
      ],
      [
        "m",
        "in"
      ],
      [
        "Ġl",
        "anguage"
      ],
      [
        "Ġtru",
        "e"
      ],
      [
        "Ġad",
        "apt"
      ],
      [
        "Ġstand",
        "ard"
      ],
      [
        "Ġd",
        "ru"
      ],
      [
        "Ġb",
        "all"
      ],
      [
        "Ġthem",
        "selves"
      ],
      [
        "Ġdig",
        "ital"
      ],
      [
        "A",
        "S"
      ],
      [
        "Ġpl",
        "astic"
      ],
      [
        "Ġs",
        "we"
      ],
      [
        "ograp",
        "hy"
      ],
      [
        "W",
        "hy"
      ],
      [
        "is",
        "ms"
      ],
      [
        "dition",
        "ally"
      ],
      [
        "a",
        "im"
      ],
      [
        "imate",
        "ly"
      ],
      [
        "est",
        "s"
      ],
      [
        "Ġf",
        "ront"
      ],
      [
        "Ġtry",
        "ing"
      ],
      [
        "Ġgl",
        "ass"
      ],
      [
        "ra",
        "d"
      ],
      [
        "ĠC",
        "ons"
      ],
      [
        "it",
        "ud"
      ],
      [
        "g",
        "o"
      ],
      [
        "Ġro",
        "t"
      ],
      [
        "ĠHe",
        "alth"
      ],
      [
        "9",
        "0"
      ],
      [
        "Ġd",
        "aily"
      ],
      [
        "ic",
        "y"
      ],
      [
        "Ġse",
        "a"
      ],
      [
        "Ġmil",
        "k"
      ],
      [
        "Ġl",
        "o"
      ],
      [
        "ens",
        "ion"
      ],
      [
        "Ġag",
[...]
