{
  "version": "1.0",
  "truncation": null,
  "padding": null,
  "added_tokens": [
    {
      "id": 0,
      "content": "<|bos|>",
      "single_word": false,
      "lstrip": false,
      "rstrip": false,
      "normalized": false,
      "special": true
    },
    {
      "id": 1,
      "content": "<|user_start|>",
      "single_word": false,
      "lstrip": false,
      "rstrip": false,
      "normalized": false,
      "special": true
    },
    {
      "id": 2,
      "content": "<|user_end|>",
      "single_word": false,
      "lstrip": false,
      "rstrip": false,
      "normalized": false,
      "special": true
    },
    {
      "id": 3,
      "content": "<|assistant_start|>",
      "single_word": false,
      "lstrip": false,
      "rstrip": false,
      "normalized": false,
      "special": true
    },
    {
      "id": 4,
      "content": "<|assistant_end|>",
      "single_word": false,
      "lstrip": false,
      "rstrip": false,
      "normalized": false,
      "special": true
    },
    {
      "id": 5,
      "content": "<|python_start|>",
      "single_word": false,
      "lstrip": false,
      "rstrip": false,
      "normalized": false,
      "special": true
    },
    {
      "id": 6,
      "content": "<|python_end|>",
      "single_word": false,
      "lstrip": false,
      "rstrip": false,
      "normalized": false,
      "special": true
    },
    {
      "id": 7,
      "content": "<|output_start|>",
      "single_word": false,
      "lstrip": false,
      "rstrip": false,
      "normalized": false,
      "special": true
    },
    {
      "id": 8,
      "content": "<|output_end|>",
      "single_word": false,
      "lstrip": false,
      "rstrip": false,
      "normalized": false,
      "special": true
    }
  ],
  "normalizer": null,
  "pre_tokenizer": {
    "type": "Sequence",
    "pretokenizers": [
      {
        "type": "Split",
        "pattern": {
          "Regex": "'(?i:[sdmt]|ll|ve|re)|[^\\r\\n\\p{L}\\p{N}]?+\\p{L}+|\\p{N}{1,2}| ?[^\\s\\p{L}\\p{N}]++[\\r\\n]*|\\s*[\\r\\n]|\\s+(?!\\S)|\\s+"
        },
        "behavior": "Isolated",
        "invert": false
      },
      {
        "type": "ByteLevel",
        "add_prefix_space": false,
        "trim_offsets": true,
        "use_regex": false
      }
    ]
  },
  "post_processor": null,
  "decoder": {
    "type": "ByteLevel",
    "add_prefix_space": true,
    "trim_offsets": true,
    "use_regex": true
  },
  "model": {
    "type": "BPE",
    "dropout": null,
    "unk_token": null,
    "continuing_subword_prefix": null,
    "end_of_word_suffix": null,
    "fuse_unk": false,
    "byte_fallback": true,
    "ignore_merges": false,
    "vocab": {
      "<|bos|>": 0,
      "<|user_start|>": 1,
      "<|user_end|>": 2,
      "<|assistant_start|>": 3,
      "<|assistant_end|>": 4,
      "<|python_start|>": 5,
      "<|python_end|>": 6,
      "<|output_start|>": 7,
      "<|output_end|>": 8,
      "!": 9,
      "\"": 10,
      "#": 11,
      "$": 12,
      "%": 13,
      "&": 14,
      "'": 15,
      "(": 16,
      ")": 17,
      "*": 18,
      "+": 19,
      ",": 20,
      "-": 21,
      ".": 22,
      "/": 23,
      "0": 24,
      "1": 25,
      "2": 26,
      "3": 27,
      "4": 28,
      "5": 29,
      "6": 30,
      "7": 31,
      "8": 32,
      "9": 33,
      ":": 34,
      ";": 35,
      "<": 36,
      "=": 37,
      ">": 38,
      "?": 39,
      "@": 40,
      "A": 41,
      "B": 42,
      "C": 43,
      "D": 44,
      "E": 45,
      "F": 46,
      "G": 47,
      "H": 48,
      "I": 49,
      "J": 50,
      "K": 51,
      "L": 52,
      "M": 53,
      "N": 54,
      "O": 55,
      "P": 56,
      "Q": 57,
      "R": 58,
      "S": 59,
      "T": 60,
      "U": 61,
      "V": 62,
      "W": 63,
      "X": 64,
      "Y": 65,
      "Z": 66,
      "[": 67,
      "\\": 68,
      "]": 69,
      "^": 70,
      "_": 71,
      "`": 72,
      "a": 73,
      "b": 74,
      "c": 75,
      "d": 76,
      "e": 77,
      "f": 78,
      "g": 79,
      "h": 80,
      "i": 81,
      "j": 82,
      "k": 83,
      "l": 84,
      "m": 85,
      "n": 86,
      "o": 87,
      "p": 88,
      "q": 89,
      "r": 90,
      "s": 91,
      "t": 92,
      "u": 93,
      "v": 94,
      "w": 95,
      "x": 96,
      "y": 97,
      "z": 98,
      "{": 99,
      "|": 100,
      "}": 101,
      "~": 102,
      "¡": 103,
      "¢": 104,
      "£": 105,
      "¤": 106,
      "¥": 107,
      "¦": 108,
      "§": 109,
      "¨": 110,
      "©": 111,
      "ª": 112,
      "«": 113,
      "¬": 114,
      "®": 115,
      "¯": 116,
      "°": 117,
      "±": 118,
      "²": 119,
      "³": 120,
      "´": 121,
      "µ": 122,
      "¶": 123,
      "·": 124,
      "¸": 125,
      "¹": 126,
      "º": 127,
      "»": 128,
      "¼": 129,
      "½": 130,
      "¾": 131,
      "¿": 132,
      "À": 133,
      "Á": 134,
      "Â": 135,
      "Ã": 136,
      "Ä": 137,
      "Å": 138,
      "Æ": 139,
      "Ç": 140,
      "È": 141,
      "É": 142,
      "Ê": 143,
      "Ë": 144,
      "Ì": 145,
      "Í": 146,
      "Î": 147,
      "Ï": 148,
      "Ð": 149,
      "Ñ": 150,
      "Ò": 151,
      "Ó": 152,
      "Ô": 153,
      "Õ": 154,
      "Ö": 155,
      "×": 156,
      "Ø": 157,
      "Ù": 158,
      "Ú": 159,
      "Û": 160,
      "Ü": 161,
      "Ý": 162,
      "Þ": 163,
      "ß": 164,
      "à": 165,
      "á": 166,
      "â": 167,
      "ã": 168,
      "ä": 169,
      "å": 170,
      "æ": 171,
      "ç": 172,
      "è": 173,
      "é": 174,
      "ê": 175,
      "ë": 176,
      "ì": 177,
      "í": 178,
      "î": 179,
      "ï": 180,
      "ð": 181,
      "ñ": 182,
      "ò": 183,
      "ó": 184,
      "ô": 185,
      "õ": 186,
      "ö": 187,
      "÷": 188,
      "ø": 189,
      "ù": 190,
      "ú": 191,
      "û": 192,
      "ü": 193,
      "ý": 194,
      "þ": 195,
      "ÿ": 196,
      "Ā": 197,
      "ā": 198,
      "Ă": 199,
      "ă": 200,
      "Ą": 201,
      "ą": 202,
      "Ć": 203,
      "ć": 204,
      "Ĉ": 205,
      "ĉ": 206,
      "Ċ": 207,
      "ċ": 208,
      "Č": 209,
      "č": 210,
      "Ď": 211,
      "ď": 212,
      "Đ": 213,
      "đ": 214,
      "Ē": 215,
      "ē": 216,
      "Ĕ": 217,
      "ĕ": 218,
      "Ė": 219,
      "ė": 220,
      "Ę": 221,
      "ę": 222,
      "Ě": 223,
      "ě": 224,
      "Ĝ": 225,
      "ĝ": 226,
      "Ğ": 227,
      "ğ": 228,
      "Ġ": 229,
      "ġ": 230,
      "Ģ": 231,
      "ģ": 232,
      "Ĥ": 233,
      "ĥ": 234,
      "Ħ": 235,
      "ħ": 236,
      "Ĩ": 237,
      "ĩ": 238,
      "Ī": 239,
      "ī": 240,
      "Ĭ": 241,
      "ĭ": 242,
      "Į": 243,
      "į": 244,
      "İ": 245,
      "ı": 246,
      "Ĳ": 247,
      "ĳ": 248,
      "Ĵ": 249,
      "ĵ": 250,
      "Ķ": 251,
      "ķ": 252,
      "ĸ": 253,
      "Ĺ": 254,
      "ĺ": 255,
      "Ļ": 256,
      "ļ": 257,
      "Ľ": 258,
      "ľ": 259,
      "Ŀ": 260,
      "ŀ": 261,
      "Ł": 262,
      "ł": 263,
      "Ń": 264,
      "Ġt": 265,
      "Ġa": 266,
      "in": 267,
      "he": 268,
      "re": 269,
      "on": 270,
      "Ġthe": 271,
      "er": 272,
      "Ġs": 273,
      "at": 274,
      "Ġc": 275,
      "Ġo": 276,
      "es": 277,
      "en": 278,
      "Ġw": 279,
      "nd": 280,
      "ing": 281,
      "it": 282,
      "is": 283,
      "Ġp": 284,
      "Ġb": 285,
      "or": 286,
      "Ġf": 287,
      "ou": 288,
      "al": 289,
      "an": 290,
      "Ġm": 291,
      "Ġto": 292,
      "ed": 293,
      "ar": 294,
      "Ġof": 295,
      "Ġin": 296,
      "Ġand": 297,
      "Ġd": 298,
      "ic": 299,
      "ion": 300,
      "le": 301,
      "ro": 302,
      "as": 303,
      "Ġh": 304,
      "Ġth": 305,
      "ct": 306,
      "Ġe": 307,
      "ent": 308,
      "Ġl": 309,
      "ve": 310,
      "il": 311,
      "Ġre": 312,
      "om": 313,
      "us": 314,
      "Ġis": 315,
      ".Ċ": 316,
      "Ġy": 317,
      "Ġn": 318,
      "et": 319,
      "ly": 320,
      "Ġg": 321,
      "Ġyou": 322,
      "ow": 323,
      "Ġbe": 324,
      "ut": 325,
      "ot": 326,
      "im": 327,
      "ĠT": 328,
      "id": 329,
      "st": 330,
      "ol": 331,
      "ce": 332,
      "Ġfor": 333,
      "ig": 334,
      "ra": 335,
      "ĠA": 336,
      "ch": 337,
      "ur": 338,
      "ation": 339,
      "Ġon": 340,
      "Ġst": 341,
      "ĠI": 342,
      "Ġthat": 343,
      "ir": 344,
      "el": 345,
      "ver": 346,
      "Ġit": 347,
      "Ġare": 348,
      "ay": 349,
      "ul": 350,
      "ith": 351,
      "Ġpro": 352,
      "se": 353,
      "if": 354,
      "Ġan": 355,
      "Ġwith": 356,
      "am": 357,
      "ĠS": 358,
      "est": 359,
      "Ġor": 360,
      "Ġcon": 361,
      "Ġas": 362,
      ".ĊĊ": 363,
      "Ġal": 364,
      "od": 365,
      "her": 366,
      "ad": 367,
      "ĠC": 368,
      "ĊĊ": 369,
      "ke": 370,
      "ter": 371,
      "Ġcan": 372,
      "un": 373,
      "Ġwh": 374,
      "ge": 375,
      "ure": 376,
      "ess": 377,
      "Ġha": 378,
      "ĠThe": 379,
      "ill": 380,
      "ate": 381,
      "ĠW": 382,
      "Ġcom": 383,
      "um": 384,
      "ab": 385,
      "Ġhe": 386,
      "Ġex": 387,
      "ers": 388,
      "ant": 389,
      "ore": 390,
      "pe": 391,
      "igh": 392,
      "qu": 393,
      "'s": 394,
      "th": 395,
      "Ġyour": 396,
      "ive": 397,
      "Ġus": 398,
      "ment": 399,
      "ies": 400,
      "Ġv": 401,
      "Ġde": 402,
      "op": 403,
      "ac": 404,
      "Ġwe": 405,
      "ity": 406,
      "ain": 407,
      "os": 408,
      "ld": 409,
      "ist": 410,
      "rom": 411,
      "ĠP": 412,
      "ĠM": 413,
      "Ġse": 414,
      "Ġne": 415,
      "em": 416,
      "ĠB": 417,
      "Ġch": 418,
      "Ġen": 419,
      "pp": 420,
      "Ġ(": 421,
      "Ġr": 422,
      "ect": 423,
      "Ġat": 424,
      "Ġsu": 425,
      "Ġsh": 426,
      "ial": 427,
      "Ġhave": 428,
      "Ġfrom": 429,
      "iv": 430,
      "ight": 431,
      "ort": 432,
      "Ġle": 433,
      "Ġdo": 434,
      "nt": 435,
      "ĠD": 436,
      "Ġpl": 437,
      "res": 438,
      "Ġby": 439,
      "ĠH": 440,
      "and": 441,
      "Ġnot": 442,
      "art": 443,
      "per": 444,
      "oc": 445,
      "ud": 446,
      "ust": 447,
      "all": 448,
      "ĠF": 449,
      "ome": 450,
      "ical": 451,
      "Ġthis": 452,
      "ns": 453,
      "ide": 454,
      "ri": 455,
      "Ġab": 456,
      "rou": 457,
      "ould": 458,
      "Ġu": 459,
      "ine": 460,
      "out": 461,
      "ĠE": 462,
      "pt": 463,
      "act": 464,
      "Ġma": 465,
      "ost": 466,
      "Ġim": 467,
      "ard": 468,
      "og": 469,
      "ell": 470,
      "ions": 471,
      "du": 472,
      "Ġwhe": 473,
      "Ġwill": 474,
      "red": 475,
      "ich": 476,
      "ĠR": 477,
      "Ġwor": 478,
      "ast": 479,
      "Ġcomp": 480,
      "Ġtheir": 481,
      "Ġthey": 482,
      "our": 483,
      "ff": 484,
      "âĢ": 485,
      "gh": 486,
      "ood": 487,
      "Ġk": 488,
      "Ġint": 489,
      "king": 490,
      "ther": 491,
      "The": 492,
      "iz": 493,
      "age": 494,
      "Ġad": 495,
      "ater": 496,
      "pl": 497,
      "ĠN": 498,
      "Ġall": 499,
      "ĠL": 500,
      "hat": 501,
      "ag": 502,
      "Ġmore": 503,
      "able": 504,
      "wer": 505,
      "Ġwas": 506,
      "ated": 507,
      "end": 508,
      "estion": 509,
      "Qu": 510,
      "ĠG": 511,
      "Ġcont": 512,
      "ere": 513,
      "oo": 514,
      "Ġbut": 515,
      "ally": 516,
      "ks": 517,
      "ult": 518,
      "Ġso": 519,
      "ib": 520,
      "ans": 521,
      "Ġte": 522,
      "ip": 523,
      "ous": 524,
      "ĠO": 525,
      "Ġinc": 526,
      "so": 527,
      "ind": 528,
      "ru": 529,
      "ep": 530,
      "Ġme": 531,
      "ry": 532,
      "Ġj": 533,
      "ike": 534,
      "are": 535,
      "ong": 536,
      "cc": 537,
      "nswer": 538,
      "Ġcl": 539,
      "ance": 540,
      "Question": 541,
      "Ġres": 542,
      "Ġdis": 543,
      "Ġhas": 544,
      "orm": 545,
      "ĠAnswer": 546,
      "Ġwhich": 547,
      "Ġout": 548,
      "Ġ\"": 549,
      "Ġsp": 550,
      "vel": 551,
      "ear": 552,
      "Ġimp": 553,
      "ations": 554,
      "Ġun": 555,
      "his": 556,
      "Ġother": 557,
      "ie": 558,
      "ction": 559,
      "one": 560,
      "'t": 561,
      "Ġalso": 562,
      "av": 563,
      "Ġman": 564,
      "reat": 565,
      "Ġtim": 566,
      "ents": 567,
      "Ġone": 568,
      "Ġspe": 569,
      "aus": 570,
      "very": 571,
      "ens": 572,
      "ace": 573,
      "ice": 574,
      "Ġfe": 575,
      "ence": 576,
      "ach": 577,
      "20": 578,
      "Ġthem": 579,
      "ign": 580,
      "ase": 581,
      "ass": 582,
      "ap": 583,
      "ĠU": 584,
      "Ġabout": 585,
      "ition": 586,
      "ack": 587,
      "low": 588,
      "ors": 589,
      "Ġper": 590,
      "ĠIn": 591,
      "ĠIt": 592,
      "Ġlike": 593,
      "Ġup": 594,
      "ary": 595,
      "Ġpre": 596,
      "Ġro": 597,
      "ress": 598,
      "Ġsc": 599,
      "iff": 600,
      "ild": 601,
      "Ġwhen": 602,
      "Ġsome": 603,
      "Ġqu": 604,
      "now": 605,
      "ile": 606,
      "ire": 607,
      "Ġev": 608,
      "ue": 609,
      "Ġif": 610,
      "ite": 611,
      "Ġsy": 612,
      "ia": 613,
      "ound": 614,
      "Ġneed": 615,
      "ces": 616,
      "Ġpart": 617,
      "Ġinto": 618,
      "ose": 619,
      "Ġuse": 620,
      "Ġcol": 621,
      "ĠWhat": 622,
      "Ġhow": 623,
      "Ġdiff": 624,
      "ĠThis": 625,
      "Ġhel": 626,
      "Ġtime": 627,
      "ak": 628,
      "ric": 629,
      "ĠY": 630,
      "Ġmay": 631,
      "Ġapp": 632,
      "ays": 633,
      "ame": 634,
      "form": 635,
      "Ġthan": 636,
      "row": 637,
      "Ġits": 638,
      "ail": 639,
      "ree": 640,
      "ll": 641,
      "Ġthere": 642,
      "ber": 643,
      "ings": 644,
      "Ġhelp": 645,
      "Ġpe": 646,
      "Ġbec": 647,
      "Ġtra": 648,
      "Ġar": 649,
      "Ġany": 650,
      "Ġover": 651,
      "Ġbl": 652,
      "Ġrec": 653,
      "ause": 654,
      "lect": 655,
      "als": 656,
      "Ġcomm": 657,
      "ific": 658,
      "Ġbet": 659,
      "ating": 660,
      "nder": 661,
      "Ġspec": 662,
      "Ġknow": 663,
      "Ġcons": 664,
      "les": 665,
      "cess": 666,
      "Ġthese": 667,
      "ove": 668,
      "ang": 669,
      "Ġgo": 670,
      "Ġget": 671,
      "ough": 672,
      "ake": 673,
      "ish": 674,
      "ord": 675,
      "Ġsa": 676,
      "int": 677,
      "hy": 678,
      "..": 679,
      "Ġwater": 680,
      "olog": 681,
      "Ġdes": 682,
      "Ġstud": 683,
      "we": 684,
      "te": 685,
      "ĠâĢ": 686,
      "ond": 687,
      "ons": 688,
      "rough": 689,
      "Ġused": 690,
      "Ġprodu": 691,
      "Ġour": 692,
      "Ġwhat": 693,
      "Ġtr": 694,
      "Ġind": 695,
      "stem": 696,
      "ount": 697,
      "Ġco": 698,
      "Ġfl": 699,
      "Ġeff": 700,
      "ub": 701,
      "ature": 702,
      "Ġra": 703,
      "alth": 704,
      "ory": 705,
      "ular": 706,
      "Ġyear": 707,
      "Ġmost": 708,
      "ms": 709,
      "ari": 710,
      "Ġdiffere": 711,
      "Ġoff": 712,
      "round": 713,
      "ook": 714,
      "ting": 715,
      "ning": 716,
      "ople": 717,
      "Ġgen": 718,
      "ĠJ": 719,
      "ick": 720,
      "Ġmake": 721,
      "lud": 722,
      "ck": 723,
      "Ġact": 724,
      "vers": 725,
      "ne": 726,
      "Ġwho": 727,
      "Ġacc": 728,
      "Ġsuch": 729,
      "Ġunder": 730,
      "Ġprov": 731,
      "erv": 732,
      "Ġnew": 733,
      "Ġam": 734,
      "ient": 735,
      "Ġshould": 736,
      "Ġsm": 737,
      "Ġadd": 738,
      "xt": 739,
      "Ġag": 740,
      "eth": 741,
      "Ġcar": 742,
      "ple": 743,
      "Ġwere": 744,
      "ful": 745,
      "Ġpeople": 746,
      "uring": 747,
      "ility": 748,
      "ates": 749,
      "Ġtw": 750,
      "ĠSt": 751,
      "oth": 752,
      "ject": 753,
      "erg": 754,
      "Ġbeen": 755,
      "Ġem": 756,
      "Ġwould": 757,
      "ange": 758,
      "ments": 759,
      "Ġwork": 760,
      "irst": 761,
      "Ġthrough": 762,
      "Ġinclud": 763,
      "Ġty": 764,
      "oss": 765,
      "Ġdi": 766,
      "Ġsystem": 767,
      "ph": 768,
      "Ġjust": 769,
      "Ġpr": 770,
      "hes": 771,
      "ble": 772,
      "ov": 773,
      "ise": 774,
      "Ġonly": 775,
      "ower": 776,
      "ics": 777,
      "10": 778,
      "Ġplant": 779,
      "its": 780,
      "Ġno": 781,
      "ities": 782,
      "Ġke": 783,
      "ten": 784,
      "Ġmany": 785,
      "Ġmy": 786,
      "ĠK": 787,
      "ark": 788,
      "ced": 789,
      "ob": 790,
      "Ġsur": 791,
      "Ġhigh": 792,
      "Ġpo": 793,
      "ative": 794,
      "Ġhealth": 795,
      "ĠV": 796,
      "hen": 797,
      "Ġwell": 798,
      "Ġbu": 799,
      "Ġdoes": 800,
      "Ġinter": 801,
      "velop": 802,
      "ible": 803,
      "old": 804,
      "Ġreg": 805,
      "chn": 806,
      "Ġrel": 807,
      "own": 808,
      "ual": 809,
      "ef": 810,
      "Ġtwo": 811,
      "ract": 812,
      "Ġdifferent": 813,
      "Ġrem": 814,
      "Ġexper": 815,
      "fter": 816,
      "ren": 817,
      "tain": 818,
      "ience": 819,
      "ink": 820,
      "lic": 821,
      "Ġac": 822,
      "?Ċ": 823,
      "Ġfirst": 824,
      "Ġwhere": 825,
      "Ġlong": 826,
      "Ġche": 827,
      "ram": 828,
      "ween": 829,
      "19": 830,
      "ft": 831,
      "Ġ-": 832,
      "ased": 833,
      "Ġway": 834,
      "hed": 835,
      "Ġimport": 836,
      "get": 837,
      "Ġmod": 838,
      "Ġdevelop": 839,
      "uch": 840,
      "ife": 841,
      "arm": 842,
      "cy": 843,
      "ize": 844,
      "fore": 845,
      "ade": 846,
      "ually": 847,
      "Ġrep": 848,
      "Ġsim": 849,
      "Ġfood": 850,
      "Ġbetween": 851,
      "Ġprocess": 852,
      "ĠIf": 853,
      "Ġusing": 854,
      "Ġtrans": 855,
      "In": 856,
      "Ġvari": 857,
      "Ġcould": 858,
      "Ġsupp": 859,
      "Ġob": 860,
      "Ġpat": 861,
      "ential": 862,
      "rit": 863,
      "Ġdec": 864,
      "Ġthen": 865,
      "ts": 866,
      "Ġevery": 867,
      "Ġeven": 868,
      "Ġcre": 869,
      "ĠCh": 870,
      "Ġinst": 871,
      "iron": 872,
      "Ġinv": 873,
      "Ġbecause": 874,
      "Ġinf": 875,
      "Ġgrow": 876,
      "erm": 877,
      "ĠHow": 878,
      "Ġdet": 879,
      "wn": 880,
      "ĠThey": 881,
      "Ġmain": 882,
      "ious": 883,
      "Ġtechn": 884,
      "Ġatt": 885,
      "Ġass": 886,
      "Ġph": 887,
      "ically": 888,
      "ever": 889,
      "iss": 890,
      "rib": 891,
      "Ġvery": 892,
      "Ġeffect": 893,
      "ily": 894,
      "Ġsee": 895,
      "gan": 896,
      "iqu": 897,
      "'re": 898,
      "ĠYou": 899,
      "ps": 900,
      "mer": 901,
      "ines": 902,
      "ool": 903,
      "oy": 904,
      "ural": 905,
      "arch": 906,
      "Ġsk": 907,
      "Ġlear": 908,
      "pect": 909,
      "ins": 910,
      "Ġrese": 911,
      "Ġmuch": 912,
      "Ġrequ": 913,
      "Ġsub": 914,
      "ures": 915,
      "ution": 916,
      "Ġhum": 917,
      "gg": 918,
      "Ġext": 919,
      "Ġlight": 920,
      "Ġlar": 921,
      "Ġins": 922,
      "ness": 923,
      "Ġback": 924,
      "ody": 925,
      "Ġgood": 926,
      "vent": 927,
      "Ġeach": 928,
      "ology": 929,
      "Ġdon": 930,
      "Ġform": 931,
      "Ġimportant": 932,
      "?ĊĊ": 933,
      "Ġchild": 934,
      "00": 935,
      "ĠâĢĵ": 936,
      "Ġnum": 937,
      "ĠWh": 938,
      "cial": 939,
      "Ġwant": 940,
      "Ġyears": 941,
      "Ġexp": 942,
      "Ġmin": 943,
      "Ġgra": 944,
      "viron": 945,
      "ergy": 946,
      "ron": 947,
      "Ġsol": 948,
      "ian": 949,
      "Ġfind": 950,
      "Ġset": 951,
      "Ġdisc": 952,
      "Ġfol": 953,
      "Ġsign": 954,
      "Ġgener": 955,
      "stand": 956,
      "Ġsmall": 957,
      "Ġpers": 958,
      "Ġdog": 959,
      "Ġcle": 960,
      "Ġwhile": 961,
      "Ġhad": 962,
      "ety": 963,
      "Ġve": 964,
      "Ġexam": 965,
      "Ġfun": 966,
      "Ġincre": 967,
      "elf": 968,
      "Ġav": 969,
      "Ġstart": 970,
      "Ġear": 971,
      "ruct": 972,
      "Ġafter": 973,
      ").": 974,
      "uc": 975,
      "Ġtake": 976,
      "Ġair": 977,
      "Ġmed": 978,
      "ality": 979,
      "Ġgl": 980,
      "ss": 981,
      "Ġloc": 982,
      "ues": 983,
      "Ġhis": 984,
      "Ġdesign": 985,
      "Ġelect": 986,
      "Ġfound": 987,
      "ata": 988,
      "ational": 989,
      "ec": 990,
      "other": 991,
      "Ġpres": 992,
      "Ġworld": 993,
      "Ġart": 994,
      "ists": 995,
      "urn": 996,
      "Ġresult": 997,
      "ices": 998,
      "Ġbeing": 999,
      "Ġcur": 1000,
      "Ġbre": 1001,
      "ied": 1002,
      "Ġaround": 1003,
      "ix": 1004,
      "Ġeas": 1005,
      "aterial": 1006,
      "ds": 1007,
      "Ġref": 1008,
      "),": 1009,
      "ĠUn": 1010,
      "Ġhand": 1011,
      "tle": 1012,
      "vironment": 1013,
      "Ġbefore": 1014,
      "Ġduring": 1015,
      "Ġlevel": 1016,
      "ĠWe": 1017,
      "Ġher": 1018,
      "Ġcall": 1019,
      "Ġfact": 1020,
      "Ġpot": 1021,
      "nce": 1022,
      "Ġfollow": 1023,
      "ases": 1024,
      "Ġallow": 1025,
      "Ġbr": 1026,
      "Ġcomple": 1027,
      "ages": 1028,
      "Ġcell": 1029,
      "Ġdown": 1030,
      "ives": 1031,
      "ption": 1032,
      "Ġproble": 1033,
      "ock": 1034,
      "Ġshe": 1035,
      "Ġown": 1036,
      "Ġprog": 1037,
      "Ġdep": 1038,
      "eg": 1039,
      "Ġsec": 1040,
      "dition": 1041,
      "ider": 1042,
      "Ġinform": 1043,
      "Ġcor": 1044,
      "Ġsame": 1045,
      "omm": 1046,
      "Ġtyp": 1047,
      "chool": 1048,
      "Ġexpl": 1049,
      "Ġmon": 1050,
      "Ġtem": 1051,
      "--": 1052,
      "els": 1053,
      "Ġstr": 1054,
      "Ġdist": 1055,
      "Ġval": 1056,
      "Ġanim": 1057,
      "ward": 1058,
      "Ġredu": 1059,
      "Ġlife": 1060,
      "Ġoften": 1061,
      "air": 1062,
      ".\"": 1063,
      "ized": 1064,
      "Ġthose": 1065,
      "cer": 1066,
      "Ġlead": 1067,
      "Ġkeep": 1068,
      "rop": 1069,
      "Ġenergy": 1070,
      "Ġbo": 1071,
      "Ġaut": 1072,
      "Ġpartic": 1073,
      "Ġent": 1074,
      "ets": 1075,
      "Ġbest": 1076,
      "Ġmaterial": 1077,
      ":Ċ": 1078,
      "ather": 1079,
      "cl": 1080,
      "Ġboth": 1081,
      "aw": 1082,
      "tern": 1083,
      "Ġright": 1084,
      "Ġtoo": 1085,
      "Ġpower": 1086,
      "Ġvis": 1087,
      "Ġbody": 1088,
      "Ġshow": 1089,
      "ew": 1090,
      "ys": 1091,
      "Ġread": 1092,
      "What": 1093,
      "ger": 1094,
      "Ġmade": 1095,
      "Ġgu": 1096,
      "rol": 1097,
      "ale": 1098,
      "ides": 1099,
      "ien": 1100,
      "ident": 1101,
      "atter": 1102,
      "Ġed": 1103,
      "io": 1104,
      "Ġcommon": 1105,
      "Ġcat": 1106,
      "ty": 1107,
      "Ġless": 1108,
      "read": 1109,
      "Ġdr": 1110,
      "Ġchar": 1111,
      "Ġcare": 1112,
      "Ġproduct": 1113,
      "Ġperson": 1114,
      "Ġsom": 1115,
      "Ġprot": 1116,
      "ium": 1117,
      "Ġpop": 1118,
      "iew": 1119,
      "Ġplay": 1120,
      "ull": 1121,
      "Ġenvironment": 1122,
      "reen": 1123,
      "ĠFor": 1124,
      "Ġtest": 1125,
      "iving": 1126,
      "ving": 1127,
      "Ġeng": 1128,
      "rain": 1129,
      "ĠPro": 1130,
      "aking": 1131,
      "Ġend": 1132,
      "ars": 1133,
      "Ġposs": 1134,
      "ict": 1135,
      "Ġday": 1136,
      "Ġhome": 1137,
      "Ġmet": 1138,
      "Ġdata": 1139,
      "Ġunderstand": 1140,
      "ave": 1141,
      "Ġadv": 1142,
      "ĠHe": 1143,
      "-b": 1144,
      "imate": 1145,
      "iel": 1146,
      "ier": 1147,
      "Ġsaid": 1148,
      "ĠAs": 1149,
      "ng": 1150,
      "eng": 1151,
      "Ġ'": 1152,
      "How": 1153,
      "ĠAl": 1154,
      "ivers": 1155,
      "ath": 1156,
      "ited": 1157,
      "Ġlit": 1158,
      "acter": 1159,
      "ute": 1160,
      "Ġtreat": 1161,
      "cing": 1162,
      "ason": 1163,
      "Ġsaf": 1164,
      "hys": 1165,
      "Ġcommun": 1166,
      "Ġinformation": 1167,
      "Ġproper": 1168,
      "ves": 1169,
      "up": 1170,
      "Ġresp": 1171,
      "Ġens": 1172,
      "Ġdef": 1173,
      "rap": 1174,
      "Ġorgan": 1175,
      "Ġspecies": 1176,
      "Ġpoint": 1177,
      "Ġben": 1178,
      "rent": 1179,
      "led": 1180,
      "ven": 1181,
      "Ġmight": 1182,
      "Ġequ": 1183,
      "any": 1184,
      "ids": 1185,
      "ivid": 1186,
      "ved": 1187,
      "12": 1188,
      "ands": 1189,
      "Ġlook": 1190,
      "ted": 1191,
      "ethod": 1192,
      "der": 1193,
      "ĠThese": 1194,
      "perature": 1195,
      "Ġprovide": 1196,
      "cept": 1197,
      "Ġnow": 1198,
      "Ġplan": 1199,
      ",\"": 1200,
      "Ġnumber": 1201,
      "Ġstudy": 1202,
      "Ġserv": 1203,
      "ional": 1204,
      "oci": 1205,
      "Ġaw": 1206,
      "ont": 1207,
      "-s": 1208,
      "Ġbetter": 1209,
      "Ġfam": 1210,
      "ection": 1211,
      "ash": 1212,
      "ork": 1213,
      "Ġresearch": 1214,
      "Ġap": 1215,
      "This": 1216,
      "Ġpol": 1217,
      "Ġimpro": 1218,
      "ining": 1219,
      "Ġpur": 1220,
      "bs": 1221,
      "Ġdise": 1222,
      "Ġwithout": 1223,
      "Ġsupport": 1224,
      "Ġcent": 1225,
      "Ġgreat": 1226,
      "ead": 1227,
      "cent": 1228,
      "Ġdire": 1229,
      "Ġclass": 1230,
      "ĠTh": 1231,
      "hip": 1232,
      "Ġaff": 1233,
      "ways": 1234,
      "ots": 1235,
      "Ġdid": 1236,
      "Ġstudents": 1237,
      "kes": 1238,
      "ired": 1239,
      "Ġcreat": 1240,
      "Ġstill": 1241,
      "Ġbeh": 1242,
      "Ġop": 1243,
      "und": 1244,
      "the": 1245,
      "ĠTo": 1246,
      "ĠAn": 1247,
      "Ġplants": 1248,
      "itions": 1249,
      "less": 1250,
      "ants": 1251,
      "Ġprof": 1252,
      "Ġtext": 1253,
      "Ġmaking": 1254,
      "day": 1255,
      "Ġris": 1256,
      "ering": 1257,
      "Ġtemperature": 1258,
      "Ġmethod": 1259,
      "Ġactiv": 1260,
      "Ġpain": 1261,
      "Ġincluding": 1262,
      "Ġlarge": 1263,
      "If": 1264,
      "Ġbuild": 1265,
      "inal": 1266,
      "ince": 1267,
      "Ġnat": 1268,
      ":ĊĊ": 1269,
      "itive": 1270,
      "Ġchange": 1271,
      "Ġiss": 1272,
      "Ġtop": 1273,
      "ĠBut": 1274,
      "Ġey": 1275,
      "ĠThere": 1276,
      "Ġbenef": 1277,
      "Ġfew": 1278,
      "Ġcreate": 1279,
      "hers": 1280,
      "oms": 1281,
      "ulation": 1282,
      "ert": 1283,
      "ability": 1284,
      "Ġhapp": 1285,
      "ĠAnd": 1286,
      "âĢĻ": 1287,
      "It": 1288,
      "ined": 1289,
      "-f": 1290,
      "Ġtype": 1291,
      "Ġflow": 1292,
      "Ġknown": 1293,
      "Ġide": 1294,
      "Ġgrou": 1295,
      "Ġocc": 1296,
      "Ġpos": 1297,
      "Ġthink": 1298,
      "Ġcaus": 1299,
      "ention": 1300,
      "Ġhy": 1301,
      "Ġpract": 1302,
      "Ġhuman": 1303,
      "15": 1304,
      "line": 1305,
      "Ġexample": 1306,
      "ouse": 1307,
      "Ġmem": 1308,
      "ior": 1309,
      "Ġsw": 1310,
      "Ġsl": 1311,
      "Ġplace": 1312,
      "Ġcontain": 1313,
      "Ġchang": 1314,
      "ital": 1315,
      "Ġlearn": 1316,
      "Ġcontrol": 1317,
      "ording": 1318,
      "ross": 1319,
      "Ġagain": 1320,
      "__": 1321,
      "Ġser": 1322,
      "Ġopt": 1323,
      "co": 1324,
      "ared": 1325,
      "Ġchildren": 1326,
      "Ġcause": 1327,
      "Ġrun": 1328,
      "ooking": 1329,
      "ats": 1330,
      "ify": 1331,
      "rodu": 1332,
      "Ġthough": 1333,
      "Ġfeel": 1334,
      "Ġess": 1335,
      "Ġthree": 1336,
      "Ġbel": 1337,
      "Ġperform": 1338,
      "Ġschool": 1339,
      "Ġmus": 1340,
      "'ll": 1341,
      "Ġsure": 1342,
      "Ġproject": 1343,
      "apt": 1344,
      "ism": 1345,
      "oid": 1346,
      "Ġcount": 1347,
      "ters": 1348,
      "ator": 1349,
      "Ġthings": 1350,
      "30": 1351,
      "Ġcal": 1352,
      "Ġlow": 1353,
      "Ġmust": 1354,
      "18": 1355,
      "Ġele": 1356,
      "ique": 1357,
      "Ġpress": 1358,
      "iness": 1359,
      "Ġhard": 1360,
      "Ġdel": 1361,
      "Ġprevent": 1362,
      "Ġdam": 1363,
      "Ġbir": 1364,
      "here": 1365,
      "Ġindivid": 1366,
      "Ġarea": 1367,
      "ner": 1368,
      "ĠAd": 1369,
      "Ġclean": 1370,
      "ral": 1371,
      "Ġtre": 1372,
      "Ġcost": 1373,
      "ething": 1374,
      "Ġpotential": 1375,
      "Ġphys": 1376,
      "ĠHowever": 1377,
      "ĠWhen": 1378,
      "Ġcalled": 1379,
      "ole": 1380,
      "Ġbas": 1381,
      "Ġmeas": 1382,
      "Ġsurf": 1383,
      "Ġphot": 1384,
      "Ġappro": 1385,
      "Ġdev": 1386,
      "iven": 1387,
      "me": 1388,
      "Ġgr": 1389,
      "Ġbi": 1390,
      "aring": 1391,
      "ex": 1392,
      "gen": 1393,
      "Ġconf": 1394,
      "ĠSo": 1395,
      "meric": 1396,
      "Ġwhy": 1397,
      "Ġwithin": 1398,
      "omp": 1399,
      "Ġconn": 1400,
      "ield": 1401,
      "Ġconst": 1402,
      "Ġcontin": 1403,
      "icle": 1404,
      "ĠSc": 1405,
      "Ġsour": 1406,
      "Ġcurrent": 1407,
      "-c": 1408,
      "ax": 1409,
      "ense": 1410,
      "ills": 1411,
      "ug": 1412,
      "irc": 1413,
      "Ġpub": 1414,
      "'ve": 1415,
      "ape": 1416,
      "Ġtry": 1417,
      "Ġreal": 1418,
      "ern": 1419,
      "Ġexperience": 1420,
      "Ġsomething": 1421,
      "ling": 1422,
      "Ġmove": 1423,
      "atch": 1424,
      "ered": 1425,
      "ental": 1426,
      "to": 1427,
      "...": 1428,
      "pr": 1429,
      "Ġrest": 1430,
      "Ġinclude": 1431,
      "Ġspecific": 1432,
      "Ġable": 1433,
      "Ġcap": 1434,
      "Ġmark": 1435,
      "ently": 1436,
      "ime": 1437,
      "Ġsit": 1438,
      "ients": 1439,
      "ination": 1440,
      "Ġtool": 1441,
      "Ġreally": 1442,
      "Ġdue": 1443,
      "Ġnatural": 1444,
      "Ġstep": 1445,
      "br": 1446,
      "Ġfollowing": 1447,
      "Ġsignific": 1448,
      "iversity": 1449,
      "iver": 1450,
      "ank": 1451,
      "Ġconsider": 1452,
      "erest": 1453,
      "ocus": 1454,
      "Ġstand": 1455,
      "Ġpossible": 1456,
      "Ġcour": 1457,
      "Ġwee": 1458,
      "Ġavail": 1459,
      "Ġcolor": 1460,
      "Ġsym": 1461,
      "Ġfree": 1462,
      "Ġanother": 1463,
      "50": 1464,
      "Ġimm": 1465,
      "Ġlot": 1466,
      "ertain": 1467,
      "ends": 1468,
      "ected": 1469,
      "Ġbecome": 1470,
      "Ġident": 1471,
      "ush": 1472,
      "Ġprogram": 1473,
      "Ġfunction": 1474,
      "akes": 1475,
      "Ġgoing": 1476,
      "Ġblood": 1477,
      "Ġvarious": 1478,
      "Ġcond": 1479,
      "ĠPl": 1480,
      "Ġhead": 1481,
      "Ġaddition": 1482,
      "Ġfish": 1483,
      "Ġput": 1484,
      "Ġdirect": 1485,
      "ization": 1486,
      "Ġamount": 1487,
      "Ġoper": 1488,
      "Ġold": 1489,
      "port": 1490,
      "Ġcome": 1491,
      "St": 1492,
      "raw": 1493,
      "uss": 1494,
      "ĠAmeric": 1495,
      "Ġhere": 1496,
      "Ġsoil": 1497,
      "Ġimpact": 1498,
      "Ġalways": 1499,
      "eds": 1500,
      "Ġstate": 1501,
      "Ġant": 1502,
      "Ġlittle": 1503,
      "land": 1504,
      "oot": 1505,
      "Ġmeans": 1506,
      "thing": 1507,
      "Ġappe": 1508,
      "of": 1509,
      "Ġcells": 1510,
      "osed": 1511,
      "ished": 1512,
      "11": 1513,
      "Ġneeds": 1514,
      "Ġlet": 1515,
      "Ġlast": 1516,
      "Ġsever": 1517,
      "Ġfil": 1518,
      "Ġopen": 1519,
      "etic": 1520,
      "Ġinvol": 1521,
      "ĠAr": 1522,
      "Ġheat": 1523,
      "Ġsecond": 1524,
      "Ġnut": 1525,
      "ĠWhich": 1526,
      "aste": 1527,
      "Ġcomput": 1528,
      "Ġret": 1529,
      "ration": 1530,
      "Ġpass": 1531,
      "Ġbus": 1532,
      "Ġcr": 1533,
      "Ġel": 1534,
      "Ġlim": 1535,
      "aves": 1536,
      "aper": 1537,
      "Ġpar": 1538,
      "Ġsay": 1539,
      "Ġspace": 1540,
      "ccess": 1541,
      "Ġec": 1542,
      "ane": 1543,
      "de": 1544,
      "arden": 1545,
      "Ġcomb": 1546,
      "Ġstruct": 1547,
      "Ġhig": 1548,
      "Ġcut": 1549,
      "icro": 1550,
      "ones": 1551,
      "Ġes": 1552,
      "Ġproblem": 1553,
      "Ġsize": 1554,
      "Ġmult": 1555,
      "Ġrequire": 1556,
      "ee": 1557,
      "Ġfocus": 1558,
      "Ġest": 1559,
      "Ġtypes": 1560,
      "Ġcam": 1561,
      "cle": 1562,
      "Ġareas": 1563,
      "Ġanal": 1564,
      "Ġavailable": 1565,
      "oad": 1566,
      "ateg": 1567,
      "ries": 1568,
      "Ġsignificant": 1569,
      "Ġvol": 1570,
      "Ġensure": 1571,
      "Ġindust": 1572,
      "Ġunt": 1573,
      "arent": 1574,
      "Ġlearning": 1575,
      "bers": 1576,
      "Ġfin": 1577,
      "over": 1578,
      "Ġscient": 1579,
      "Ġrange": 1580,
      "Ġdisease": 1581,
      "oes": 1582,
      "Ġfeature": 1583,
      "Ġmean": 1584,
      "ips": 1585,
      "Ġprovid": 1586,
      "Ġseveral": 1587,
      "orn": 1588,
      "ĠIs": 1589,
      "Ġprom": 1590,
      "ieve": 1591,
      "ox": 1592,
      "Ġcirc": 1593,
      "Ġteam": 1594,
      "Ġdevelopment": 1595,
      "Ġprofess": 1596,
      "ĠEx": 1597,
      "iod": 1598,
      "ards": 1599,
      "ending": 1600,
      "ocial": 1601,
      "Ġpresent": 1602,
      "aces": 1603,
      "pecial": 1604,
      "Ġusually": 1605,
      "Ġtimes": 1606,
      "Ġoil": 1607,
      "Ġessential": 1608,
      "Ġmot": 1609,
      "Ġinterest": 1610,
      "Ġenough": 1611,
      "Ġkey": 1612,
      "Ġrisk": 1613,
      "ended": 1614,
      "Ġmakes": 1615,
      "ified": 1616,
      "ĠSh": 1617,
      "ances": 1618,
      "Ġanimals": 1619,
      "Ġapplic": 1620,
      "Ġbeg": 1621,
      "ours": 1622,
      "Ġlay": 1623,
      "Ġgive": 1624,
      "ilar": 1625,
      "omes": 1626,
      "Ġcy": 1627,
      "Ġquality": 1628,
      "Ġeffective": 1629,
      "-d": 1630,
      "Ġmonth": 1631,
      "arc": 1632,
      "ems": 1633,
      "-p": 1634,
      "ably": 1635,
      "Ġbig": 1636,
      "Ġspecial": 1637,
      "ote": 1638,
      "Ġengine": 1639,
      "fort": 1640,
      "Ġaccess": 1641,
      "Ġsens": 1642,
      "az": 1643,
      "Ġsystems": 1644,
      "We": 1645,
      "Ġconditions": 1646,
      "âĢĶ": 1647,
      "Ġbased": 1648,
      "outh": 1649,
      "Ġmaterials": 1650,
      "Ġtechnology": 1651,
      "ton": 1652,
      "Ġsal": 1653,
      "Ġpost": 1654,
      "Ġchem": 1655,
      "Ġ$": 1656,
      "Ġhist": 1657,
      "ode": 1658,
      "Ġobject": 1659,
      "af": 1660,
      "Ġfre": 1661,
      "Ġoccur": 1662,
      "ĠCan": 1663,
      "'m": 1664,
      "Ġcho": 1665,
      "ĠCl": 1666,
      "Ġmill": 1667,
      "ision": 1668,
      "alk": 1669,
      "gn": 1670,
      "Ġdig": 1671,
      "au": 1672,
      "hor": 1673,
      "16": 1674,
      "Ġlist": 1675,
      "Ġcertain": 1676,
      "atic": 1677,
      "Ġside": 1678,
      "ĠRe": 1679,
      "Ġeffic": 1680,
      "Ġconsum": 1681,
      "aut": 1682,
      "ories": 1683,
      "oose": 1684,
      "Ġopp": 1685,
      "ency": 1686,
      "ires": 1687,
      "Ġsurface": 1688,
      "Ġdem": 1689,
      "Ġmil": 1690,
      "view": 1691,
      "As": 1692,
      "Ġsound": 1693,
      "Ġdeterm": 1694,
      "Ġpressure": 1695,
      "Ġimprove": 1696,
      "Ġparticular": 1697,
      "ring": 1698,
      "be": 1699,
      "Ġorder": 1700,
      "Ġnon": 1701,
      "ĠInd": 1702,
      "ĠWith": 1703,
      "ological": 1704,
      "ustom": 1705,
      "Ġuntil": 1706,
      "Ġprim": 1707,
      "ables": 1708,
      "14": 1709,
      "Ġtoget": 1710,
      "Ġtogether": 1711,
      "par": 1712,
      "Ġwind": 1713,
      "bon": 1714,
      "Ġrecomm": 1715,
      "oring": 1716,
      "When": 1717,
      "urther": 1718,
      "Ġbehav": 1719,
      "Ġproblems": 1720,
      "Ġeduc": 1721,
      "Ġlevels": 1722,
      "iting": 1723,
      "Ġsince": 1724,
      "ples": 1725,
      "aster": 1726,
      "ĠBy": 1727,
      ")Ċ": 1728,
      "Ġz": 1729,
      "Ġbra": 1730,
      "asing": 1731,
      "Ġweight": 1732,
      "ication": 1733,
      "Ġline": 1734,
      "Ġworks": 1735,
      "Ġdesc": 1736,
      "Ġaway": 1737,
      "olution": 1738,
      "inc": 1739,
      "Ġet": 1740,
      "put": 1741,
      "lu": 1742,
      "Ġfamily": 1743,
      "ains": 1744,
      "Ġworking": 1745,
      "ĠRes": 1746,
      "Ġnear": 1747,
      "ately": 1748,
      "Ġfeed": 1749,
      "Ġsun": 1750,
      "let": 1751,
      "Ġter": 1752,
      "Ġreport": 1753,
      "You": 1754,
      "Ġname": 1755,
      "Ġsuccess": 1756,
      "Ġchall": 1757,
      "ĠĠ": 1758,
      "Ġ&": 1759,
      "Ġ=": 1760,
      "self": 1761,
      "Ġproducts": 1762,
      "Ġshort": 1763,
      "ury": 1764,
      "Ġmov": 1765,
      "13": 1766,
      "Ġgroup": 1767,
      "Ġmar": 1768,
      "utes": 1769,
      "cul": 1770,
      "omen": 1771,
      "ah": 1772,
      "uture": 1773,
      "Ġrepl": 1774,
      "Ġenc": 1775,
      "ĠNew": 1776,
      "Ġfore": 1777,
      "Ġdays": 1778,
      "Ġmaintain": 1779,
      "pecially": 1780,
      "Ġnext": 1781,
      "ember": 1782,
      "Ġcomplete": 1783,
      "inter": 1784,
      "Ġprotect": 1785,
      "ump": 1786,
      "Ġcult": 1787,
      "Ġcomes": 1788,
      "Ġquick": 1789,
      "Ġmach": 1790,
      "oney": 1791,
      "Ġalong": 1792,
      "Ġsugg": 1793,
      "Ġturn": 1794,
      "Ġincrease": 1795,
      "ored": 1796,
      "icult": 1797,
      "Ġkind": 1798,
      "Ġleg": 1799,
      "oint": 1800,
      "ware": 1801,
      "Ġrele": 1802,
      "fact": 1803,
      "Ġnecess": 1804,
      "jor": 1805,
      "Ġearly": 1806,
      "Ġresults": 1807,
      "imes": 1808,
      "Ġeasy": 1809,
      "Ġcase": 1810,
      "Ġhaving": 1811,
      "Ġgarden": 1812,
      "ĠThat": 1813,
      "Ġtru": 1814,
      "Ġperiod": 1815,
      "Ġothers": 1816,
      "ither": 1817,
      "Ġcourse": 1818,
      "Ġsing": 1819,
      "There": 1820,
      "NA": 1821,
      "Ġlocal": 1822,
      "osp": 1823,
      "Ġlikely": 1824,
      "-l": 1825,
      "ĠUniversity": 1826,
      "Ġreduce": 1827,
      "17": 1828,
      "une": 1829,
      "Ġhealthy": 1830,
      "Ġrad": 1831,
      "oor": 1832,
      "Ġfri": 1833,
      "agement": 1834,
      "onom": 1835,
      "Ġgrowth": 1836,
      "Ġtreatment": 1837,
      "fer": 1838,
      "erc": 1839,
      "Ġhigher": 1840,
      "ĠSe": 1841,
      "Ġcou": 1842,
      "work": 1843,
      "Ġdry": 1844,
      "ogn": 1845,
      "Ġfull": 1846,
      "ctor": 1847,
      "Ġlab": 1848,
      "Ġbusiness": 1849,
      "Ġsuggest": 1850,
      "Ġstrong": 1851,
      "Ġprote": 1852,
      "ĠAt": 1853,
      "âĢ¦": 1854,
      "Ġsocial": 1855,
      "Ġdoesn": 1856,
      "Ġground": 1857,
      "Ġste": 1858,
      "Ġchanges": 1859,
      "Ġgreen": 1860,
      "por": 1861,
      "ators": 1862,
      "Ġdogs": 1863,
      "light": 1864,
      "Ġtur": 1865,
      "-m": 1866,
      "ches": 1867,
      "Ġactually": 1868,
      "Ġfac": 1869,
      "ooks": 1870,
      "Ġmeasure": 1871,
      "ret": 1872,
      "Ġwarm": 1873,
      "aging": 1874,
      "bit": 1875,
      "Ġissues": 1876,
      "Ġsimilar": 1877,
      "ipp": 1878,
      "Ġsimple": 1879,
      "not": 1880,
      "Ġlower": 1881,
      "Ġrole": 1882,
      "Ġunique": 1883,
      "Ġleast": 1884,
      "Ġsoft": 1885,
      "Ġlive": 1886,
      "Ġeat": 1887,
      "Ġheart": 1888,
      "ler": 1889,
      "ised": 1890,
      "âĢĻs": 1891,
      "Ġreason": 1892,
      "Ġrece": 1893,
      "Ġorig": 1894,
      "ream": 1895,
      "Ġways": 1896,
      "Ġsafe": 1897,
      "Ġmajor": 1898,
      "Ġred": 1899,
      "Ġdiet": 1900,
      "Ġresour": 1901,
      "Ġavoid": 1902,
      "An": 1903,
      "Ġans": 1904,
      "astic": 1905,
      "agn": 1906,
      "Ġespecially": 1907,
      "Ġmodel": 1908,
      "Ġpie": 1909,
      "Ġcustom": 1910,
      "ivity": 1911,
      "Ġage": 1912,
      "izing": 1913,
      "----": 1914,
      "Ġ[": 1915,
      "Ġfuture": 1916,
      "Ġbro": 1917,
      "ĠTe": 1918,
      "rect": 1919,
      "Ġsum": 1920,
      "Ġcheck": 1921,
      "ames": 1922,
      "Ġmind": 1923,
      "fect": 1924,
      "Ġfar": 1925,
      "Ġi": 1926,
      "ustain": 1927,
      "Ġacross": 1928,
      "Ġdamage": 1929,
      "Ġinvest": 1930,
      "atory": 1931,
      "Ġeye": 1932,
      "ilities": 1933,
      "Ġvide": 1934,
      "rag": 1935,
      "ĠBe": 1936,
      "-t": 1937,
      "Ġmicro": 1938,
      "Ġaffect": 1939,
      "ann": 1940,
      "Ġproduction": 1941,
      "ĠDe": 1942,
      "Ġskin": 1943,
      "25": 1944,
      "Ġvir": 1945,
      "Ġwrit": 1946,
      "Ġdone": 1947,
      "vious": 1948,
      "Ġfour": 1949,
      "Ġfrequ": 1950,
      "Ġcharacter": 1951,
      "Ġthing": 1952,
      "Ġpred": 1953,
      "Ġvalue": 1954,
      "Ġmarket": 1955,
      "40": 1956,
      "Ġnorm": 1957,
      "Ġnever": 1958,
      "ĠCon": 1959,
      "ott": 1960,
      "Ġassoci": 1961,
      "Ġbegin": 1962,
      "orth": 1963,
      "verage": 1964,
      "Ġgas": 1965,
      "Ġhim": 1966,
      "Ġdifficult": 1967,
      "ĠSome": 1968,
      "Ġaccording": 1969,
      "Ġbatter": 1970,
      "ĠSp": 1971,
      "Ġpaper": 1972,
      "lish": 1973,
      "Ġbit": 1974,
      "joy": 1975,
      "Ġresearc": 1976,
      "hem": 1977,
      "igns": 1978,
      "ression": 1979,
      "Ġregular": 1980,
      "Ġcool": 1981,
      "Ġhelps": 1982,
      "Ġsays": 1983,
      "Ġagainst": 1984,
      "Ġreact": 1985,
      "chan": 1986,
      "anced": 1987,
      "Ġfield": 1988,
      "ym": 1989,
      "ĠYour": 1990,
      "Ġhouse": 1991,
      "Ġloss": 1992,
      "Ġbenefits": 1993,
      "Ġpast": 1994,
      "Ġbook": 1995,
      "usion": 1996,
      "Ġgiven": 1997,
      "most": 1998,
      "ĠEn": 1999,
      "Ġflu": 2000,
      "Ġpopular": 2001,
      "ray": 2002,
      "Ġlooking": 2003,
      "Ġprob": 2004,
      "estions": 2005,
      "yle": 2006,
      "bo": 2007,
      "Ġwhite": 2008,
      "iple": 2009,
      "Ġparts": 2010,
      "Ġgre": 2011,
      "ission": 2012,
      "Ġabove": 2013,
      "side": 2014,
      "though": 2015,
      "ived": 2016,
      "Ġpublic": 2017,
      "Ġach": 2018,
      "amm": 2019,
      "ledge": 2020,
      "uro": 2021,
      "Ġchemical": 2022,
      "wards": 2023,
      "Ġeffects": 2024,
      "omet": 2025,
      "ffic": 2026,
      "Ġclear": 2027,
      "!ĊĊ": 2028,
      "ĠCol": 2029,
      "Ġelectric": 2030,
      "Ġcontrib": 2031,
      "Ġrespons": 2032,
      "Ġland": 2033,
      "Ġcompon": 2034,
      "Ġobs": 2035,
      "Ġintern": 2036,
      "idence": 2037,
      "Ġleft": 2038,
      "ĠZ": 2039,
      "Ġdetail": 2040,
      "Ġwide": 2041,
      "Ġdesigned": 2042,
      "ĠBl": 2043,
      "Ġabs": 2044,
      "Ġsingle": 2045,
      "Ġphysical": 2046,
      "ptoms": 2047,
      "avor": 2048,
      "Ġdiscuss": 2049,
      "ĠPh": 2050,
      "ibility": 2051,
      "Ġunderstanding": 2052,
      "Ġfactors": 2053,
      "Ġclose": 2054,
      "Ġcondition": 2055,
      "raft": 2056,
      "ĠâĢĶ": 2057,
      "ensive": 2058,
      "uals": 2059,
      "Ġweek": 2060,
      ")ĊĊ": 2061,
      "Ġsource": 2062,
      "Ġwr": 2063,
      "Ġcomplex": 2064,
      "hing": 2065,
      "Ġoffer": 2066,
      "To": 2067,
      "Ġtraining": 2068,
      "Ġterm": 2069,
      "ufact": 2070,
      "ploy": 2071,
      "Ġbal": 2072,
      "Ġcru": 2073,
      "Ġwood": 2074,
      "ising": 2075,
      "!Ċ": 2076,
      "Ġegg": 2077,
      "Ġexce": 2078,
      "Ġtoday": 2079,
      "Ġauthor": 2080,
      "Ġanimal": 2081,
      "Ġhold": 2082,
      "Ġonce": 2083,
      "Ġpercent": 2084,
      "orts": 2085,
      "Ġenjoy": 2086,
      "roll": 2087,
      "Ġclimate": 2088,
      "Ġallows": 2089,
      "Ġskills": 2090,
      "Ġthin": 2091,
      "Ġview": 2092,
      "Ġgetting": 2093,
      "Ġer": 2094,
      "Ġpet": 2095,
      "Ġmass": 2096,
      "Ġwild": 2097,
      "Ġproduce": 2098,
      "Ġveh": 2099,
      "Ġeither": 2100,
      "Ġstress": 2101,
      "Ġsubst": 2102,
      "ina": 2103,
      "ortun": 2104,
      "Ġrepres": 2105,
      "Wh": 2106,
      "Ġgame": 2107,
      "Ġexpect": 2108,
      "Ġability": 2109,
      "Ġsmo": 2110,
      "Ġprovides": 2111,
      "ĠOr": 2112,
      "For": 2113,
      "Ġamong": 2114,
      "angu": 2115,
      "alf": 2116,
      "Ġstop": 2117,
      "ER": 2118,
      "Ġspeed": 2119,
      "ĠInst": 2120,
      "com": 2121,
      "Ġfall": 2122,
      "Ġlif": 2123,
      "ĠUS": 2124,
      "ope": 2125,
      "lished": 2126,
      "ming": 2127,
      "ery": 2128,
      "Ġblack": 2129,
      "Ġdeg": 2130,
      "ready": 2131,
      "ores": 2132,
      "ruction": 2133,
      "lement": 2134,
      "Ġquestion": 2135,
      "ystem": 2136,
      "Ġcarbon": 2137,
      "lection": 2138,
      "Ġvers": 2139,
      "Ġvariety": 2140,
      "Ġenh": 2141,
      "Ġcomputer": 2142,
      "Ġveget": 2143,
      "Ġnet": 2144,
      "Ġfu": 2145,
      "Ġscience": 2146,
      "Ġparent": 2147,
      "Ġwhether": 2148,
      "Ġmatter": 2149,
      "resh": 2150,
      "Ġpurp": 2151,
      "Ġexperien": 2152,
      "Ġfurther": 2153,
      "Ġbrain": 2154,
      "ĠOn": 2155,
      "idd": 2156,
      "Ġcoll": 2157,
      "Ġhours": 2158,
      "leep": 2159,
      "Ġdraw": 2160,
      "ification": 2161,
      "raph": 2162,
      "ĠEng": 2163,
      "Ġnecessary": 2164,
      "Ġtri": 2165,
      "istic": 2166,
      "aching": 2167,
      "Ġsafety": 2168,
      "Ġdifference": 2169,
      "Ġinteract": 2170,
      "Ġperformance": 2171,
      "Ġbacter": 2172,
      "ney": 2173,
      "Ġlove": 2174,
      "Ġtell": 2175,
      "ĠOne": 2176,
      "ĠIm": 2177,
      "ĠAI": 2178,
      "Ġfru": 2179,
      "ales": 2180,
      "Ġill": 2181,
      "itch": 2182,
      ",Ċ": 2183,
      "Ġbuy": 2184,
      "Ġglob": 2185,
      "duct": 2186,
      "Ġconnect": 2187,
      "Ġneeded": 2188,
      "Ġbelow": 2189,
      "Ġpersonal": 2190,
      "iques": 2191,
      "overed": 2192,
      "21": 2193,
      "Ġalready": 2194,
      "Ġconcer": 2195,
      "**": 2196,
      "ibr": 2197,
      "for": 2198,
      "ength": 2199,
      "Ġcommunity": 2200,
      "Ch": 2201,
      "Ġcrit": 2202,
      "ik": 2203,
      "lying": 2204,
      "Ġhistory": 2205,
      "Ġindividual": 2206,
      "Ġdoing": 2207,
      "Ġindustry": 2208,
      "Ġsn": 2209,
      "ograp": 2210,
      "Ġevent": 2211,
      "rown": 2212,
      "ĠNo": 2213,
      "Ġmechan": 2214,
      "Ġmix": 2215,
      "ae": 2216,
      "Ġresearchers": 2217,
      "Ġhot": 2218,
      "man": 2219,
      "ditional": 2220,
      "Ġfeatures": 2221,
      "aken": 2222,
      "Ġtree": 2223,
      "Ġindic": 2224,
      "Ġfat": 2225,
      "Ġhappen": 2226,
      "Ġmo": 2227,
      "Ġsustain": 2228,
      "Ġbreak": 2229,
      "Ġdescrib": 2230,
      "sc": 2231,
      "rel": 2232,
      "ird": 2233,
      "edi": 2234,
      "ask": 2235,
      "Ġmanufact": 2236,
      "Ġsymptoms": 2237,
      "Ġhyd": 2238,
      "Ġever": 2239,
      "Ġinside": 2240,
      "osing": 2241,
      "utions": 2242,
      "ows": 2243,
      "Ġexist": 2244,
      "Ġtools": 2245,
      "Ġinit": 2246,
      "just": 2247,
      "Ġknowledge": 2248,
      "Ġcontent": 2249,
      "Ġstructure": 2250,
      "eral": 2251,
      "60": 2252,
      "ĠEar": 2253,
      "Ġask": 2254,
      "mit": 2255,
      "Ġselect": 2256,
      "vert": 2257,
      "Ġleaves": 2258,
      "Ġimage": 2259,
      "Ġchalleng": 2260,
      "Ġactivities": 2261,
      "Ġrecord": 2262,
      "ĠAll": 2263,
      "Ġonline": 2264,
      "ilt": 2265,
      "Ġbuilding": 2266,
      "24": 2267,
      "Ġarticle": 2268,
      "aps": 2269,
      "Ġlonger": 2270,
      "use": 2271,
      "Ġslow": 2272,
      "Ġresist": 2273,
      "Ġrequired": 2274,
      "ront": 2275,
      "Ġpan": 2276,
      "by": 2277,
      "ument": 2278,
      "app": 2279,
      "Ġox": 2280,
      "Ġseen": 2281,
      "nam": 2282,
      "Ġsuper": 2283,
      "ply": 2284,
      "aling": 2285,
      ".,": 2286,
      "Ġstrateg": 2287,
      "gar": 2288,
      "aving": 2289,
      "gs": 2290,
      "Ġquestions": 2291,
      "Ġmention": 2292,
      "Ġminim": 2293,
      "Ġfarm": 2294,
      "Ġenvironmental": 2295,
      "Ġcontact": 2296,
      "Ġpath": 2297,
      "Ġself": 2298,
      "Ġcompany": 2299,
      "fully": 2300,
      "Ġmethods": 2301,
      "Ġprec": 2302,
      "Ġbar": 2303,
      "sel": 2304,
      "Ġrate": 2305,
      "Ġhumans": 2306,
      "Ġcorrect": 2307,
      "Ġperfect": 2308,
      "Ġtaking": 2309,
      "Ġdeep": 2310,
      "upp": 2311,
      "Ġopportun": 2312,
      "ura": 2313,
      "Ġpay": 2314,
      "Ġuser": 2315,
      "Ġidea": 2316,
      "Ġmonths": 2317,
      "reng": 2318,
      "Ġexerc": 2319,
      "Ġinstall": 2320,
      "Ġtot": 2321,
      "Ġliving": 2322,
      "Ġprint": 2323,
      "Ġaddress": 2324,
      "Ġtypically": 2325,
      "way": 2326,
      "Ġcancer": 2327,
      "erence": 2328,
      "Ġnature": 2329,
      "illed": 2330,
      "Ġsomeone": 2331,
      "ites": 2332,
      "Ġencou": 2333,
      "ĠQu": 2334,
      "Ġseason": 2335,
      "ctions": 2336,
      "ding": 2337,
      "Ġeasily": 2338,
      "Ġyoung": 2339,
      "rate": 2340,
      "Ġremov": 2341,
      "inary": 2342,
      "ĠAmerican": 2343,
      "Ġwhole": 2344,
      "Al": 2345,
      "Ġneg": 2346,
      "ule": 2347,
      "Ġfit": 2348,
      "room": 2349,
      "Ġjour": 2350,
      "Ġappear": 2351,
      "Ġisn": 2352,
      "22": 2353,
      "Ġactivity": 2354,
      "ervation": 2355,
      "ysis": 2356,
      "ĠWor": 2357,
      "selves": 2358,
      "Ġtar": 2359,
      "iency": 2360,
      "Ġtrees": 2361,
      "ties": 2362,
      "Ġprep": 2363,
      "Ġindividuals": 2364,
      "Ġtravel": 2365,
      "amp": 2366,
      "Ġsqu": 2367,
      "ĠCent": 2368,
      "erve": 2369,
      "Ġelectr": 2370,
      "âĢĵ": 2371,
      "Ġintrodu": 2372,
      "Ġmat": 2373,
      "Ġapproach": 2374,
      "____": 2375,
      "Ġprop": 2376,
      "Ġminutes": 2377,
      "Ġsitu": 2378,
      "Ġut": 2379,
      "Ġgeneral": 2380,
      "urs": 2381,
      "Ġgrowing": 2382,
      "Ġbehavior": 2383,
      "Ġ.": 2384,
      "Ġhor": 2385,
      "Ġpositive": 2386,
      "nces": 2387,
      "Ġmoney": 2388,
      "Ġanswer": 2389,
      "Ġmillion": 2390,
      "aches": 2391,
      "ises": 2392,
      "Ġtechniques": 2393,
      "Ġextra": 2394,
      "Ġcrucial": 2395,
      "Ġmole": 2396,
      "Ġharm": 2397,
      "idered": 2398,
      "uck": 2399,
      "Ġla": 2400,
      "amin": 2401,
      "Ġroom": 2402,
      "Ġlaw": 2403,
      "het": 2404,
      "Ġcreating": 2405,
      "Ġvac": 2406,
      "Ġvideo": 2407,
      "Ġbring": 2408,
      "Ġmedical": 2409,
      "reme": 2410,
      "Ġentire": 2411,
      "Ġing": 2412,
      "Ġrelations": 2413,
      "ured": 2414,
      ".\"Ċ": 2415,
      "Ġcold": 2416,
      ").Ċ": 2417,
      "Ġwall": 2418,
      "Ġjob": 2419,
      "Ġmeet": 2420,
      "So": 2421,
      "ĠDr": 2422,
      "Ġport": 2423,
      "Ġcases": 2424,
      "ese": 2425,
      ".\"ĊĊ": 2426,
      "Ġprimary": 2427,
      "ze": 2428,
      "Ġoverall": 2429,
      "Ġpoll": 2430,
      "Ġcollect": 2431,
      "Ġemb": 2432,
      "Ġetc": 2433,
      "anguage": 2434,
      "Ġresources": 2435,
      "ume": 2436,
      "verse": 2437,
      "Ġstay": 2438,
      "ĠNe": 2439,
      "Ġmagn": 2440,
      "Ġuses": 2441,
      "onst": 2442,
      "Ġsolution": 2443,
      "ges": 2444,
      "Ġbeaut": 2445,
      "rams": 2446,
      "Ġcomfort": 2447,
      "ĠWhile": 2448,
      "iment": 2449,
      "Ġaud": 2450,
      "Ġmanagement": 2451,
      "Ġmen": 2452,
      "Ġrecogn": 2453,
      "Ġconsidered": 2454,
      "Ġposition": 2455,
      "Ġcover": 2456,
      "Ġrather": 2457,
      "Ġyourself": 2458,
      "ĠShe": 2459,
      "aced": 2460,
      "Ġquickly": 2461,
      "aily": 2462,
      "era": 2463,
      "Ġpatients": 2464,
      "Ġgot": 2465,
      "80": 2466,
      "Ġassociated": 2467,
      "cks": 2468,
      "osis": 2469,
      "Ġthroughout": 2470,
      "Ġsleep": 2471,
      "ging": 2472,
      "Ġchoose": 2473,
      "Ġbirds": 2474,
      "Ġwar": 2475,
      "Th": 2476,
      "Ġcook": 2477,
      "Ġstreng": 2478,
      "iation": 2479,
      "Ġinflu": 2480,
      "ulations": 2481,
      "eter": 2482,
      "Ġinteg": 2483,
      "Ġprofessional": 2484,
      "uff": 2485,
      "-based": 2486,
      "Ġwomen": 2487,
      "Ġlater": 2488,
      "Ġcapt": 2489,
      "ounds": 2490,
      "icles": 2491,
      "Ġaverage": 2492,
      "Ġexc": 2493,
      "Ġsam": 2494,
      "lex": 2495,
      "Ġhowever": 2496,
      "erous": 2497,
      "ipment": 2498,
      "ival": 2499,
      "Ġpack": 2500,
      "Ġoptions": 2501,
      "Ġthought": 2502,
      "IN": 2503,
      "eding": 2504,
      "Ġeyes": 2505,
      "lor": 2506,
      "ĠCar": 2507,
      "Ġservice": 2508,
      "aged": 2509,
      "Ġtakes": 2510,
      "Ġidentify": 2511,
      "Ġsense": 2512,
      "Ġbad": 2513,
      "Ġfund": 2514,
      "Ġfoot": 2515,
      "Ġgover": 2516,
      "ils": 2517,
      "Ġcreated": 2518,
      "Ġeconom": 2519,
      "Ġpractice": 2520,
      "Ġissue": 2521,
      "Ġsepar": 2522,
      "sect": 2523,
      "ellow": 2524,
      "Ġoutside": 2525,
      "Ġprotein": 2526,
      "ĠDo": 2527,
      "oll": 2528,
      "Ġheav": 2529,
      "pro": 2530,
      "lease": 2531,
      "Ġemploy": 2532,
      "Ġadult": 2533,
      "ĠComp": 2534,
      "Ġprobably": 2535,
      "Ġfeet": 2536,
      "Ġrelationship": 2537,
      "ĠCO": 2538,
      "aff": 2539,
      "ene": 2540,
      "Ġappl": 2541,
      "Ġdeveloped": 2542,
      "earch": 2543,
      "Ġbur": 2544,
      "Ġpopulation": 2545,
      "Ġmodern": 2546,
      "Ġfoods": 2547,
      "Ġfast": 2548,
      "Ġcauses": 2549,
      "Ġcompan": 2550,
      "Ġsimply": 2551,
      "Ġtend": 2552,
      "Ġnormal": 2553,
      "Ġmachine": 2554,
      "Ġwebs": 2555,
      "Ġconsist": 2556,
      "Ġmultiple": 2557,
      "Ġhalf": 2558,
      "Ġnight": 2559,
      "Ġrepresent": 2560,
      "Ġwaste": 2561,
      "Ġtarget": 2562,
      "Ġacid": 2563,
      "-w": 2564,
      "rict": 2565,
      "Ġrob": 2566,
      "Ġstra": 2567,
      "Ġbab": 2568,
      "Ġincreased": 2569,
      "play": 2570,
      "ĠLe": 2571,
      "Ġsubject": 2572,
      "Ġoptim": 2573,
      "Ġcop": 2574,
      "Ġsomet": 2575,
      "Ġconcept": 2576,
      "Ġservices": 2577,
      "Ġcannot": 2578,
      "nov": 2579,
      "ĠComm": 2580,
      "Ġcompet": 2581,
      "Ġincludes": 2582,
      "Ġur": 2583,
      "Ġscientists": 2584,
      "ĠX": 2585,
      "Ġinstead": 2586,
      "elling": 2587,
      "Ġpict": 2588,
      "ES": 2589,
      "Ġann": 2590,
      "Ġalmost": 2591,
      "Ġdevice": 2592,
      "Ġtraditional": 2593,
      "Ġrelated": 2594,
      "uit": 2595,
      "augh": 2596,
      "Ġweather": 2597,
      "rated": 2598,
      "Ġfuel": 2599,
      "xim": 2600,
      "Ġwinter": 2601,
      "Ġteac": 2602,
      "urope": 2603,
      "Ġattention": 2604,
      "val": 2605,
      "Ġeducation": 2606,
      "Ġglobal": 2607,
      "Ġquant": 2608,
      "Ġsil": 2609,
      "Ġremove": 2610,
      "ĠUnited": 2611,
      "cre": 2612,
      "Ġapplications": 2613,
      "mb": 2614,
      "Ġgovern": 2615,
      "Ġshape": 2616,
      "Ġbattery": 2617,
      "Ġhabit": 2618,
      "Ġremain": 2619,
      "Ġparticip": 2620,
      "Ġfive": 2621,
      "abor": 2622,
      "Ġfram": 2623,
      "Ġlarger": 2624,
      "cies": 2625,
      "Ġstudies": 2626,
      "Ġextreme": 2627,
      "Ġsat": 2628,
      "ĠNational": 2629,
      "ĠHere": 2630,
      "asc": 2631,
      "rig": 2632,
      "Ġautom": 2633,
      "Ġelements": 2634,
      "Ġspread": 2635,
      "Ġincreasing": 2636,
      "Ġcountry": 2637,
      "ners": 2638,
      ".S": 2639,
      "Ġefficient": 2640,
      "Ġsometimes": 2641,
      "ĠUs": 2642,
      "-in": 2643,
      "Ġaltern": 2644,
      "Ġfresh": 2645,
      "Ġbase": 2646,
      "asons": 2647,
      "Ġlength": 2648,
      "itor": 2649,
      "Ġwon": 2650,
      "AT": 2651,
      "Ġoffers": 2652,
      "Ġhun": 2653,
      "Ġwa": 2654,
      "Ad": 2655,
      "ift": 2656,
      "Ġadvant": 2657,
      "ED": 2658,
      "Ġface": 2659,
      "AR": 2660,
      "Ġfail": 2661,
      "Ġbasic": 2662,
      "23": 2663,
      "ison": 2664,
      "Ġproviding": 2665,
      "acks": 2666,
      "Ġeverything": 2667,
      "Ġcra": 2668,
      "Ġcompared": 2669,
      "Ġanything": 2670,
      "âĢĿ": 2671,
      "Ġdetermine": 2672,
      "umb": 2673,
      "ians": 2674,
      "Ġchoice": 2675,
      "Ġaccount": 2676,
      "Ġnutri": 2677,
      "urity": 2678,
      "Ġstory": 2679,
      "ĠMed": 2680,
      "gest": 2681,
      "Ġcaused": 2682,
      "OT": 2683,
      "ĠCal": 2684,
      "Ġequipment": 2685,
      "cean": 2686,
      "Ġbacteria": 2687,
      "Ġdevices": 2688,
      "ograph": 2689,
      "ĠCont": 2690,
      "Ġshows": 2691,
      "ned": 2692,
      "Ġge": 2693,
      "oh": 2694,
      "Ġyet": 2695,
      "Ġseem": 2696,
      "Ġexplain": 2697,
      "igure": 2698,
      "Ġmedic": 2699,
      "ĠEarth": 2700,
      "ground": 2701,
      "Ġpri": 2702,
      "Ġadjust": 2703,
      "Ġquite": 2704,
      "Ġtotal": 2705,
      "Ġestab": 2706,
      "yl": 2707,
      "Ġones": 2708,
      "Ġlog": 2709,
      "Ġsurv": 2710,
      "ropri": 2711,
      "ively": 2712,
      "Ġinj": 2713,
      "Ġmetal": 2714,
      "isc": 2715,
      "onse": 2716,
      "Ġdom": 2717,
      "Ġoption": 2718,
      "sy": 2719,
      "Ġfire": 2720,
      "ged": 2721,
      "Ġsite": 2722,
      "Ġexact": 2723,
      "One": 2724,
      "Ġce": 2725,
      "Ġsuit": 2726,
      "ights": 2727,
      "ĠApp": 2728,
      "rogen": 2729,
      "Ġmentioned": 2730,
      "Ġcomponents": 2731,
      "Ġgenerally": 2732,
      "Ġtaken": 2733,
      "izes": 2734,
      "ley": 2735,
      "ĠAf": 2736,
      "Ġbott": 2737,
      "Ġstarted": 2738,
      "ĠEurope": 2739,
      "Ġang": 2740,
      "Ġfib": 2741,
      "Ġbox": 2742,
      "Ġmeat": 2743,
      "rapy": 2744,
      "ules": 2745,
      "ronic": 2746,
      "Ġpurpose": 2747,
      "Ġshare": 2748,
      "Ġdark": 2749,
      "ĠTr": 2750,
      "Ġfem": 2751,
      "where": 2752,
      "ched": 2753,
      "Ġkids": 2754,
      "mon": 2755,
      "Ġdri": 2756,
      "Ġsummer": 2757,
      "icial": 2758,
      "min": 2759,
      "Ġlanguage": 2760,
      "Ġtrue": 2761,
      "Ġadapt": 2762,
      "Ġstandard": 2763,
      "Ġdru": 2764,
      "Ġball": 2765,
      "Ġthemselves": 2766,
      "Ġdigital": 2767,
      "AS": 2768,
      "Ġplastic": 2769,
      "Ġswe": 2770,
      "ography": 2771,
      "Why": 2772,
      "isms": 2773,
      "ditionally": 2774,
      "aim": 2775,
      "imately": 2776,
      "ests": 2777,
      "Ġfront": 2778,
      "Ġtrying": 2779,
      "Ġglass": 2780,
      "rad": 2781,
      "ĠCons": 2782,
      "itud": 2783,
      "go": 2784,
      "Ġrot": 2785,
      "ĠHealth": 2786,
      "90": 2787,
      "Ġdaily": 2788,
      "icy": 2789,
      "Ġsea": 2790,
      "Ġmilk": 2791,
      "Ġlo": 2792,
      "ension": 2793,
      "Ġago": 2794,
      "Ġrelative": 2795,
      "hern": 2796,
      "Ġitself": 2797,
      "Ġexplore": 2798,
      "hib": 2799,
      "Ġgroups": 2800,
      "Ġterms": 2801,
      "Ġdy": 2802,
      "Ġwords": 2803,
      "ĠAfter": 2804,
      "Ġtable": 2805,
      "Ġsoftware": 2806,
      "Ġgain": 2807,
      "Ġachieve": 2808,
      "Ġproperties": 2809,
      "Ġreading": 2810,
      "Ġsteps": 2811,
      "Ġemot": 2812,
      "Ġrequires": 2813,
      "Ġmom": 2814,
      "ecause": 2815,
      "Ġice": 2816,
      "ipe": 2817,
      "oses": 2818,
      "Ġprevious": 2819,
      "Ġcontinu": 2820,
      "istics": 2821,
      "Ġcolors": 2822,
      "Ġbehind": 2823,
      "oon": 2824,
      "Ġwond": 2825,
      "alking": 2826,
      "Ġcard": 2827,
      "ino": 2828,
      "Ġaspect": 2829,
      "tenance": 2830,
      "70": 2831,
      "Ġingred": 2832,
      "Ġconduct": 2833,
      "ĠDes": 2834,
      "Ġlayer": 2835,
      "ening": 2836,
      "Ġbelieve": 2837,
      "Ġcode": 2838,
      "Ġassess": 2839,
      "ccording": 2840,
      "Ġrout": 2841,
      "Ġregard": 2842,
      "Ġeating": 2843,
      "Ġsmaller": 2844,
      "Pro": 2845,
      "arily": 2846,
      "Ġmoist": 2847,
      "Ġdiseases": 2848,
      "Ġir": 2849,
      "Ġfamil": 2850,
      "ĠMan": 2851,
      "Ġtou": 2852,
      "ext": 2853,
      "Ġblue": 2854,
      "Ġdiagn": 2855,
      "Ġforce": 2856,
      "Ġinsect": 2857,
      ").ĊĊ": 2858,
      "Ġadded": 2859,
      "Ġanalysis": 2860,
      "iot": 2861,
      "ON": 2862,
      "acy": 2863,
      "Ġleading": 2864,
      "Ġdoc": 2865,
      "Ġbul": 2866,
      "Ġarr": 2867,
      "Ġcats": 2868,
      "ĠAm": 2869,
      "iring": 2870,
      "Ġeggs": 2871,
      "Ġparticularly": 2872,
      "ĠYes": 2873,
      "Ġload": 2874,
      "aries": 2875,
      "ĠPr": 2876,
      "Ġvehicle": 2877,
      "Ġprovided": 2878,
      "ricult": 2879,
      "Ġadditional": 2880,
      "Ġlink": 2881,
      "rition": 2882,
      "Ġparents": 2883,
      "oles": 2884,
      "'d": 2885,
      "ĠStates": 2886,
      "Ġassist": 2887,
      "Ġbelie": 2888,
      "Ġkit": 2889,
      "ĠAfric": 2890,
      "Ġshown": 2891,
      "Ġsolar": 2892,
      "osure": 2893,
      "illing": 2894,
      "Ġaction": 2895,
      "Ex": 2896,
      "iding": 2897,
      "ĠDNA": 2898,
      "But": 2899,
      "Ġmess": 2900,
      "pid": 2901,
      "Ġtowards": 2902,
      "Ġemerg": 2903,
      "ID": 2904,
      "Ġstudent": 2905,
      "Ġaware": 2906,
      "ences": 2907,
      "li": 2908,
      "inct": 2909,
      "nter": 2910,
      "Ġreach": 2911,
      "Ġteeth": 2912,
      "Ġweeks": 2913,
      "like": 2914,
      "Ġdefin": 2915,
      "Ġdirectly": 2916,
      "Ġhighly": 2917,
      "Ġtiss": 2918,
      "ĠPre": 2919,
      "Ġpurch": 2920,
      "Ġrecommended": 2921,
      "Ġeveryone": 2922,
      "ĠStud": 2923,
      "Ġlives": 2924,
      "ĠCo": 2925,
      "Ġhar": 2926,
      "ĠAust": 2927,
      "Ġsugar": 2928,
      "ulate": 2929,
      "ades": 2930,
      "Ġcontinue": 2931,
      "Ġdest": 2932,
      "Ġresponse": 2933,
      "Ġmaxim": 2934,
      "ĠMay": 2935,
      "rid": 2936,
      "Ġdistrib": 2937,
      "ription": 2938,
      "Ġinvolved": 2939,
      "Ġpoints": 2940,
      "Ġsources": 2941,
      "iddle": 2942,
      "Ġeasier": 2943,
      "Ġful": 2944,
      "ĠSchool": 2945,
      "Ġguide": 2946,
      "oph": 2947,
      "Ġimages": 2948,
      "Ġrecommend": 2949,
      "ĠNorth": 2950,
      "head": 2951,
      "Ġlands": 2952,
      "artment": 2953,
      "Ġvit": 2954,
      "ĠMy": 2955,
      "Ġroad": 2956,
      "vere": 2957,
      "rist": 2958,
      "Ġreview": 2959,
      "ai": 2960,
      "Ġobserv": 2961,
      "Is": 2962,
      "Ġforest": 2963,
      "Ġitems": 2964,
      "Ġcapac": 2965,
      "-st": 2966,
      "Sh": 2967,
      "Â°": 2968,
      "unch": 2969,
      "new": 2970,
      "Ġdou": 2971,
      "yp": 2972,
      "ĠNot": 2973,
      "Ġreplace": 2974,
      "ĠMe": 2975,
      "Ġappropri": 2976,
      "osition": 2977,
      "ĠGu": 2978,
      "Ġhair": 2979,
      "ĠKe": 2980,
      "ops": 2981,
      "ĠAre": 2982,
      "Ġproduced": 2983,
      "Ġmodels": 2984,
      "ĠFe": 2985,
      "anks": 2986,
      "vant": 2987,
      "Ġbed": 2988,
      "Ġtips": 2989,
      "Ġnegative": 2990,
      "ĠOf": 2991,
      "Ġgoal": 2992,
      "Ġdang": 2993,
      "Ġgenetic": 2994,
      "-g": 2995,
      "itation": 2996,
      "Ġapplication": 2997,
      "Ġpret": 2998,
      "clusion": 2999,
      "sh": 3000,
      "Ġstore": 3001,
      "nal": 3002,
      "Ġsearch": 3003,
      "Ġwear": 3004,
      "Ġevidence": 3005,
      "Ġexercise": 3006,
      "Ġmembers": 3007,
      "Ġelse": 3008,
      "-h": 3009,
      "Ġstrength": 3010,
      "Ġspeak": 3011,
      "Ġrecent": 3012,
      "Ġtemperatures": 3013,
      "Ġaim": 3014,
      "cles": 3015,
      "Ġcountries": 3016,
      "Ġdeath": 3017,
      "Ġrunning": 3018,
      "aur": 3019,
      "orpor": 3020,
      "Ġregion": 3021,
      "Ġconcent": 3022,
      "Ġbreat": 3023,
      "alu": 3024,
      "...ĊĊ": 3025,
      "Ġsand": 3026,
      "Ġearth": 3027,
      "oming": 3028,
      "aks": 3029,
      "Ġbrand": 3030,
      "reg": 3031,
      "wh": 3032,
      "ancy": 3033,
      "-to": 3034,
      "Ġimplement": 3035,
      "sequ": 3036,
      "ĠScience": 3037,
      "Ġseeds": 3038,
      "Ġwebsite": 3039,
      "ma": 3040,
      "ung": 3041,
      "issions": 3042,
      "Ġflowers": 3043,
      "Ġproperly": 3044,
      "abric": 3045,
      "ĠAss": 3046,
      "ĠMost": 3047,
      "Ġscreen": 3048,
      "Ġdidn": 3049,
      "Ġcompletely": 3050,
      "ellig": 3051,
      "ĠInt": 3052,
      "Ġnumbers": 3053,
      "Ġliqu": 3054,
      "Ġtransform": 3055,
      "Ġconstant": 3056,
      "Ġmor": 3057,
      "endly": 3058,
      "vest": 3059,
      "Can": 3060,
      "Ġserious": 3061,
      "Ġcamera": 3062,
      "Ġevents": 3063,
      "come": 3064,
      "Ġdecre": 3065,
      "Ġstat": 3066,
      "Ġspring": 3067,
      "iles": 3068,
      "Ġrain": 3069,
      "Ġ/": 3070,
      "ĠMore": 3071,
      "Ġbalance": 3072,
      "Ġmeaning": 3073,
      "Ġpiece": 3074,
      "Ġpatient": 3075,
      "water": 3076,
      "ĠGen": 3077,
      "terns": 3078,
      "Ġvisit": 3079,
      "Ġpoly": 3080,
      "Ġtransport": 3081,
      "Ġx": 3082,
      "life": 3083,
      "Ġstri": 3084,
      "Ġ+": 3085,
      "Ġuseful": 3086,
      "abet": 3087,
      "ygen": 3088,
      "icate": 3089,
      "Ġmovement": 3090,
      "Ġprocesses": 3091,
      "Ġfert": 3092,
      "Ġefficiency": 3093,
      "irm": 3094,
      "Ġchallenges": 3095,
      "ĠDep": 3096,
      "ocks": 3097,
      "rees": 3098,
      "Ġvisual": 3099,
      "itute": 3100,
      "ĠâĢľ": 3101,
      "Ġhands": 3102,
      "ociety": 3103,
      "Ġbenefit": 3104,
      "tings": 3105,
      "Ġfix": 3106,
      "rial": 3107,
      "ster": 3108,
      "Ġgoes": 3109,
      "Ġalg": 3110,
      "iful": 3111,
      "pper": 3112,
      "Ġprior": 3113,
      "Ġblock": 3114,
      "Ġsupply": 3115,
      "Ġactive": 3116,
      "Ġthreat": 3117,
      "ĠFrom": 3118,
      "Ġlines": 3119,
      "att": 3120,
      "rast": 3121,
      "Ġinnov": 3122,
      "Ġcalcul": 3123,
      "Ġseries": 3124,
      "Ġgreater": 3125,
      "Ġword": 3126,
      "Ġstyle": 3127,
      "Ġcritical": 3128,
      "Ġmedia": 3129,
      "ror": 3130,
      "ping": 3131,
      "Ġbird": 3132,
      "ĠWhy": 3133,
      "Ġtalk": 3134,
      "Ġcarry": 3135,
      "Ġchick": 3136,
      "Ġbag": 3137,
      "fl": 3138,
      "Ġguid": 3139,
      "Ġbuilt": 3140,
      "AC": 3141,
      "Ġusers": 3142,
      "Ġcosts": 3143,
      "Ġfriends": 3144,
      "Ġrespect": 3145,
      "Ġsus": 3146,
      "Ġinitial": 3147,
      "Ġallowing": 3148,
      "Ġmoving": 3149,
      "Ġprograms": 3150,
      "Ġcontains": 3151,
      "ĠâĢ¦": 3152,
      "Ġprojects": 3153,
      "Ġsix": 3154,
      "bol": 3155,
      "Ġhappens": 3156,
      "Ġmusic": 3157,
      "Ġanaly": 3158,
      "Ġdrive": 3159,
      "Ġthick": 3160,
      "Ġreflect": 3161,
      "Ġpatterns": 3162,
      "Ġprinc": 3163,
      "Ġreasons": 3164,
      "Ġprefer": 3165,
      "Ġscientific": 3166,
      "Ġcontroll": 3167,
      "Ġnews": 3168,
      "Ġcommonly": 3169,
      "Ġprice": 3170,
      "sych": 3171,
      "Ġdeal": 3172,
      "Ġfruit": 3173,
      "imin": 3174,
      "back": 3175,
      "Ġunit": 3176,
      "ached": 3177,
      "Ġabsor": 3178,
      "Ġgets": 3179,
      "Ġimmedi": 3180,
      "atives": 3181,
      "Ġrefer": 3182,
      "Ġwatch": 3183,
      "Ġcompanies": 3184,
      "ĠGo": 3185,
      "ĠUse": 3186,
      "Ġleave": 3187,
      "ĠSouth": 3188,
      "Ġdeveloping": 3189,
      "Ġoutput": 3190,
      "ightly": 3191,
      "Ġdepending": 3192,
      "onn": 3193,
      "board": 3194,
      "Ġmotor": 3195,
      "orage": 3196,
      "Ġattract": 3197,
      "Ġsurround": 3198,
      "Ġforms": 3199,
      "rec": 3200,
      "Ġvirus": 3201,
      "Ġorganic": 3202,
      "elt": 3203,
      "Ġsuff": 3204,
      "Ġmaintenance": 3205,
      "Ġlocation": 3206,
      "Ġplat": 3207,
      "Ġevolution": 3208,
      "overy": 3209,
      "Ġenhance": 3210,
      "hens": 3211,
      "ĠMany": 3212,
      "Ġcooking": 3213,
      "Cl": 3214,
      "ĠPe": 3215,
      "ensity": 3216,
      "airs": 3217,
      "oe": 3218,
      "Ġgar": 3219,
      "cape": 3220,
      "load": 3221,
      "Ġprotection": 3222,
      "Ġ,": 3223,
      "ocol": 3224,
      "Ġmental": 3225,
      "Ġcommunication": 3226,
      "Ġsigns": 3227,
      "Ġvision": 3228,
      "Ġelectrical": 3229,
      "rs": 3230,
      "cient": 3231,
      "IS": 3232,
      "Ġcross": 3233,
      "Ġinstruct": 3234,
      "iny": 3235,
      "OR": 3236,
      "ĠAmerica": 3237,
      "rum": 3238,
      "Ġimportance": 3239,
      "Ġdemonst": 3240,
      "Ġpublished": 3241,
      "enn": 3242,
      "ĠWorld": 3243,
      "Ġgrass": 3244,
      "ĠAb": 3245,
      "ĠAustral": 3246,
      "Ġbaby": 3247,
      "iable": 3248,
      "Ġgovernment": 3249,
      "Ġobjects": 3250,
      "irt": 3251,
      "-e": 3252,
      "uge": 3253,
      "Ġremember": 3254,
      "istry": 3255,
      "AN": 3256,
      "While": 3257,
      "Ġpretty": 3258,
      "Ġinput": 3259,
      "Ġsave": 3260,
      "Ġseems": 3261,
      "term": 3262,
      "Ġvacc": 3263,
      "ube": 3264,
      "fficient": 3265,
      "Ġkn": 3266,
      "uted": 3267,
      "ĠThen": 3268,
      "He": 3269,
      "Ġfine": 3270,
      "onds": 3271,
      "ĠResearch": 3272,
      "Ġsequ": 3273,
      "odies": 3274,
      "Ġ--": 3275,
      "Ġult": 3276,
      "Ġappropriate": 3277,
      "EN": 3278,
      "rops": 3279,
      "Ġpage": 3280,
      "set": 3281,
      "ucle": 3282,
      "Ġfabric": 3283,
      "Ġtheory": 3284,
      "Ġpick": 3285,
      "Ġreturn": 3286,
      "ript": 3287,
      "\",": 3288,
      "Ġmount": 3289,
      "Ġoriginal": 3290,
      "ologies": 3291,
      "Ġlens": 3292,
      "Ġshap": 3293,
      "Ġsoon": 3294,
      "epend": 3295,
      "Ġbecomes": 3296,
      "emic": 3297,
      "Ġproced": 3298,
      "Ġinfection": 3299,
      "Ġaccur": 3300,
      "Ġexcell": 3301,
      "ĠMar": 3302,
      "Ġbottom": 3303,
      "Ġclaim": 3304,
      "Ġrare": 3305,
      "yond": 3306,
      "asks": 3307,
      "Ġcame": 3308,
      "Ġpractices": 3309,
      "Ġlimited": 3310,
      "Ġready": 3311,
      "zz": 3312,
      "Ġexcess": 3313,
      "Ġideas": 3314,
      "Ġther": 3315,
      "ried": 3316,
      "Ġtail": 3317,
      "eration": 3318,
      "With": 3319,
      "Ġdistance": 3320,
      "Ġutil": 3321,
      "Ġcry": 3322,
      "mosp": 3323,
      "Ġbill": 3324,
      "Ġlate": 3325,
      "ĠChe": 3326,
      "hol": 3327,
      "Ġstates": 3328,
      "Ġcenter": 3329,
      "Ġvalues": 3330,
      "Ġcleaning": 3331,
      "35": 3332,
      "Ġseed": 3333,
      "Ġsignal": 3334,
      "Ġgives": 3335,
      "Ġdisplay": 3336,
      "Ġsustainable": 3337,
      "Ġhearing": 3338,
      "Ġideal": 3339,
      "Ġfavor": 3340,
      "Ġresistance": 3341,
      "iate": 3342,
      "Ġdetect": 3343,
      "ls": 3344,
      "Ġreducing": 3345,
      "By": 3346,
      "....": 3347,
      "These": 3348,
      "Ġvary": 3349,
      "Ġimmune": 3350,
      "Ġorigin": 3351,
      "vey": 3352,
      "Ġcity": 3353,
      "Ġtouch": 3354,
      "itude": 3355,
      "Ġdisord": 3356,
      "ĠPer": 3357,
      "Ġaren": 3358,
      "Ġroot": 3359,
      "Ġtesting": 3360,
      "wor": 3361,
      "ky": 3362,
      "Ġupon": 3363,
      "Ġoxygen": 3364,
      "Ġinvolves": 3365,
      "Ġarg": 3366,
      "rage": 3367,
      "Ġinfect": 3368,
      "Ġdirection": 3369,
      "Ġsolutions": 3370,
      "Ġworth": 3371,
      "cking": 3372,
      "ony": 3373,
      "wise": 3374,
      "Ġevalu": 3375,
      "umin": 3376,
      "ĠReg": 3377,
      "Ġensuring": 3378,
      "Ġpow": 3379,
      "--------": 3380,
      "aly": 3381,
      "ields": 3382,
      "oud": 3383,
      "Ġwriting": 3384,
      "Ġingredients": 3385,
      "Ġarch": 3386,
      "Ġresponsible": 3387,
      "Ġfro": 3388,
      "Ġmanufacture": 3389,
      "Ġgold": 3390,
      "At": 3391,
      "more": 3392,
      "Ġpredict": 3393,
      "Ġpull": 3394,
      "Ġnetwork": 3395,
      "ula": 3396,
      "Ġsuitable": 3397,
      "ros": 3398,
      "hood": 3399,
      "Ġthinking": 3400,
      "Ġrich": 3401,
      "mber": 3402,
      "Ġver": 3403,
      "mat": 3404,
      "Ġvalu": 3405,
      "Ġhost": 3406,
      "Ġhope": 3407,
      "ĠOur": 3408,
      "Ġoutd": 3409,
      "Ġjo": 3410,
      "mission": 3411,
      "Ġplatform": 3412,
      "Ġrequirements": 3413,
      "ĠSm": 3414,
      "lege": 3415,
      "Ġrev": 3416,
      "ball": 3417,
      "abetes": 3418,
      "Ġboard": 3419,
      "ĠWho": 3420,
      "Ġthr": 3421,
      "Ġmemory": 3422,
      "Ġnutrients": 3423,
      "Ġspot": 3424,
      "Ġrock": 3425,
      "Ġbeautiful": 3426,
      "Ġstarting": 3427,
      "Ġaccept": 3428,
      "Ġpriv": 3429,
      "Ġyellow": 3430,
      "Ġpen": 3431,
      "ixt": 3432,
      "Ġrat": 3433,
      "They": 3434,
      "ero": 3435,
      "Ġlack": 3436,
      "isions": 3437,
      "Ġimpl": 3438,
      "Ġprogress": 3439,
      "Ġroll": 3440,
      "ana": 3441,
      "Ġgames": 3442,
      "Ġadding": 3443,
      "ĠAlso": 3444,
      "Ġsignificantly": 3445,
      "Ġpowerful": 3446,
      "Ġelement": 3447,
      "Ġsevere": 3448,
      "âĢ¢": 3449,
      "ĠLet": 3450,
      "ĠNow": 3451,
      "Ġinfl": 3452,
      "01": 3453,
      "Ġvolt": 3454,
      "Ġsection": 3455,
      "Ġnothing": 3456,
      "Ġvegetables": 3457,
      "standing": 3458,
      "ran": 3459,
      "Con": 3460,
      "Ġconstruction": 3461,
      "Ġcycle": 3462,
      "Ġsmooth": 3463,
      "acing": 3464,
      "Ġfile": 3465,
      "Ġdisp": 3466,
      "dd": 3467,
      "Ġfinal": 3468,
      "Ġpieces": 3469,
      "Ġmiss": 3470,
      "ĠIntern": 3471,
      "Ġpoor": 3472,
      "Ġnutrition": 3473,
      "Ġtechnique": 3474,
      "Ġsent": 3475,
      "ulated": 3476,
      "Ġantib": 3477,
      "Ġexpress": 3478,
      "inking": 3479,
      "Ġheavy": 3480,
      "Ġcommit": 3481,
      "ifically": 3482,
      "ibly": 3483,
      "Ġsalt": 3484,
      "Ġlimit": 3485,
      "craft": 3486,
      "Ġtook": 3487,
      "hold": 3488,
      "Ġtrack": 3489,
      "Ġled": 3490,
      "Ġiron": 3491,
      "ĠTheir": 3492,
      "Ġrecy": 3493,
      "Ġcommer": 3494,
      "ashion": 3495,
      "inks": 3496,
      "rought": 3497,
      "Ġcausing": 3498,
      "rehens": 3499,
      "ĠRem": 3500,
      "ĠGe": 3501,
      "45": 3502,
      "ĠOnce": 3503,
      "Ġdiam": 3504,
      "Ġstorage": 3505,
      "ously": 3506,
      "And": 3507,
      "Ġsetting": 3508,
      "On": 3509,
      "Ġliquid": 3510,
      "Ġhorse": 3511,
      "ffect": 3512,
      "ĠAir": 3513,
      "Ġplaces": 3514,
      "empt": 3515,
      "Ġweb": 3516,
      "pite": 3517,
      "oun": 3518,
      "char": 3519,
      "iet": 3520,
      "Ġocean": 3521,
      "ĠGl": 3522,
      "Ġfully": 3523,
      "Ġwire": 3524,
      "Im": 3525,
      "Step": 3526,
      "Ġatmosp": 3527,
      "rew": 3528,
      "Ġapply": 3529,
      "Ġowners": 3530,
      "Ġfactor": 3531,
      "arian": 3532,
      "hel": 3533,
      "Ġinvestig": 3534,
      "Ġstage": 3535,
      "Ġfaster": 3536,
      "Ġwrong": 3537,
      "Ġcurrently": 3538,
      "lands": 3539,
      "Ġcentury": 3540,
      "Ġcars": 3541,
      "Ġdead": 3542,
      "osystem": 3543,
      "IC": 3544,
      "Ġinsp": 3545,
      "hetic": 3546,
      "Ġrapid": 3547,
      "Ġimag": 3548,
      "hether": 3549,
      "Ġbehavi": 3550,
      "Ġtransfer": 3551,
      "Ġbud": 3552,
      "Ġgraph": 3553,
      "ĠNOT": 3554,
      "Ġtox": 3555,
      "ened": 3556,
      "Ġwalk": 3557,
      "ĠLear": 3558,
      "arr": 3559,
      "ester": 3560,
      "Ġtaste": 3561,
      "ault": 3562,
      "Ġbreed": 3563,
      "Ġsituation": 3564,
      "ificial": 3565,
      "28": 3566,
      "Ġagricult": 3567,
      "Ġobtain": 3568,
      "Ġmoment": 3569,
      "Ġanyone": 3570,
      "Ġjoint": 3571,
      "Ġswim": 3572,
      "Ġsuccessful": 3573,
      "Ġexactly": 3574,
      "Ġbroad": 3575,
      "Do": 3576,
      "ĠWater": 3577,
      "Ġlat": 3578,
      "IT": 3579,
      ".com": 3580,
      "amb": 3581,
      "Ġexpert": 3582,
      "Ġpromot": 3583,
      "Ġswitch": 3584,
      "amed": 3585,
      "ha": 3586,
      "Ġexcellent": 3587,
      "ĠAdditionally": 3588,
      "\".": 3589,
      "Ġreaction": 3590,
      "Ġstraight": 3591,
      "Ġlocated": 3592,
      "Ġconvers": 3593,
      "enge": 3594,
      "Ġcharge": 3595,
      "Ġeffectively": 3596,
      "Ġintellig": 3597,
      "Ġpattern": 3598,
      "ĠArt": 3599,
      "Ġcircuit": 3600,
      "Ġbutter": 3601,
      "Ġshar": 3602,
      "Ġincorpor": 3603,
      "ancing": 3604,
      "Ġcloth": 3605,
      "ken": 3606,
      "Re": 3607,
      "Ġdemand": 3608,
      "Ġmouth": 3609,
      "Ġsecurity": 3610,
      "ĠAc": 3611,
      "Ġcommercial": 3612,
      "duc": 3613,
      "Ġinteresting": 3614,
      "Ġmuscle": 3615,
      "26": 3616,
      "ister": 3617,
      "Ġapplied": 3618,
      "estic": 3619,
      "care": 3620,
      "Ġopportunity": 3621,
      "Ġpump": 3622,
      "Ġdepend": 3623,
      "ĠTechn": 3624,
      "Ġoccurs": 3625,
      "pping": 3626,
      "Ġexposure": 3627,
      "Ġcoming": 3628,
      "Ġjourney": 3629,
      "ĠOver": 3630,
      "Ġmoisture": 3631,
      "Ġexperiment": 3632,
      "Ġpaint": 3633,
      "Ġculture": 3634,
      "Ġsex": 3635,
      "ogen": 3636,
      "Ġwet": 3637,
      "Ġresid": 3638,
      "Ġestim": 3639,
      "Ġreve": 3640,
      "cular": 3641,
      "Now": 3642,
      "oration": 3643,
      "cling": 3644,
      "-term": 3645,
      "Ġdoctor": 3646,
      "Ġcapacity": 3647,
      "Ġdocument": 3648,
      "Ġsolid": 3649,
      "ender": 3650,
      "Ġliter": 3651,
      "Ġroof": 3652,
      "Ġchance": 3653,
      "ĠTra": 3654,
      "Ġtherapy": 3655,
      "odes": 3656,
      "apter": 3657,
      "Ġreceive": 3658,
      "Ġlooks": 3659,
      "bor": 3660,
      "Ġcollabor": 3661,
      "ĠWest": 3662,
      "efore": 3663,
      "Ġadvanced": 3664,
      "Ġproperty": 3665,
      "27": 3666,
      "Ġschools": 3667,
      "AL": 3668,
      "Ġscale": 3669,
      "Pl": 3670,
      "Ġsymbol": 3671,
      "Ġstrategies": 3672,
      "roduction": 3673,
      "Ġexperiences": 3674,
      "urt": 3675,
      "Ġgene": 3676,
      "Ġcontribute": 3677,
      "Ġelectricity": 3678,
      "Ġexpensive": 3679,
      "erson": 3680,
      "ĠBecause": 3681,
      "Ġfunctions": 3682,
      "Ġkeeping": 3683,
      "Ġep": 3684,
      "Ġwat": 3685,
      "Ġinches": 3686,
      "itis": 3687,
      "Ġvia": 3688,
      "Ġfertil": 3689,
      "Ġthird": 3690,
      "Ġinterf": 3691,
      "ĠSw": 3692,
      "Ġphotos": 3693,
      "Ġdetails": 3694,
      "ĠFl": 3695,
      "cohol": 3696,
      "ĠEm": 3697,
      "Ġ|": 3698,
      "Ġcamp": 3699,
      "Ġflex": 3700,
      "ĠAg": 3701,
      "Ġpregn": 3702,
      "ĠJust": 3703,
      "avig": 3704,
      "ĠRed": 3705,
      "anging": 3706,
      "Ġnote": 3707,
      "ĠOther": 3708,
      "Ġdecision": 3709,
      "Ġbirth": 3710,
      "Ġsteel": 3711,
      "Ġnotice": 3712,
      "Ġtank": 3713,
      "Ġcombination": 3714,
      "Ġgiving": 3715,
      "iar": 3716,
      "ada": 3717,
      "32": 3718,
      "iforn": 3719,
      "Ġbrown": 3720,
      "Ġbecame": 3721,
      "imens": 3722,
      "Ġconsumption": 3723,
      "Ġdrain": 3724,
      "Ġnative": 3725,
      "Ġeffort": 3726,
      "ĠDis": 3727,
      "Ġfrequency": 3728,
      "Ġgradu": 3729,
      "Ġextremely": 3730,
      "Ġtask": 3731,
      "ĠEach": 3732,
      "Ġrecently": 3733,
      "Ġbeyond": 3734,
      "Ġbooks": 3735,
      "Ġclin": 3736,
      "ided": 3737,
      "Ġthous": 3738,
      "hest": 3739,
      "Ġpref": 3740,
      "Ġforward": 3741,
      "Ġ...": 3742,
      "Ġincluded": 3743,
      "Ġpsych": 3744,
      "book": 3745,
      "ails": 3746,
      "xi": 3747,
      "Ġolder": 3748,
      "ĠMake": 3749,
      "Ġparticles": 3750,
      "ĠBrit": 3751,
      "Ġcutting": 3752,
      "Ġconnected": 3753,
      "Ġcoast": 3754,
      "zy": 3755,
      "Ġexamples": 3756,
      "omb": 3757,
      "Ġund": 3758,
      "Ġsmart": 3759,
      "iling": 3760,
      "Ġdegrees": 3761,
      "Ġcontext": 3762,
      "Ġreduced": 3763,
      "ancial": 3764,
      "ober": 3765,
      "Ġonto": 3766,
      "Ġtherefore": 3767,
      "zing": 3768,
      "Ġhuge": 3769,
      "apan": 3770,
      "place": 3771,
      "Ġwin": 3772,
      "Ġflavor": 3773,
      "Ġtissue": 3774,
      "09": 3775,
      "Ġhandle": 3776,
      "ching": 3777,
      "erences": 3778,
      "ĠĠĠĠ": 3779,
      "right": 3780,
      "izations": 3781,
      "Ġprocessing": 3782,
      "ĠCenter": 3783,
      "ĠEnglish": 3784,
      "othes": 3785,
      "alt": 3786,
      "Ġalternative": 3787,
      "ĠÂ": 3788,
      "ipes": 3789,
      "uries": 3790,
      "ĠAct": 3791,
      "Some": 3792,
      "Ġaqu": 3793,
      "fish": 3794,
      "08": 3795,
      "ĠMin": 3796,
      "Ġstream": 3797,
      "Ġtests": 3798,
      "Ġnoise": 3799,
      "Ġtherm": 3800,
      "Ġsaw": 3801,
      ".g": 3802,
      "ĠSim": 3803,
      "ica": 3804,
      "olar": 3805,
      "Ġaffected": 3806,
      "Ġemissions": 3807,
      "Ġbow": 3808,
      "Un": 3809,
      "Ġ#": 3810,
      "Ġheight": 3811,
      "Ġpicture": 3812,
      "Ġdiscovered": 3813,
      "ifornia": 3814,
      "ĠRec": 3815,
      "Ġmother": 3816,
      "Ġnucle": 3817,
      "RE": 3818,
      "Ġlargest": 3819,
      "Ġmob": 3820,
      "rick": 3821,
      "Ġcommunities": 3822,
      "Ġecosystem": 3823,
      "Ġpresence": 3824,
      "Ġwrite": 3825,
      "bits": 3826,
      "Ġupd": 3827,
      "gery": 3828,
      "Ġmiddle": 3829,
      "Ġconservation": 3830,
      "oman": 3831,
      "pan": 3832,
      "oors": 3833,
      "Ġsnow": 3834,
      "Ġarm": 3835,
      "Ġslightly": 3836,
      "Ġplanet": 3837,
      "Ġfair": 3838,
      "Ġclim": 3839,
      "lier": 3840,
      "redit": 3841,
      "Ġrelease": 3842,
      "Ġphone": 3843,
      "pped": 3844,
      "Ġvoltage": 3845,
      "Ġtasks": 3846,
      "Ġgenes": 3847,
      "off": 3848,
      "Ġexpected": 3849,
      "Ġlost": 3850,
      "ĠGerm": 3851,
      "Ġcomfortable": 3852,
      "lebr": 3853,
      "met": 3854,
      "Ġtrend": 3855,
      "inding": 3856,
      "ipl": 3857,
      "Ġagg": 3858,
      "ĠEven": 3859,
      "abilities": 3860,
      "Ġflat": 3861,
      "ĠIts": 3862,
      "ĠChrist": 3863,
      "orith": 3864,
      "enty": 3865,
      "ĠState": 3866,
      "crete": 3867,
      "Ġstructures": 3868,
      "ĠSystem": 3869,
      "Ġdriving": 3870,
      "Ġopportunities": 3871,
      "Ġhit": 3872,
      "Ġgoals": 3873,
      "eing": 3874,
      "Ġchanging": 3875,
      "Ġvaluable": 3876,
      "Ġadults": 3877,
      "cules": 3878,
      "Ġfemale": 3879,
      "ams": 3880,
      "Ġincreases": 3881,
      "Ġthus": 3882,
      "Ġsounds": 3883,
      "Ġmonit": 3884,
      "Ġflight": 3885,
      "Res": 3886,
      "icon": 3887,
      "Ġsynt": 3888,
      "Ġmaximum": 3889,
      "aught": 3890,
      "Ġalthough": 3891,
      "haps": 3892,
      "ĠAccording": 3893,
      "Ġdepth": 3894,
      "OS": 3895,
      "Ġcomprehens": 3896,
      "Ġremains": 3897,
      "Ġround": 3898,
      "Ġdepends": 3899,
      "asts": 3900,
      "Ġplaced": 3901,
      "Ġteaching": 3902,
      "05": 3903,
      "Ġsites": 3904,
      "uration": 3905,
      "rench": 3906,
      "ĠJoh": 3907,
      "ogs": 3908,
      "Ġadvantage": 3909,
      "Ġteachers": 3910,
      "ĠGra": 3911,
      "Ġrelatively": 3912,
      "asting": 3913,
      "Ġversion": 3914,
      "-y": 3915,
      "urally": 3916,
      "Ġattempt": 3917,
      "Ġtooth": 3918,
      "gram": 3919,
      "Ġtechnologies": 3920,
      "Ġprofession": 3921,
      "Ġfilm": 3922,
      "can": 3923,
      "Ġsess": 3924,
      "Ġexpand": 3925,
      "Ġsweet": 3926,
      "Ġmedium": 3927,
      "Ġinsects": 3928,
      "Ġmid": 3929,
      "hyd": 3930,
      "ban": 3931,
      "Ġmanage": 3932,
      "Ġbran": 3933,
      "tes": 3934,
      "Ġast": 3935,
      "ĠHigh": 3936,
      "Ġ:": 3937,
      "Ġstar": 3938,
      "Ġproteins": 3939,
      "house": 3940,
      "Ġtrig": 3941,
      "Ġmotion": 3942,
      "uild": 3943,
      "Ġstim": 3944,
      "Ġsold": 3945,
      "Ġbright": 3946,
      "Ġcharacteristics": 3947,
      "Ġspect": 3948,
      "Ġadop": 3949,
      "Ġdifferences": 3950,
      "Ġapprox": 3951,
      "Ġeth": 3952,
      "ĠPhot": 3953,
      "Ġinstance": 3954,
      "Ġtit": 3955,
      "Ġstuff": 3956,
      "Ġtrou": 3957,
      "Ġcateg": 3958,
      "Ġmeasures": 3959,
      "Ġfluid": 3960,
      "Ġdiabetes": 3961,
      "ĠAut": 3962,
      "Ġbackground": 3963,
      "bing": 3964,
      "Ġmag": 3965,
      "Ġdiv": 3966,
      "Ġkill": 3967,
      "Ġvolume": 3968,
      "Ġfeeling": 3969,
      "Ġconnection": 3970,
      "ĠFirst": 3971,
      "Ġdish": 3972,
      "Ġalone": 3973,
      "...Ċ": 3974,
      "rim": 3975,
      "Ġfurn": 3976,
      "celer": 3977,
      "ĠTw": 3978,
      "rates": 3979,
      "ĠCalifornia": 3980,
      "ĠIndia": 3981,
      "uce": 3982,
      "Ġfilter": 3983,
      "Ġvirt": 3984,
      "Ġbone": 3985,
      "Ġreported": 3986,
      "Here": 3987,
      "Ġefforts": 3988,
      "Ġmut": 3989,
      "know": 3990,
      "vity": 3991,
      "Ġdistinct": 3992,
      "Ġhistor": 3993,
      "Ġresulting": 3994,
      "ĠInstitute": 3995,
      "-up": 3996,
      "Ġlabor": 3997,
      "07": 3998,
      "Ġrules": 3999,
      "ille": 4000,
      "dom": 4001,
      "ses": 4002,
      "Ġdoor": 4003,
      "Ġdescribed": 4004,
      "rier": 4005,
      "Ġaspects": 4006,
      "xiety": 4007,
      "ok": 4008,
      "Ġroots": 4009,
      "hop": 4010,
      "ĠMod": 4011,
      "Ġplanning": 4012,
      "Ġrub": 4013,
      "Ġachie": 4014,
      "Ġfashion": 4015,
      "oom": 4016,
      "Ġsurpr": 4017,
      "ressive": 4018,
      "Ġwent": 4019,
      "Ġdate": 4020,
      "Ġbegan": 4021,
      "Ġpool": 4022,
      "Ġlights": 4023,
      "ups": 4024,
      "urance": 4025,
      "ĠServ": 4026,
      "Ã©": 4027,
      "chen": 4028,
      "Ġdiscover": 4029,
      "eed": 4030,
      "Ġclos": 4031,
      "Ġevol": 4032,
      "Ġfight": 4033,
      "AM": 4034,
      "Ġserve": 4035,
      "ĠDon": 4036,
      "Ġfly": 4037,
      "Ġpets": 4038,
      "However": 4039,
      "ĠRead": 4040,
      "Ġwonder": 4041,
      "ĠJapan": 4042,
      "Ġchicken": 4043,
      "undred": 4044,
      "Ġhyp": 4045,
      "cription": 4046,
      "Ġindepend": 4047,
      "ads": 4048,
      "Ġfinding": 4049,
      "Ġfoss": 4050,
      "Ġinfluence": 4051,
      "Ġexisting": 4052,
      "fess": 4053,
      "Ġmaintaining": 4054,
      "iction": 4055,
      "Ġchallenge": 4056,
      "Ġspir": 4057,
      "Ġhear": 4058,
      "wers": 4059,
      "Ġappearance": 4060,
      "Ġalgorith": 4061,
      "Ġmatch": 4062,
      "ĠAlthough": 4063,
      "pre": 4064,
      "Ġdeb": 4065,
      "Ġmale": 4066,
      "Ġvital": 4067,
      "Ġwel": 4068,
      "icks": 4069,
      "unction": 4070,
      "Ph": 4071,
      "Ġpig": 4072,
      "Ġhabitat": 4073,
      "ĠRep": 4074,
      "ped": 4075,
      "Ġnit": 4076,
      "ctors": 4077,
      "AD": 4078,
      "Ġregularly": 4079,
      "Ġimmediately": 4080,
      "02": 4081,
      "Ġfinancial": 4082,
      "Ġrates": 4083,
      "iant": 4084,
      "Ġpal": 4085,
      "29": 4086,
      "Ġhighlight": 4087,
      "Ġded": 4088,
      "36": 4089,
      "ĠPart": 4090,
      "Ġrise": 4091,
      "Ġcovered": 4092,
      "Ġdat": 4093,
      "Ġpush": 4094,
      "Ġcollection": 4095,
      "Ġdynam": 4096,
      "Ġfloor": 4097,
      "che": 4098,
      "Ġspend": 4099,
      "izer": 4100,
      "Ġbeginning": 4101,
      "oice": 4102,
      "ying": 4103,
      "Ġattack": 4104,
      "raction": 4105,
      "Ġplease": 4106,
      "Ġstaff": 4107,
      "Ġhelping": 4108,
      "flow": 4109,
      "Ġstick": 4110,
      "Ġspecifically": 4111,
      "Ġrespond": 4112,
      "ogle": 4113,
      "Ġpopulations": 4114,
      "Ġpric": 4115,
      "Ġwritten": 4116,
      "ocal": 4117,
      "ĠUK": 4118,
      "Ġtrust": 4119,
      "Ġfamilies": 4120,
      "75": 4121,
      "Ġalcohol": 4122,
      "ĠPar": 4123,
      "Ġcustomers": 4124,
      "encies": 4125,
      "ype": 4126,
      "EM": 4127,
      "Ġmolecules": 4128,
      "ĠSince": 4129,
      "Ġseparate": 4130,
      "ibrary": 4131,
      "Ġconsult": 4132,
      "Ġrisks": 4133,
      "Ġpromote": 4134,
      "Ġsort": 4135,
      "ĠSpe": 4136,
      "Ġmiles": 4137,
      "06": 4138,
      "ÂŃ": 4139,
      "Ġactual": 4140,
      "nderstanding": 4141,
      "Ġchemicals": 4142,
      "ashing": 4143,
      "ĠBi": 4144,
      "Ġallowed": 4145,
      "Ġcomponent": 4146,
      "Ġnational": 4147,
      "Ġnearly": 4148,
      "ternal": 4149,
      "Ġlighting": 4150,
      "ĠTH": 4151,
      "ĠUsing": 4152,
      "Ġagree": 4153,
      "inder": 4154,
      "Ġcouple": 4155,
      "Ġsuggests": 4156,
      "Ġtiny": 4157,
      "ollow": 4158,
      "Ġaccurate": 4159,
      "ares": 4160,
      "used": 4161,
      "Ġqual": 4162,
      "key": 4163,
      "Ġshel": 4164,
      "Ġasked": 4165,
      "Ġfigure": 4166,
      "Ġcelebr": 4167,
      "PS": 4168,
      "azing": 4169,
      "ĠGod": 4170,
      "Ġhour": 4171,
      "rows": 4172,
      "Ġmarine": 4173,
      "Ġnavig": 4174,
      "orial": 4175,
      "Ġcalc": 4176,
      "ET": 4177,
      "Ġju": 4178,
      "Ġcomplic": 4179,
      "Ġinstructions": 4180,
      "Ġelectron": 4181,
      "pen": 4182,
      "Ġhomes": 4183,
      "Ġcentral": 4184,
      "semb": 4185,
      "rupt": 4186,
      "Ġgear": 4187,
      "ief": 4188,
      "Ġelimin": 4189,
      "Ab": 4190,
      "ĠQ": 4191,
      "Ġpractical": 4192,
      "aser": 4193,
      "ishing": 4194,
      "Ġbecoming": 4195,
      "ĠAfrica": 4196,
      "aled": 4197,
      "Ġscen": 4198,
      "-like": 4199,
      "Ġcore": 4200,
      "abol": 4201,
      "Ġapprec": 4202,
      "Ġdura": 4203,
      "Ġfrequently": 4204,
      "Ġrobot": 4205,
      "Ġrepair": 4206,
      "Ġbodies": 4207,
      "inally": 4208,
      "31": 4209,
      "Ġconver": 4210,
      "ipped": 4211,
      "inger": 4212,
      "Ġtopic": 4213,
      "uary": 4214,
      "que": 4215,
      "ilit": 4216,
      "ST": 4217,
      "Ġlov": 4218,
      "Ġdegree": 4219,
      "Ġplaying": 4220,
      "ums": 4221,
      "Des": 4222,
      "Ġwildlife": 4223,
      "All": 4224,
      "Ġsem": 4225,
      "Ġdangerous": 4226,
      "Ġestablish": 4227,
      "Ġequal": 4228,
      "ĠMon": 4229,
      "-qu": 4230,
      "Ġregions": 4231,
      "04": 4232,
      "mar": 4233,
      "Ġstru": 4234,
      "Ġphase": 4235,
      "Ġrepe": 4236,
      "ĠDay": 4237,
      "Ġstem": 4238,
      "Ġfeeding": 4239,
      "ĠFood": 4240,
      "Ġexperim": 4241,
      "Ġdin": 4242,
      "Ġfruits": 4243,
      "Ġrid": 4244,
      "Ġâ": 4245,
      "Ġvehicles": 4246,
      "Ġadvice": 4247,
      "Ġhundred": 4248,
      "Ġmel": 4249,
      "ications": 4250,
      "ixture": 4251,
      "Ġcounter": 4252,
      "Ġnan": 4253,
      "Ġweak": 4254,
      "Ġplayers": 4255,
      "Ġveter": 4256,
      "Ġ*": 4257,
      "Ġtax": 4258,
      "Ġinfections": 4259,
      "Ġexperienced": 4260,
      "03": 4261,
      "Ġder": 4262,
      "ĠAnt": 4263,
      "oday": 4264,
      "Ġstandards": 4265,
      "ux": 4266,
      "ees": 4267,
      "iverse": 4268,
      "Ġign": 4269,
      "Ġexhib": 4270,
      "Ġdiverse": 4271,
      "Ġgeneration": 4272,
      "Ġhappy": 4273,
      "Ġfill": 4274,
      "Ġatmosphere": 4275,
      "Ġmold": 4276,
      "icated": 4277,
      "elines": 4278,
      "riendly": 4279,
      "Our": 4280,
      "Us": 4281,
      "ĠSec": 4282,
      "ament": 4283,
      "vironments": 4284,
      "Ġsample": 4285,
      "Ġfriend": 4286,
      "ĠDepartment": 4287,
      "oxide": 4288,
      "Ġspl": 4289,
      "Ġinterested": 4290,
      "alse": 4291,
      "Ġmuscles": 4292,
      "Ġinternal": 4293,
      "itect": 4294,
      "minist": 4295,
      "oly": 4296,
      "Ġkid": 4297,
      "Ġframe": 4298,
      "Ġcontract": 4299,
      "-free": 4300,
      "related": 4301,
      "Ġfavorite": 4302,
      "ĠCount": 4303,
      "ĠSu": 4304,
      "Ġcustomer": 4305,
      "ource": 4306,
      "Ġenter": 4307,
      "Ġallerg": 4308,
      "vention": 4309,
      "Ġdrug": 4310,
      "Ġlose": 4311,
      "Ġdivers": 4312,
      "Ġlearned": 4313,
      "Ġvent": 4314,
      "Ġregarding": 4315,
      "EC": 4316,
      "Ġcreative": 4317,
      "equ": 4318,
      "atural": 4319,
      "Ġinternational": 4320,
      "Ġmis": 4321,
      "Ġpotentially": 4322,
      "na": 4323,
      "Ġdrawing": 4324,
      "Ġmig": 4325,
      "Ġwindow": 4326,
      "ĠDi": 4327,
      "Ġsche": 4328,
      "agram": 4329,
      "ĠEduc": 4330,
      "bl": 4331,
      "Ġbound": 4332,
      "ĠWar": 4333,
      "Ġsav": 4334,
      "lean": 4335,
      "That": 4336,
      "ĠTrans": 4337,
      "Ġwanted": 4338,
      "wood": 4339,
      "Ġteach": 4340,
      "Ġeconomic": 4341,
      "Ġdrop": 4342,
      "eties": 4343,
      "Ġcompar": 4344,
      "Ġcand": 4345,
      "Ġinflamm": 4346,
      "unk": 4347,
      "bed": 4348,
      "Ġanti": 4349,
      "Ġsurgery": 4350,
      "Ġphen": 4351,
      "Ġboost": 4352,
      "Ġchann": 4353,
      "icious": 4354,
      "Ġfields": 4355,
      "Ġoperation": 4356,
      "Ġpupp": 4357,
      "Ġadvance": 4358,
      "rome": 4359,
      "Ġnumerous": 4360,
      "Ġleaders": 4361,
      "Ġbasis": 4362,
      "Ġsociety": 4363,
      "Ġwave": 4364,
      "Ġparam": 4365,
      "Ġfear": 4366,
      "Ġsecure": 4367,
      "Ġselection": 4368,
      "ffee": 4369,
      "eters": 4370,
      "icking": 4371,
      "atically": 4372,
      "Ġamounts": 4373,
      "iol": 4374,
      "mm": 4375,
      "Ġimproved": 4376,
      "ios": 4377,
      "Ġdie": 4378,
      "Ġartificial": 4379,
      "After": 4380,
      "ĠEvery": 4381,
      "Ġflav": 4382,
      "uth": 4383,
      "cil": 4384,
      "My": 4385,
      "Ġremoved": 4386,
      "oma": 4387,
      "Ġdouble": 4388,
      "Ġillust": 4389,
      "Ġorganization": 4390,
      "Ġhelpful": 4391,
      "Ġneut": 4392,
      "Ġanxiety": 4393,
      "pril": 4394,
      "Ġleaf": 4395,
      "99": 4396,
      "Ġhealthcare": 4397,
      "Ġenvironments": 4398,
      "ĠTherefore": 4399,
      "Ġformed": 4400,
      "Ġrelax": 4401,
      "Ġthor": 4402,
      "Ġsell": 4403,
      "Ġharvest": 4404,
      "Ġfed": 4405,
      "Ġcomprehensive": 4406,
      "Ġgenerate": 4407,
      "imal": 4408,
      "Ġmist": 4409,
      "ĠWhether": 4410,
      "wide": 4411,
      "Ġworked": 4412,
      "ĠAustralia": 4413,
      "Ġmember": 4414,
      "Ġheating": 4415,
      "Ġchain": 4416,
      "No": 4417,
      "ING": 4418,
      "Ġphoto": 4419,
      "Ġconcerns": 4420,
      "Ġtrain": 4421,
      "Ġpollution": 4422,
      "Ġchanged": 4423,
      "ifying": 4424,
      "ĠDoes": 4425,
      "Ġencourage": 4426,
      "ought": 4427,
      "alle": 4428,
      "ager": 4429,
      "Ġsettings": 4430,
      "Ġconcrete": 4431,
      "ublic": 4432,
      "ded": 4433,
      "Ġdistribution": 4434,
      "ĠYork": 4435,
      "âĢĻt": 4436,
      "Ġacceler": 4437,
      "Ġsports": 4438,
      "Ġlandscape": 4439,
      "erals": 4440,
      "isp": 4441,
      "Ġedge": 4442,
      "known": 4443,
      "Ġbath": 4444,
      "ĠSte": 4445,
      "ulf": 4446,
      "Ġlots": 4447,
      "ĠEd": 4448,
      "Ġteacher": 4449,
      "Ġhosp": 4450,
      "Ġlayers": 4451,
      "Ġpair": 4452,
      "Ġaircraft": 4453,
      "Ġidentified": 4454,
      "ira": 4455,
      "time": 4456,
      "umn": 4457,
      "erate": 4458,
      "Int": 4459,
      "outhern": 4460,
      "Ġmachines": 4461,
      "Ġconsequ": 4462,
      "Ġradio": 4463,
      "Ġencourag": 4464,
      "Ġaudio": 4465,
      "idity": 4466,
      "ocolate": 4467,
      "Ġillness": 4468,
      "Ġbusinesses": 4469,
      "orthern": 4470,
      "Ġgrown": 4471,
      "ius": 4472,
      "Ġvibr": 4473,
      "Ġharmful": 4474,
      "Ġemp": 4475,
      "Ġmostly": 4476,
      "Ġmaybe": 4477,
      "Ġresource": 4478,
      "ech": 4479,
      "Ġdesigns": 4480,
      "Ġbond": 4481,
      "Ke": 4482,
      "Ġdental": 4483,
      "Ġtold": 4484,
      "Ġsatis": 4485,
      "Ġtypical": 4486,
      "Ġsimpl": 4487,
      "Ġheld": 4488,
      "Ġrice": 4489,
      "Ġinjury": 4490,
      "Ġburn": 4491,
      "ĠJan": 4492,
      "iveness": 4493,
      "ĠPark": 4494,
      "Ġraw": 4495,
      "Ġsquare": 4496,
      "orses": 4497,
      "Ġshop": 4498,
      "Ġapproximately": 4499,
      "oughly": 4500,
      "Ġpul": 4501,
      "ulating": 4502,
      "ĠGreen": 4503,
      "Ġbeneficial": 4504,
      "________": 4505,
      "formation": 4506,
      "iced": 4507,
      "Ġexperts": 4508,
      "Ġsurfaces": 4509,
      "Ġcolour": 4510,
      "-sh": 4511,
      "Ġindustrial": 4512,
      "Ġtexture": 4513,
      "Ġclasses": 4514,
      "ĠJu": 4515,
      "ĠKeep": 4516,
      "Ġdecisions": 4517,
      "ĠChar": 4518,
      "Ġple": 4519,
      "eline": 4520,
      "uting": 4521,
      "Ġplans": 4522,
      "Ġmeal": 4523,
      "osite": 4524,
      "Ġdrugs": 4525,
      "Ġreality": 4526,
      "Another": 4527,
      "Ġhorm": 4528,
      "ida": 4529,
      "ĠWell": 4530,
      "Ġwidely": 4531,
      "olute": 4532,
      "ĠDuring": 4533,
      "Ġoccas": 4534,
      "estyle": 4535,
      "iers": 4536,
      "phas": 4537,
      "Ġstarts": 4538,
      "Ġwheel": 4539,
      "resp": 4540,
      "Ġroutine": 4541,
      "ĠCom": 4542,
      "Answer": 4543,
      "iences": 4544,
      "II": 4545,
      "Ġengineering": 4546,
      "-year": 4547,
      "force": 4548,
      "Ġdesired": 4549,
      "Ġestablished": 4550,
      "omy": 4551,
      "Ġblog": 4552,
      "Ġancient": 4553,
      "Ġwalls": 4554,
      "Ġreleased": 4555,
      "Ġsod": 4556,
      "ipping": 4557,
      "bre": 4558,
      "ĠPC": 4559,
      "Ġperspect": 4560,
      "Ġprimarily": 4561,
      "Sc": 4562,
      "-C": 4563,
      "Ġbrush": 4564,
      "ĠBar": 4565,
      "ION": 4566,
      "Ġhighest": 4567,
      "Ġwaves": 4568,
      "Ar": 4569,
      "Ġclick": 4570,
      "Ġexposed": 4571,
      "Ġheard": 4572,
      "Ġflower": 4573,
      "Ġplays": 4574,
      "allow": 4575,
      "Ġlegal": 4576,
      "ĠChina": 4577,
      "ĠAv": 4578,
      "roc": 4579,
      "atever": 4580,
      "Ġemotional": 4581,
      "iples": 4582,
      "Ġlatest": 4583,
      "inating": 4584,
      "Ġbatteries": 4585,
      "Ġsensor": 4586,
      "Ġnaturally": 4587,
      "Ġobserved": 4588,
      "Ġtour": 4589,
      "Ġtoxic": 4590,
      "Ġoperations": 4591,
      "Ġeventually": 4592,
      ".e": 4593,
      "ste": 4594,
      "?\"": 4595,
      "Ġtalking": 4596,
      "ĠBra": 4597,
      "ny": 4598,
      "ĠEnvironment": 4599,
      "za": 4600,
      "Ġvess": 4601,
      "Ġstre": 4602,
      "Ġnest": 4603,
      "ĠSur": 4604,
      "Ġdro": 4605,
      "Se": 4606,
      "Ġnamed": 4607,
      "iter": 4608,
      "rating": 4609,
      "Ġsty": 4610,
      "Ġpurchase": 4611,
      ".)": 4612,
      "Ġunits": 4613,
      "Ġprepared": 4614,
      "Are": 4615,
      "Ġplate": 4616,
      "Ġadvantages": 4617,
      "Ġten": 4618,
      "Ġorganisms": 4619,
      "Ġcraft": 4620,
      "Ġmorning": 4621,
      "Ġfung": 4622,
      "roup": 4623,
      "ologist": 4624,
      "Ġmanufacturing": 4625,
      "Ġpolit": 4626,
      "Ġneigh": 4627,
      "ek": 4628,
      "my": 4629,
      "Ġmaster": 4630,
      "Ġcert": 4631,
      "hemat": 4632,
      "Ġreceived": 4633,
      "ĠHum": 4634,
      "Ġoffice": 4635,
      "Ġcheese": 4636,
      "Ġbike": 4637,
      "org": 4638,
      "Ġcryst": 4639,
      "add": 4640,
      "Ġearlier": 4641,
      "Ġuns": 4642,
      "iture": 4643,
      "Ġkitchen": 4644,
      "Ġdefined": 4645,
      "ĠAC": 4646,
      "Ġthousands": 4647,
      "Ġleads": 4648,
      "Ġcultural": 4649,
      "Ġcream": 4650,
      "Ġconven": 4651,
      "Ġprofessionals": 4652,
      "Ġcup": 4653,
      "-le": 4654,
      "-quality": 4655,
      "ĠChild": 4656,
      "ĠFr": 4657,
      "ĠWill": 4658,
      "Ġexec": 4659,
      "OU": 4660,
      "Ġmic": 4661,
      "Ġapart": 4662,
      "Ġdra": 4663,
      "cers": 4664,
      "Ġcarefully": 4665,
      "Ġshell": 4666,
      "Bl": 4667,
      "Ġmedicine": 4668,
      "cell": 4669,
      "Ġfindings": 4670,
      "Ġtreatments": 4671,
      "Ġsituations": 4672,
      "ĠEl": 4673,
      "ĠOct": 4674,
      "roduct": 4675,
      "Ġbeauty": 4676,
      "Ġdetailed": 4677,
      "Ġreliable": 4678,
      "lev": 4679,
      "ĠAug": 4680,
      "works": 4681,
      "-re": 4682,
      "Ġcontrast": 4683,
      "Ġsaying": 4684,
      "Ġshowed": 4685,
      "Your": 4686,
      "Ġnice": 4687,
      "Ġrelationships": 4688,
      "Ġthread": 4689,
      "Ġconstruct": 4690,
      "rant": 4691,
      "cap": 4692,
      "olid": 4693,
      "Ġrule": 4694,
      "Ġstone": 4695,
      "lets": 4696,
      "ĠEuropean": 4697,
      "med": 4698,
      "Ġincred": 4699,
      "ĠElect": 4700,
      "con": 4701,
      "AP": 4702,
      "Ġdrink": 4703,
      "Ġmixture": 4704,
      "Ġstories": 4705,
      "Ġfishing": 4706,
      "Ġlegs": 4707,
      "lines": 4708,
      "Most": 4709,
      "yd": 4710,
      "kin": 4711,
      "Ġoutdoor": 4712,
      "Ġquantum": 4713,
      "lt": 4714,
      "Ġstrugg": 4715,
      "Ġbot": 4716,
      "Ġsunlight": 4717,
      "Ġobvious": 4718,
      "ighter": 4719,
      "Ġmit": 4720,
      "cious": 4721,
      "Ġofficial": 4722,
      "Ġassign": 4723,
      "-r": 4724,
      "Ġdigest": 4725,
      "Ġmamm": 4726,
      "Ġstrategy": 4727,
      "chers": 4728,
      "33": 4729,
      "ĠBo": 4730,
      "Ġsignals": 4731,
      "Ġtreated": 4732,
      "Ġintelligence": 4733,
      "Ġchoosing": 4734,
      "aid": 4735,
      "Ġshoot": 4736,
      "itely": 4737,
      "ĠGet": 4738,
      "Ġtransl": 4739,
      "Ġoptimal": 4740,
      "Ġbreast": 4741,
      "Ġensures": 4742,
      "ords": 4743,
      "wing": 4744,
      "ĠProgram": 4745,
      "Ġdiss": 4746,
      "-friendly": 4747,
      "/or": 4748,
      "Ġcoffee": 4749,
      "Ġflo": 4750,
      "Ġhon": 4751,
      "Ġord": 4752,
      "Ġupper": 4753,
      "Ġbillion": 4754,
      "Ġsets": 4755,
      "ometimes": 4756,
      "isher": 4757,
      "Ġcoat": 4758,
      "irect": 4759,
      "Ġplanting": 4760,
      "ptember": 4761,
      "Ġoffering": 4762,
      "eper": 4763,
      "Ġprepare": 4764,
      "Ġorganizations": 4765,
      "Ġactions": 4766,
      "onic": 4767,
      "aming": 4768,
      "umber": 4769,
      "Ġrelevant": 4770,
      "Ġhous": 4771,
      "Ġdust": 4772,
      "rans": 4773,
      "Ġfollowed": 4774,
      "Ġangle": 4775,
      "Ġbutton": 4776,
      "Ġatom": 4777,
      "Ġreference": 4778,
      "Ġconc": 4779,
      "Ġintroduced": 4780,
      "bal": 4781,
      "Ġvitamin": 4782,
      "Ġchoices": 4783,
      "ta": 4784,
      "Ġprecise": 4785,
      "Ġextract": 4786,
      "ĠHer": 4787,
      "Ġfiber": 4788,
      "Ġhaz": 4789,
      "icip": 4790,
      "Ġdream": 4791,
      "ĠVal": 4792,
      "urrent": 4793,
      "zen": 4794,
      "Ġhom": 4795,
      "ĠST": 4796,
      "Ġpolicy": 4797,
      "Ġcrops": 4798,
      "ĠOut": 4799,
      "ĠLED": 4800,
      "Once": 4801,
      "Ġbat": 4802,
      "Ġcontainer": 4803,
      "Ġfasc": 4804,
      "ĠBlack": 4805,
      "Ġvs": 4806,
      "brid": 4807,
      "Ġfarmers": 4808,
      "Ġbees": 4809,
      "Ġcompost": 4810,
      "Ġafford": 4811,
      "Ġtransmission": 4812,
      "Ġstret": 4813,
      "Ġtoward": 4814,
      "ĠAssoci": 4815,
      "Ġpotat": 4816,
      "ued": 4817,
      "Ġphotograph": 4818,
      "hab": 4819,
      "body": 4820,
      "Ġchallenging": 4821,
      "Ġdeliver": 4822,
      "ĠIns": 4823,
      "95": 4824,
      "ĠPres": 4825,
      "ndom": 4826,
      "Ġelectronic": 4827,
      "ishes": 4828,
      "Ġpictures": 4829,
      "Ġappears": 4830,
      "osa": 4831,
      "Ġworry": 4832,
      "ĠCanada": 4833,
      "Ġalign": 4834,
      "Ġbrought": 4835,
      "Ġsamples": 4836,
      "Ġchrom": 4837,
      "Ġdescribe": 4838,
      "Ġmonitor": 4839,
      "acking": 4840,
      "ĠIndian": 4841,
      "Ġdress": 4842,
      "Ġelev": 4843,
      "print": 4844,
      "Ġstored": 4845,
      "Ġkept": 4846,
      "Ġcreates": 4847,
      "Ġbreeding": 4848,
      "Ġoperating": 4849,
      "Ġshapes": 4850,
      "Ġjournal": 4851,
      "Ġprinting": 4852,
      "ĠGoogle": 4853,
      "ĠHar": 4854,
      "Ġpartners": 4855,
      "65": 4856,
      "which": 4857,
      "Ġmagnetic": 4858,
      "orms": 4859,
      "Ġemail": 4860,
      "ico": 4861,
      "Ġmonitoring": 4862,
      "ĠHist": 4863,
      "Ġantibiot": 4864,
      "Ġassum": 4865,
      "Ġprocedure": 4866,
      "Ġprivate": 4867,
      "Ġsizes": 4868,
      "Ġiniti": 4869,
      "Ġamazing": 4870,
      "Ġbiological": 4871,
      "Ġexternal": 4872,
      "Ġawareness": 4873,
      "ĠPeople": 4874,
      "Ġindicate": 4875,
      "Ġimpacts": 4876,
      "Ġwait": 4877,
      "rot": 4878,
      "Ġhole": 4879,
      "Ġfold": 4880,
      "Ġturned": 4881,
      "Ġrenew": 4882,
      "Ġmainly": 4883,
      "Ġband": 4884,
      "Ġemphas": 4885,
      "part": 4886,
      "ĠApril": 4887,
      "mary": 4888,
      "ologists": 4889,
      "Ġstock": 4890,
      "Ġeducational": 4891,
      "Be": 4892,
      "Ġsmell": 4893,
      "Ġtall": 4894,
      "Ġmac": 4895,
      "Ġarchitect": 4896,
      "Ġgrade": 4897,
      "Ġconsistent": 4898,
      "Ġble": 4899,
      "Ġimproving": 4900,
      "-being": 4901,
      "ĠMarch": 4902,
      "hus": 4903,
      "Ġdecor": 4904,
      "weight": 4905,
      "Ġvert": 4906,
      "Ġsurrounding": 4907,
      "Ġmode": 4908,
      "Ġacad": 4909,
      "ĠFrench": 4910,
      "ĠJune": 4911,
      "ĠRiver": 4912,
      "ĠBritish": 4913,
      "unity": 4914,
      "SA": 4915,
      "clus": 4916,
      "ĠProfess": 4917,
      "anges": 4918,
      "Ġmetabol": 4919,
      "inated": 4920,
      "Ġlic": 4921,
      "Ġratio": 4922,
      "Ġmild": 4923,
      "Ġplenty": 4924,
      "En": 4925,
      "Yes": 4926,
      "Ġinvolve": 4927,
      "ructure": 4928,
      "VID": 4929,
      "Ġcit": 4930,
      "Ġlabel": 4931,
      "ĠAny": 4932,
      "Ġspin": 4933,
      "Ġcombined": 4934,
      "Ġmessage": 4935,
      "ĠJohn": 4936,
      "Ġacqu": 4937,
      "Ġaffects": 4938,
      "ĠClass": 4939,
      "hesis": 4940,
      "porary": 4941,
      "och": 4942,
      "EL": 4943,
      "Ġpil": 4944,
      "Ġshared": 4945,
      "umps": 4946,
      "Ġphotography": 4947,
      "Ġdu": 4948,
      "Ġfilled": 4949,
      "change": 4950,
      "ĠCor": 4951,
      "Ġkinds": 4952,
      "ropical": 4953,
      "Ġversat": 4954,
      "Ġopin": 4955,
      "osph": 4956,
      "Ġcoord": 4957,
      "Ġax": 4958,
      "ĠDesign": 4959,
      "Ġgir": 4960,
      "Ġfle": 4961,
      "Ġisol": 4962,
      "ĠâĢ¢": 4963,
      "Ġfocused": 4964,
      "Ġminerals": 4965,
      "Ġsensitive": 4966,
      "Many": 4967,
      "RO": 4968,
      "Ġplayer": 4969,
      "dule": 4970,
      "Ġcontinues": 4971,
      "Ġhydrogen": 4972,
      "yn": 4973,
      "Ġleaving": 4974,
      "Ġtruly": 4975,
      "Ġminimum": 4976,
      "Ġspaces": 4977,
      "Ġlaws": 4978,
      "!!": 4979,
      "ye": 4980,
      "Ġformation": 4981,
      "Ġcatch": 4982,
      "Ġforces": 4983,
      "Ġrestaur": 4984,
      "Ġnerv": 4985,
      "ĠDevelop": 4986,
      "Ġfo": 4987,
      "lies": 4988,
      "Ġcapable": 4989,
      "Ġlifestyle": 4990,
      "DA": 4991,
      "Ġcart": 4992,
      "bles": 4993,
      "Ġreduction": 4994,
      "ĠAdd": 4995,
      "-time": 4996,
      "Ġspray": 4997,
      "Ġwest": 4998,
      "ĠGreat": 4999,
      "Ġcreation": 5000,
      "Ġclothing": 5001,
      "ĠUp": 5002,
      "Ġpurposes": 5003,
      "Ġtun": 5004,
      "Ġexpression": 5005,
      "Ġsurvive": 5006,
      "55": 5007,
      "fortun": 5008,
      "Ġconcern": 5009,
      "rations": 5010,
      "uk": 5011,
      "omach": 5012,
      "Pre": 5013,
      "erent": 5014,
      "Ġwaters": 5015,
      "stract": 5016,
      "ivil": 5017,
      "Ġrefers": 5018,
      "olf": 5019,
      "Ġestimated": 5020,
      "Ġowner": 5021,
      "Ġfig": 5022,
      "rote": 5023,
      "ĠBet": 5024,
      "rowing": 5025,
      "Ġstatus": 5026,
      "Ġeight": 5027,
      "iration": 5028,
      "Ġbones": 5029,
      "Ġmajority": 5030,
      "Ġrandom": 5031,
      "ĠEnergy": 5032,
      "Ġperce": 5033,
      "roke": 5034,
      "Ġpin": 5035,
      "Ġship": 5036,
      "ĠInternational": 5037,
      "ials": 5038,
      "Ġdensity": 5039,
      "Ġvisible": 5040,
      "Ġjump": 5041,
      "organ": 5042,
      "Ġtried": 5043,
      "uments": 5044,
      "Ġaid": 5045,
      "ĠEducation": 5046,
      "Ġshowing": 5047,
      "Over": 5048,
      "Ġwhose": 5049,
      "osen": 5050,
      "irds": 5051,
      "tered": 5052,
      "ĠPlan": 5053,
      "Ġclassroom": 5054,
      "Ġtut": 5055,
      "Ġmembr": 5056,
      "Ġcultiv": 5057,
      "ĠBoth": 5058,
      "ND": 5059,
      "48": 5060,
      "ĠInter": 5061,
      "Ġmath": 5062,
      "ĠTake": 5063,
      "Ġspirit": 5064,
      "ĠHis": 5065,
      "Ġsend": 5066,
      "ĠWhere": 5067,
      "rief": 5068,
      "Ġcomputers": 5069,
      "Ġfrag": 5070,
      "Ġcrop": 5071,
      "Ġflood": 5072,
      "antic": 5073,
      "otic": 5074,
      "Ġconclusion": 5075,
      "arant": 5076,
      "ingu": 5077,
      "Ġsides": 5078,
      "Ġtrip": 5079,
      "Ġtomat": 5080,
      "Ġchocolate": 5081,
      "Ġnames": 5082,
      "==": 5083,
      "asive": 5084,
      "Ġspeaker": 5085,
      "Ġplug": 5086,
      "Ġannual": 5087,
      "Ġdetermined": 5088,
      "Ġconcentration": 5089,
      "Ġmobile": 5090,
      "crib": 5091,
      "Ġborn": 5092,
      "ĠMc": 5093,
      "Ġperhaps": 5094,
      "Ġhoney": 5095,
      "Ġsharp": 5096,
      "Ġconcepts": 5097,
      "Ġaer": 5098,
      "Ġbread": 5099,
      "ĠCare": 5100,
      "ugg": 5101,
      "what": 5102,
      "Ġdestro": 5103,
      "Ġfailure": 5104,
      "mitted": 5105,
      "Ġtub": 5106,
      "Ġfur": 5107,
      "itary": 5108,
      "Ġadvent": 5109,
      "Ġelectro": 5110,
      "Ġperiods": 5111,
      "Ġpainting": 5112,
      "asp": 5113,
      "PA": 5114,
      "Ġessay": 5115,
      "Ġmeasured": 5116,
      "Ġproducing": 5117,
      "Ġsouth": 5118,
      "Ġsyn": 5119,
      "ĠLike": 5120,
      "Ġfamiliar": 5121,
      "Ġcapture": 5122,
      "Ġshot": 5123,
      "-se": 5124,
      "Ġinternet": 5125,
      "Ġperformed": 5126,
      "bi": 5127,
      "Ġradiation": 5128,
      "Ġseek": 5129,
      "Ġtransition": 5130,
      "Ġemergency": 5131,
      "Ġcooling": 5132,
      "Ġcompounds": 5133,
      "Ġfossil": 5134,
      "ented": 5135,
      "ventional": 5136,
      "Ġconsidering": 5137,
      "Ġslowly": 5138,
      "De": 5139,
      "Ġabsolute": 5140,
      "Ġskill": 5141,
      "active": 5142,
      "opy": 5143,
      "ĠHel": 5144,
      "Ġdecrease": 5145,
      "-related": 5146,
      "Ġprem": 5147,
      "Ġconducted": 5148,
      "ulum": 5149,
      "Ġdishes": 5150,
      "Ġdamaged": 5151,
      "Ġhorses": 5152,
      "ava": 5153,
      "Ġextensive": 5154,
      "inate": 5155,
      "Ġzero": 5156,
      "Ġstatement": 5157,
      "Ġpreviously": 5158,
      "with": 5159,
      "anes": 5160,
      "ibilities": 5161,
      "Ġneck": 5162,
      "requ": 5163,
      "Ġvideos": 5164,
      "ĠInc": 5165,
      "ĠPower": 5166,
      "Ġacids": 5167,
      "Ġcareer": 5168,
      "Ġchronic": 5169,
      "Ġreactions": 5170,
      "Ġtopics": 5171,
      "Ġmotiv": 5172,
      "Ġuniverse": 5173,
      "Ġshut": 5174,
      "Ġrein": 5175,
      ";Ċ": 5176,
      "Ġassemb": 5177,
      "Ġvul": 5178,
      "Ġhousehold": 5179,
      "Ġwalking": 5180,
      "Ġinsights": 5181,
      "Ġrecovery": 5182,
      "ĠWild": 5183,
      "ardens": 5184,
      "going": 5185,
      "hemical": 5186,
      "itting": 5187,
      "lements": 5188,
      "Ġkil": 5189,
      "Ġseeing": 5190,
      "More": 5191,
      "mp": 5192,
      "ĠAfrican": 5193,
      "Ġexception": 5194,
      "Ġtraffic": 5195,
      "ypes": 5196,
      "Ġholes": 5197,
      "Ġwouldn": 5198,
      "airy": 5199,
      "Ġpure": 5200,
      "Ġplane": 5201,
      "ĠAbout": 5202,
      "ormal": 5203,
      "Ġbudget": 5204,
      "Ġtechnical": 5205,
      "gy": 5206,
      "Ġmechanical": 5207,
      "gra": 5208,
      "Ġinflammation": 5209,
      "Ġ\\": 5210,
      "Ġreferred": 5211,
      "inese": 5212,
      "Ġshad": 5213,
      "-th": 5214,
      "rest": 5215,
      "Ġsou": 5216,
      "ĠSaf": 5217,
      "Ġconsists": 5218,
      "Ġring": 5219,
      "Ġnorth": 5220,
      "Ġwants": 5221,
      "idth": 5222,
      "cast": 5223,
      "uracy": 5224,
      "Ġnormally": 5225,
      "inations": 5226,
      "Ġclinical": 5227,
      "Ġvirtual": 5228,
      "Ġcertainly": 5229,
      "ĠMex": 5230,
      "pring": 5231,
      "Ġriver": 5232,
      "Ġproduces": 5233,
      "Ġseconds": 5234,
      "Ġbreath": 5235,
      "Ġsong": 5236,
      "Ġmap": 5237,
      "Ġsurvival": 5238,
      "Ġparticipants": 5239,
      "Ġ<": 5240,
      "ĠJuly": 5241,
      "34": 5242,
      "Ġvarieties": 5243,
      "plant": 5244,
      "ĠPhys": 5245,
      "Ġbelong": 5246,
      "Ġprices": 5247,
      "Ġturns": 5248,
      "ĠWind": 5249,
      "Ġdisorders": 5250,
      "Ġpowder": 5251,
      "-S": 5252,
      "Ġstable": 5253,
      "Ġlinked": 5254,
      "emy": 5255,
      "Ġdecades": 5256,
      "ĠFound": 5257,
      "Ġwarming": 5258,
      "ĠMark": 5259,
      "Ġprinciples": 5260,
      "ĠFlor": 5261,
      "phone": 5262,
      "Ġdecided": 5263,
      "Ġban": 5264,
      "ĠExpl": 5265,
      "Ġinject": 5266,
      "Ġinfluen": 5267,
      "Ġcomposition": 5268,
      "des": 5269,
      "Ġotherwise": 5270,
      "Ġgut": 5271,
      "ĠMet": 5272,
      "Ġvoice": 5273,
      "Ġurban": 5274,
      "Ġcontrolled": 5275,
      "Ġunless": 5276,
      "Ġstomach": 5277,
      "Ġwasn": 5278,
      "Ġunc": 5279,
      "Ġcorrectly": 5280,
      "aker": 5281,
      "ĠPlant": 5282,
      "Ġabund": 5283,
      "aul": 5284,
      "Ġpounds": 5285,
      "Ġremote": 5286,
      "onal": 5287,
      "Ġpregnancy": 5288,
      "ĠCity": 5289,
      "Ġgall": 5290,
      "ĠDiff": 5291,
      "dden": 5292,
      "igen": 5293,
      "ĠMicro": 5294,
      "Ġdivid": 5295,
      "Ġtrade": 5296,
      "Ġintake": 5297,
      "Ġfa": 5298,
      "CO": 5299,
      "Ġcreatures": 5300,
      "ĠSan": 5301,
      "Ġbear": 5302,
      "Ġscr": 5303,
      "amental": 5304,
      "hyl": 5305,
      "42": 5306,
      "oster": 5307,
      "urthermore": 5308,
      "tion": 5309,
      "Ġdownload": 5310,
      "ĠPat": 5311,
      "Ġdiversity": 5312,
      "Ġbegins": 5313,
      "Comp": 5314,
      "Ġmixed": 5315,
      "Ġsudden": 5316,
      "Ġhop": 5317,
      "ĠSeptember": 5318,
      "Ġvel": 5319,
      "top": 5320,
      "Ġcopy": 5321,
      "raining": 5322,
      "Ġclosely": 5323,
      "Ġdent": 5324,
      "Ġbuying": 5325,
      "ĠBas": 5326,
      "ĠMain": 5327,
      "Ġwhatever": 5328,
      "Ġmechanism": 5329,
      "comes": 5330,
      "Ġpercentage": 5331,
      "Ġcloser": 5332,
      "Ġfiles": 5333,
      "Ġrefrig": 5334,
      "Ġcolon": 5335,
      "Ġenable": 5336,
      "Ġcm": 5337,
      "Ġshoes": 5338,
      "Ġfeedback": 5339,
      "38": 5340,
      "Ġtum": 5341,
      "gin": 5342,
      "Ġspent": 5343,
      "pert": 5344,
      "Ġcopper": 5345,
      "rus": 5346,
      "New": 5347,
      "Ġgenerated": 5348,
      "ossible": 5349,
      "ara": 5350,
      "Ġputting": 5351,
      "Ġtested": 5352,
      "Not": 5353,
      "nes": 5354,
      "Let": 5355,
      "aked": 5356,
      "mark": 5357,
      "Ġatoms": 5358,
      "Ġguess": 5359,
      "ĠFeb": 5360,
      "Ġcab": 5361,
      "Ġerror": 5362,
      "ĠInstead": 5363,
      "roid": 5364,
      "Ġgun": 5365,
      "Ġcalcium": 5366,
      "Ġpages": 5367,
      "37": 5368,
      "aws": 5369,
      "Ġelectrons": 5370,
      "Ġsolve": 5371,
      "Cons": 5372,
      "ĠThrough": 5373,
      "sp": 5374,
      "Ġfunctional": 5375,
      "ĠNet": 5376,
      "Ġfurniture": 5377,
      "ĠKing": 5378,
      "First": 5379,
      "Ġreduces": 5380,
      "Ġdecide": 5381,
      "Ġblow": 5382,
      "ĠCheck": 5383,
      "According": 5384,
      "-on": 5385,
      "Ġod": 5386,
      "Ġtoler": 5387,
      "Conclusion": 5388,
      "Ġsport": 5389,
      "Ġselected": 5390,
      "Ġattached": 5391,
      "Ġpresented": 5392,
      "Ġvolun": 5393,
      "Ġmeals": 5394,
      "idden": 5395,
      "ĠEngine": 5396,
      "ovember": 5397,
      "Ġcredit": 5398,
      "Ġsurvey": 5399,
      "Ġfoundation": 5400,
      "ĠSupp": 5401,
      "Ġahead": 5402,
      "ĠAugust": 5403,
      "Ġboil": 5404,
      "Ġturning": 5405,
      "Ġbigger": 5406,
      "husi": 5407,
      "ĠConsider": 5408,
      "ander": 5409,
      "MS": 5410,
      "Ġfer": 5411,
      "fall": 5412,
      "paration": 5413,
      "Ġengage": 5414,
      "Use": 5415,
      "ama": 5416,
      "Ġden": 5417,
      "Ġguidelines": 5418,
      "Ġbroken": 5419,
      "Ġbuildings": 5420,
      "Ġcorresp": 5421,
      "Ġwindows": 5422,
      "Ġcolle": 5423,
      "orous": 5424,
      "Ġcooked": 5425,
      "Ġcarried": 5426,
      "ĠIS": 5427,
      "Ġhunting": 5428,
      "arsh": 5429,
      "Ġlocations": 5430,
      "Ġhelped": 5431,
      "arn": 5432,
      "Ġformat": 5433,
      "Ġphysics": 5434,
      "Ġmulti": 5435,
      "Ġrelig": 5436,
      "Ġhabits": 5437,
      "Ġinstalled": 5438,
      "see": 5439,
      "fortunately": 5440,
      "Ġenthusi": 5441,
      "Cont": 5442,
      "Ġinvestment": 5443,
      "ĠSk": 5444,
      "Ġvast": 5445,
      "Ġinnovative": 5446,
      "\"The": 5447,
      "Ġtube": 5448,
      "Ġmedication": 5449,
      "Ġsequence": 5450,
      "gl": 5451,
      "Ġinjuries": 5452,
      "Ġaudience": 5453,
      "Ġexcept": 5454,
      "acters": 5455,
      "Ġwash": 5456,
      "Ġclearly": 5457,
      "Ġsed": 5458,
      "Ġconfirm": 5459,
      "Ġdisorder": 5460,
      "Ġhappened": 5461,
      "Ġphenomen": 5462,
      "Ġcollege": 5463,
      "Ġhoriz": 5464,
      "roph": 5465,
      "Ġbaking": 5466,
      "Ġdioxide": 5467,
      "Ġcompress": 5468,
      "Ġstation": 5469,
      "ognitive": 5470,
      "Ġmarketing": 5471,
      "Ġpup": 5472,
      "ĠCounty": 5473,
      "IG": 5474,
      "Ġfacilit": 5475,
      "pret": 5476,
      "Ġworldwide": 5477,
      "Ġsufficient": 5478,
      "gers": 5479,
      "ruary": 5480,
      "Ġcul": 5481,
      "order": 5482,
      "ially": 5483,
      "Ġoven": 5484,
      "ado": 5485,
      "vents": 5486,
      "Ġtight": 5487,
      "eling": 5488,
      "Ġanswers": 5489,
      "vis": 5490,
      "asses": 5491,
      "Ġlawn": 5492,
      "Ġassessment": 5493,
      "Ġeconomy": 5494,
      "Ġbalanced": 5495,
      "ache": 5496,
      "Ġscenari": 5497,
      "Ġcorn": 5498,
      "eras": 5499,
      "Ġmolecular": 5500,
      "Ġmal": 5501,
      "Ġmeeting": 5502,
      "Ġlesson": 5503,
      "Ġcareful": 5504,
      "Ġboat": 5505,
      "Ġprotected": 5506,
      "Ġdeeper": 5507,
      "Ġsick": 5508,
      "Ġadds": 5509,
      "rie": 5510,
      "Ġrepresents": 5511,
      "hors": 5512,
      "Ġunivers": 5513,
      "Ġlaser": 5514,
      "Ġconnections": 5515,
      "85": 5516,
      "Ġlooked": 5517,
      "cope": 5518,
      "Ġrow": 5519,
      "Dr": 5520,
      "lim": 5521,
      "Ġgreenhouse": 5522,
      "ĠProt": 5523,
      "Ġpreventing": 5524,
      "ĠCOVID": 5525,
      "Ġprofessor": 5526,
      "Ġaccuracy": 5527,
      "Ġinteractions": 5528,
      "how": 5529,
      "Ġrecipe": 5530,
      "iber": 5531,
      "IL": 5532,
      "eless": 5533,
      "ĠLight": 5534,
      "Ġrapidly": 5535,
      "Ġdefinition": 5536,
      "pected": 5537,
      "Ġlessons": 5538,
      "Fe": 5539,
      "ocking": 5540,
      "Ġstain": 5541,
      "ĠTex": 5542,
      "Ġseg": 5543,
      "Ġviol": 5544,
      "Ġprompt": 5545,
      "Ġinner": 5546,
      "Ġsheet": 5547,
      "uter": 5548,
      "hips": 5549,
      "Ġsustainability": 5550,
      "gans": 5551,
      "ĠProject": 5552,
      "ynt": 5553,
      "ĠLearning": 5554,
      "Ġprey": 5555,
      "Ġtow": 5556,
      "ĠOctober": 5557,
      "Ġcontaining": 5558,
      "ait": 5559,
      "Ġgather": 5560,
      "ĠSub": 5561,
      "udd": 5562,
      "Ġtwice": 5563,
      "Ġwoman": 5564,
      "Ġvulner": 5565,
      "ĠOff": 5566,
      "Ġnurs": 5567,
      "Ġdefinitely": 5568,
      "amins": 5569,
      ".[": 5570,
      "Ġrights": 5571,
      "Ġremoving": 5572,
      "ĠKnow": 5573,
      "Ġflour": 5574,
      "Ġportion": 5575,
      "cember": 5576,
      "Ġdelicious": 5577,
      "Ġsauce": 5578,
      "ndrome": 5579,
      "ĠII": 5580,
      "Ġshift": 5581,
      "Ġagriculture": 5582,
      "ĠDec": 5583,
      "Ġmathemat": 5584,
      "Ġworkers": 5585,
      "Ġpests": 5586,
      "apor": 5587,
      "Ġstages": 5588,
      "Ġmedications": 5589,
      "Ġreports": 5590,
      "Ġfundamental": 5591,
      "oys": 5592,
      "etics": 5593,
      "ĠTechnology": 5594,
      "ii": 5595,
      "Ġliver": 5596,
      "ivery": 5597,
      "Ġperspective": 5598,
      "TS": 5599,
      "Ġsubstance": 5600,
      "Ġsuggested": 5601,
      "Ġdoll": 5602,
      "Ġsharing": 5603,
      "Ġnar": 5604,
      "ris": 5605,
      "Ġfirm": 5606,
      "Ġdatab": 5607,
      "uzz": 5608,
      "Ġath": 5609,
      "Ġampl": 5610,
      "Ġthoughts": 5611,
      "Ġbio": 5612,
      "Ġclosed": 5613,
      "Ġdiscovery": 5614,
      "Ġclothes": 5615,
      "Ġbiod": 5616,
      "Ġjud": 5617,
      "Ġapproaches": 5618,
      "Ġseven": 5619,
      "Ġnation": 5620,
      "orter": 5621,
      "oke": 5622,
      "Ġnovel": 5623,
      "that": 5624,
      "Ġschedule": 5625,
      "ĠpH": 5626,
      "Ġmeant": 5627,
      "west": 5628,
      "].": 5629,
      "-n": 5630,
      "Ġpassed": 5631,
      "Ġexploring": 5632,
      "Ġbelief": 5633,
      "ĠJanuary": 5634,
      "Ġadminist": 5635,
      "ĠBen": 5636,
      "Ġsensors": 5637,
      "Ġdoub": 5638,
      "Ġindustries": 5639,
      "ĠOrgan": 5640,
      "ĠPol": 5641,
      "Ġpanel": 5642,
      "ĠStep": 5643,
      "ifications": 5644,
      "ĠGarden": 5645,
      "yth": 5646,
      "Ġdrinking": 5647,
      "Ġbiggest": 5648,
      "Ġexplains": 5649,
      "Ġcoal": 5650,
      "44": 5651,
      "Ġintended": 5652,
      "Ġattrib": 5653,
      "Ġexciting": 5654,
      "Ġraised": 5655,
      "Ġalumin": 5656,
      "Ġflying": 5657,
      "irus": 5658,
      "##": 5659,
      "Ġdiagnosis": 5660,
      "asure": 5661,
      "rue": 5662,
      "ompl": 5663,
      "Ġbiology": 5664,
      "uum": 5665,
      "Ġperman": 5666,
      "Ġforget": 5667,
      "rors": 5668,
      "Ġfixed": 5669,
      "Ġaccident": 5670,
      "Ġrace": 5671,
      "US": 5672,
      "rooms": 5673,
      "Ġstability": 5674,
      "Ġfinish": 5675,
      "iance": 5676,
      "Ġinstallation": 5677,
      "Ġinteraction": 5678,
      "Ġmovements": 5679,
      "icing": 5680,
      "Ġrab": 5681,
      "alks": 5682,
      "Ġnotes": 5683,
      "-the": 5684,
      "Ġconsumers": 5685,
      "Ġfriendly": 5686,
      "Although": 5687,
      "Ġraise": 5688,
      "sec": 5689,
      "ĠSch": 5690,
      "Ġoffered": 5691,
      "ĠStart": 5692,
      "ĠCollege": 5693,
      "uilding": 5694,
      "Ġformula": 5695,
      "ctic": 5696,
      "Ġcollected": 5697,
      "reek": 5698,
      "Ġdepression": 5699,
      "Ġcharacters": 5700,
      "From": 5701,
      "Ġemotions": 5702,
      "Ġnitrogen": 5703,
      "39": 5704,
      "Ġfamous": 5705,
      "Ġcalories": 5706,
      "apers": 5707,
      "Ġaccum": 5708,
      "Ġmir": 5709,
      "Rem": 5710,
      "een": 5711,
      "Ġincreasingly": 5712,
      "Ġdedicated": 5713,
      "rust": 5714,
      "Ġdiscussion": 5715,
      "ĠControl": 5716,
      "Ġopening": 5717,
      "Ġment": 5718,
      "Ġaest": 5719,
      "box": 5720,
      "oyal": 5721,
      "ĠChinese": 5722,
      "vit": 5723,
      "Ġinsurance": 5724,
      "Ġinstit": 5725,
      "Ġforests": 5726,
      "mers": 5727,
      "):": 5728,
      "Ġcomment": 5729,
      "iest": 5730,
      "Ġtrained": 5731,
      "Ġrocks": 5732,
      "Ġemployees": 5733,
      "ĠFlorida": 5734,
      "Ġenab": 5735,
      "Ġbelieved": 5736,
      "Ġcovers": 5737,
      "Ġcommand": 5738,
      "Ġseeking": 5739,
      "dent": 5740,
      "ĠDav": 5741,
      "Ġpreserv": 5742,
      "Ġworse": 5743,
      "ĠCat": 5744,
      "-M": 5745,
      "reate": 5746,
      "Ġrecognize": 5747,
      "Ġdecl": 5748,
      "Ġhaven": 5749,
      "ĠStudents": 5750,
      "Ġregulations": 5751,
      "Ġsubstances": 5752,
      "Ġchlor": 5753,
      "ras": 5754,
      "ĠHome": 5755,
      "Ġretain": 5756,
      "Ġfelt": 5757,
      "Ġindu": 5758,
      "Ġpanels": 5759,
      "mic": 5760,
      "ener": 5761,
      "charge": 5762,
      "Ġexcessive": 5763,
      "Ġswimming": 5764,
      "ags": 5765,
      "ĠAnother": 5766,
      "zer": 5767,
      "Sp": 5768,
      "Ġdefic": 5769,
      "Ġconfidence": 5770,
      "Ġcommunicate": 5771,
      "Ġstring": 5772,
      "/s": 5773,
      "Ġwearing": 5774,
      "edia": 5775,
      "ĠDet": 5776,
      "Ġcapabilities": 5777,
      "isation": 5778,
      "IV": 5779,
      "Ġproport": 5780,
      "acific": 5781,
      "but": 5782,
      "Ġdespite": 5783,
      "Ġitem": 5784,
      "Ġspots": 5785,
      "Ġpark": 5786,
      "urch": 5787,
      "Ġears": 5788,
      "arium": 5789,
      "point": 5790,
      "Reg": 5791,
      "Ġpossess": 5792,
      "ceed": 5793,
      "ĠTexas": 5794,
      "bris": 5795,
      "Ġlibrary": 5796,
      "idents": 5797,
      "ĠTV": 5798,
      "Ġsuccessfully": 5799,
      "ĠSee": 5800,
      "',": 5801,
      "Ġparas": 5802,
      "Ġhardware": 5803,
      "Ġexplan": 5804,
      "Ġdram": 5805,
      "Ġphysic": 5806,
      "Ġcompleted": 5807,
      "-B": 5808,
      "Ġoverl": 5809,
      "Ġthermal": 5810,
      "IP": 5811,
      "Ġinstruction": 5812,
      "ĠLife": 5813,
      "ĠSun": 5814,
      "earchers": 5815,
      "Ġagricultural": 5816,
      "Ġages": 5817,
      "Ġoperate": 5818,
      "Ġindependent": 5819,
      "inn": 5820,
      "ĠWhite": 5821,
      "ĠLab": 5822,
      "ĠOb": 5823,
      "Ġmoved": 5824,
      "Ġstudying": 5825,
      "uis": 5826,
      "ĠToday": 5827,
      "ĠWork": 5828,
      "Ġreplaced": 5829,
      "Ġcardi": 5830,
      "iated": 5831,
      "ridge": 5832,
      "Ġmanual": 5833,
      "Ġ>": 5834,
      "Ġindoor": 5835,
      "Ġconstantly": 5836,
      "Ġdrag": 5837,
      "Ġrecycling": 5838,
      "Ġplayed": 5839,
      "Ġcoc": 5840,
      "Ġcompetition": 5841,
      "Ġexperiments": 5842,
      "anted": 5843,
      "ĠGold": 5844,
      "ĠTest": 5845,
      "ifier": 5846,
      "pec": 5847,
      "Ġexplained": 5848,
      "Ġarray": 5849,
      "Ġoccup": 5850,
      "Ġhistorical": 5851,
      "Ġpros": 5852,
      "Ġusage": 5853,
      "unning": 5854,
      "volution": 5855,
      "Ġrig": 5856,
      "Ġblocks": 5857,
      "Ġ{": 5858,
      "aint": 5859,
      "Ġcards": 5860,
      "41": 5861,
      "Ġprocedures": 5862,
      "ĠMich": 5863,
      "Ġprogramming": 5864,
      "Ġstores": 5865,
      "Ġhandling": 5866,
      "Ġruns": 5867,
      "Ġconfig": 5868,
      "bra": 5869,
      "Ġoral": 5870,
      "Ġunlike": 5871,
      "athy": 5872,
      "Ġdriver": 5873,
      "ĠEc": 5874,
      "Ġteams": 5875,
      "Ġinformed": 5876,
      "]Ċ": 5877,
      "Ġpreferences": 5878,
      "Ġpuppy": 5879,
      "Ġknows": 5880,
      "bility": 5881,
      "ĠSet": 5882,
      "Ġconsequences": 5883,
      "Ġfan": 5884,
      "Ġloose": 5885,
      "rite": 5886,
      "Ġhospital": 5887,
      "LE": 5888,
      "ĠAssociation": 5889,
      "ĠRemember": 5890,
      "ĠSociety": 5891,
      "Ġtip": 5892,
      "Ġstands": 5893,
      "Ġoutcomes": 5894,
      "Ġadequ": 5895,
      "Ġpossibly": 5896,
      "Ġmineral": 5897,
      "Ġnutrient": 5898,
      "ĠBre": 5899,
      "Ġ...ĊĊ": 5900,
      "Ġbehaviors": 5901,
      "-F": 5902,
      "Ġmining": 5903,
      "ĠMus": 5904,
      "Ġmission": 5905,
      "atin": 5906,
      "inant": 5907,
      "isk": 5908,
      "ĠColor": 5909,
      "Ġmetals": 5910,
      "ĠGerman": 5911,
      "Ġpeace": 5912,
      "ĠHave": 5913,
      "Ġcircum": 5914,
      "Ġcompare": 5915,
      "riculum": 5916,
      "Ġhumidity": 5917,
      "ĠGood": 5918,
      "ascular": 5919,
      "Ġguidance": 5920,
      "Ġyog": 5921,
      "Ġopposite": 5922,
      "Ġsupplement": 5923,
      "ocity": 5924,
      "ĠAng": 5925,
      "IM": 5926,
      "oves": 5927,
      "-of": 5928,
      "Ġgave": 5929,
      "ĠService": 5930,
      "lers": 5931,
      "Ġscrew": 5932,
      "Ġnose": 5933,
      "Ġconsume": 5934,
      "acts": 5935,
      "><": 5936,
      "64": 5937,
      "ographic": 5938,
      "Ġsales": 5939,
      "ĠBel": 5940,
      "allel": 5941,
      "Te": 5942,
      "ĠEast": 5943,
      "ĠAsia": 5944,
      "Ġcompound": 5945,
      "Ġbags": 5946,
      "Ġkeeps": 5947,
      "iders": 5948,
      "ffective": 5949,
      "arter": 5950,
      "Ġrevolution": 5951,
      "Ġyield": 5952,
      "Ġunderlying": 5953,
      "Ġconventional": 5954,
      "ĠThus": 5955,
      "Ġtransp": 5956,
      "Ġjew": 5957,
      "Ġbreathing": 5958,
      "ĠRuss": 5959,
      "Get": 5960,
      "CC": 5961,
      "Ġvaccine": 5962,
      "Ġbrid": 5963,
      "]ĊĊ": 5964,
      "cover": 5965,
      "eren": 5966,
      "Ġdebris": 5967,
      "Ġincl": 5968,
      "Ġdiscussed": 5969,
      "Ġmanner": 5970,
      "itors": 5971,
      "Ġequival": 5972,
      "Ġcrus": 5973,
      "ĠExt": 5974,
      "Ġmanufacturer": 5975,
      "Ġdirt": 5976,
      "Ġstrain": 5977,
      "oper": 5978,
      "âĢĭ": 5979,
      "Ġacademic": 5980,
      "Ġcameras": 5981,
      "Ġreplacement": 5982,
      "Or": 5983,
      "ĠTwo": 5984,
      "Ġfacts": 5985,
      "uits": 5986,
      "ĠRel": 5987,
      "acc": 5988,
      "Ġcheap": 5989,
      "App": 5990,
      "Ġends": 5991,
      "Ġexercises": 5992,
      "iform": 5993,
      "Ġdynamic": 5994,
      "Ġengaging": 5995,
      "98": 5996,
      "ĠLa": 5997,
      "otton": 5998,
      "Ġrecords": 5999,
      "Ġbite": 6000,
      "Ġsupports": 6001,
      "Ġrecorded": 6002,
      "Ġham": 6003,
      "Ġshed": 6004,
      "ĠFore": 6005,
      "Ġtea": 6006,
      "Ġfeelings": 6007,
      "Ġhundreds": 6008,
      "eries": 6009,
      "Ġweigh": 6010,
      "Ġvalve": 6011,
      "Ġeveryday": 6012,
      "Ġcalls": 6013,
      "Ġreward": 6014,
      "Ġimagine": 6015,
      "ĠSea": 6016,
      "oding": 6017,
      "ford": 6018,
      "riers": 6019,
      "Ġmeasurement": 6020,
      "Ġlenses": 6021,
      "Ġvegetable": 6022,
      "ĠÎ": 6023,
      "Ġrefriger": 6024,
      "Ġshade": 6025,
      "Ġped": 6026,
      "Ġobst": 6027,
      "Ġinnovation": 6028,
      "ĠLook": 6029,
      "Ġmissing": 6030,
      "Ġsight": 6031,
      "ĠWorks": 6032,
      "Ġpoison": 6033,
      "Ġaccessible": 6034,
      "amps": 6035,
      "Ġconflic": 6036,
      "Ġsafely": 6037,
      "Ġentirely": 6038,
      "Ġmillions": 6039,
      "Ġhydro": 6040,
      "Before": 6041,
      "Ġremaining": 6042,
      "Ġtrends": 6043,
      "ker": 6044,
      "Ġvariable": 6045,
      "Ġedges": 6046,
      "Ġcourses": 6047,
      "Ġanywhere": 6048,
      "Ġscene": 6049,
      "Ġtrigger": 6050,
      "Ġpolic": 6051,
      "Ġdetection": 6052,
      "-D": 6053,
      "haust": 6054,
      "ĠDist": 6055,
      "Ġride": 6056,
      "Ġbreeds": 6057,
      "Ġregul": 6058,
      "itches": 6059,
      "uts": 6060,
      "43": 6061,
      "Ġgardens": 6062,
      "Ġreserv": 6063,
      "Ġcable": 6064,
      "Ġtire": 6065,
      "Ġmoves": 6066,
      "Ġlinks": 6067,
      "Ġbasically": 6068,
      "Ġdelivery": 6069,
      "Ġbowl": 6070,
      "bur": 6071,
      "Ġstyles": 6072,
      "Ġcreativity": 6073,
      "Ġinch": 6074,
      "ĠTur": 6075,
      "Ġsky": 6076,
      "lin": 6077,
      "Ġdestroy": 6078,
      "Ġbee": 6079,
      "Ġprol": 6080,
      "Ġknowing": 6081,
      "Ġchart": 6082,
      "Ġbranches": 6083,
      "Ġcos": 6084,
      "Ġcities": 6085,
      "Ġletter": 6086,
      "Ġwashing": 6087,
      "Pe": 6088,
      "Ġtor": 6089,
      "ĠGuide": 6090,
      "Ġjobs": 6091,
      "ĠRef": 6092,
      "Ġfarming": 6093,
      "Ġsupporting": 6094,
      "Ġtitle": 6095,
      "ĠPlease": 6096,
      "ifies": 6097,
      "Ġtap": 6098,
      "OL": 6099,
      "-sc": 6100,
      "la": 6101,
      "Ġthrive": 6102,
      "Ġmassive": 6103,
      "ĠNovember": 6104,
      "Ġfinally": 6105,
      "Ġvitamins": 6106,
      "vol": 6107,
      "Ġbehaviour": 6108,
      "ota": 6109,
      "ĠNature": 6110,
      "ham": 6111,
      "Ġchol": 6112,
      "cest": 6113,
      "Ġnerve": 6114,
      "Ġserves": 6115,
      "Ġwish": 6116,
      "Ġwrote": 6117,
      "97": 6118,
      "vin": 6119,
      "Ġmechanisms": 6120,
      "ked": 6121,
      "Rec": 6122,
      "ĠExam": 6123,
      "Ġstudied": 6124,
      "ophy": 6125,
      "onge": 6126,
      "ĠTime": 6127,
      "men": 6128,
      "itter": 6129,
      "iam": 6130,
      "\"Ċ": 6131,
      "Ġsen": 6132,
      "Ġequation": 6133,
      "Ġsecret": 6134,
      "Ġgardening": 6135,
      "cher": 6136,
      "Ġorange": 6137,
      "Ġblo": 6138,
      "Ġirrit": 6139,
      "Ġspeech": 6140,
      "overn": 6141,
      "ias": 6142,
      "rip": 6143,
      "Ġrenewable": 6144,
      "Ġaccompl": 6145,
      "ĠOcean": 6146,
      "Ġfacilities": 6147,
      "Ġmountain": 6148,
      "iability": 6149,
      "Ġlun": 6150,
      "Ġstronger": 6151,
      "Ġsession": 6152,
      "ĠScient": 6153,
      "Ġgro": 6154,
      "Ġserved": 6155,
      "Ġcontinued": 6156,
      "Ġengines": 6157,
      "ĠDef": 6158,
      "Ġhabitats": 6159,
      "Ġarticles": 6160,
      "Ġlisted": 6161,
      "Ġmice": 6162,
      "Ind": 6163,
      "cule": 6164,
      "Ġtruth": 6165,
      "ĠĠĠ": 6166,
      "Ġdepos": 6167,
      "Ġcommitment": 6168,
      "uls": 6169,
      "ĠHistory": 6170,
      "Ġzone": 6171,
      "azon": 6172,
      "iratory": 6173,
      "Ġefficiently": 6174,
      "ĠAtl": 6175,
      "Ġkne": 6176,
      "esity": 6177,
      "Ġartists": 6178,
      "Ġfascinating": 6179,
      "ĠExper": 6180,
      "Ġsusp": 6181,
      "Ġseam": 6182,
      "otes": 6183,
      "Ġminute": 6184,
      "eria": 6185,
      "Ġmyself": 6186,
      "Ġobtained": 6187,
      "Ġembra": 6188,
      "ĠChildren": 6189,
      "Ġunw": 6190,
      "ĠRob": 6191,
      "Ġcorrespond": 6192,
      "AB": 6193,
      "ĠNatural": 6194,
      "Ġtissues": 6195,
      "Ġgrows": 6196,
      "Ġveterin": 6197,
      "ĠEngland": 6198,
      "Ġpolar": 6199,
      "Ġtaught": 6200,
      "Ġtransportation": 6201,
      "Ġvolunte": 6202,
      "Ġseal": 6203,
      "ette": 6204,
      "Ġfemales": 6205,
      "berry": 6206,
      "ĠWashing": 6207,
      "Ġran": 6208,
      "Â°C": 6209,
      "Ġvine": 6210,
      "Ġauthors": 6211,
      "Ġcloud": 6212,
      "outs": 6213,
      "Ġextended": 6214,
      "51": 6215,
      "Ġachieved": 6216,
      "Ġminimize": 6217,
      "Ġholds": 6218,
      "Ġinfected": 6219,
      "itivity": 6220,
      "Ġgravity": 6221,
      "ĠJour": 6222,
      "ionally": 6223,
      "Ġbeans": 6224,
      "Ġapplying": 6225,
      "Ġtrim": 6226,
      "Ġasking": 6227,
      "Ġrestrict": 6228,
      "ĠSum": 6229,
      "Me": 6230,
      "Ġtropical": 6231,
      "ondon": 6232,
      "Ġgone": 6233,
      "Ġjoin": 6234,
      "ĠMedic": 6235,
      "akers": 6236,
      "ĠBay": 6237,
      "down": 6238,
      "Ġmort": 6239,
      "Ġnetworks": 6240,
      "Ġdiagram": 6241,
      "Rel": 6242,
      "cel": 6243,
      "Ġspecialized": 6244,
      "Ġbrings": 6245,
      "Ġabsorb": 6246,
      "rastructure": 6247,
      "ĠFebruary": 6248,
      "ĠMuse": 6249,
      "alled": 6250,
      "Ġmanufacturers": 6251,
      "Ġphosph": 6252,
      "Ġbrief": 6253,
      "ĠJapanese": 6254,
      "rence": 6255,
      "ĠClean": 6256,
      "Ġinterpret": 6257,
      "Ġflavors": 6258,
      "Ġguarant": 6259,
      "ĠIN": 6260,
      "Ġexpertise": 6261,
      "ĠDecember": 6262,
      "Ġintroduction": 6263,
      "Ġmembrane": 6264,
      "Ġminimal": 6265,
      "Ġmeasurements": 6266,
      "Ġpurs": 6267,
      "Ġcontinuous": 6268,
      "Ġcognitive": 6269,
      "Ġrely": 6270,
      "Ġprotective": 6271,
      "Ġproposed": 6272,
      "Ġcompr": 6273,
      "asy": 6274,
      "Ġsector": 6275,
      "-A": 6276,
      "Ġchapter": 6277,
      "Ġcontamin": 6278,
      "Ġske": 6279,
      "stone": 6280,
      "Ġopinion": 6281,
      "col": 6282,
      "Ġindicates": 6283,
      "Ġmilitary": 6284,
      "Ġcharging": 6285,
      "Ġpassion": 6286,
      "Ġsecondary": 6287,
      "Ġfollows": 6288,
      "ĠOpen": 6289,
      "uing": 6290,
      "stream": 6291,
      "Ġimpossible": 6292,
      "Ġease": 6293,
      "ĠIsland": 6294,
      "Ġpreparation": 6295,
      "Ġrecept": 6296,
      "lings": 6297,
      "Ġunus": 6298,
      "Ġthanks": 6299,
      "PT": 6300,
      "Ġimprovement": 6301,
      "Ġfrequent": 6302,
      "Ġfinished": 6303,
      "Ġfault": 6304,
      "Ġmeters": 6305,
      "Ġvalid": 6306,
      "ĠMac": 6307,
      "Ġpest": 6308,
      "Ġassistance": 6309,
      "Ġdairy": 6310,
      "||": 6311,
      "Ġcampa": 6312,
      "Ġpolitical": 6313,
      "Ġresil": 6314,
      "Ġdiameter": 6315,
      "Stud": 6316,
      "Ġcarp": 6317,
      "ĠTHE": 6318,
      "Ġminor": 6319,
      "Ġphotograp": 6320,
      "Ġloved": 6321,
      "Ġherb": 6322,
      "Ġsuffer": 6323,
      "ĠPacific": 6324,
      "Ġchosen": 6325,
      "Ġsatisf": 6326,
      "ĠCommon": 6327,
      "Ġcontrols": 6328,
      "urd": 6329,
      "ĠInf": 6330,
      "ĠPhil": 6331,
      "Ġsitting": 6332,
      "Ġrequest": 6333,
      "Ġcolleag": 6334,
      "72": 6335,
      "Ġbank": 6336,
      "Using": 6337,
      "Ġsmoke": 6338,
      "ocy": 6339,
      "Ġpromoting": 6340,
      "Since": 6341,
      "Ġremoval": 6342,
      "Ġsoap": 6343,
      "Ġcollaboration": 6344,
      "Ġcyl": 6345,
      "Ġframew": 6346,
      "CH": 6347,
      "Ġmanip": 6348,
      "Ġindex": 6349,
      "-res": 6350,
      "Ġmeasuring": 6351,
      "Ġtape": 6352,
      "Ġmales": 6353,
      "Ġresponsibility": 6354,
      "Ġsupported": 6355,
      "ĠMount": 6356,
      "Ġgreatly": 6357,
      "ĠLearn": 6358,
      "ĠDog": 6359,
      "52": 6360,
      "Ġremark": 6361,
      "Ġvertical": 6362,
      "Ġtutorial": 6363,
      "ĠYear": 6364,
      "Ġalt": 6365,
      "ĠPort": 6366,
      "Ġinsulation": 6367,
      "using": 6368,
      "Ġclassic": 6369,
      "ommon": 6370,
      "Ġstanding": 6371,
      "ĠAmericans": 6372,
      "Ġstars": 6373,
      "Read": 6374,
      "----------------": 6375,
      "Ġinterior": 6376,
      "Ġmes": 6377,
      "Ġcast": 6378,
      "Ġfewer": 6379,
      "Ġpredators": 6380,
      "esterol": 6381,
      "Ġecosystems": 6382,
      "aired": 6383,
      "Ġlifes": 6384,
      "ulin": 6385,
      "Ġattend": 6386,
      "ifts": 6387,
      "phones": 6388,
      "Ġunf": 6389,
      "Ġarrange": 6390,
      "Ġparty": 6391,
      "Ġcivil": 6392,
      "Ġintric": 6393,
      "angered": 6394,
      "ĠCD": 6395,
      "Ġvacuum": 6396,
      "Ġvibrant": 6397,
      "46": 6398,
      "inction": 6399,
      "Ġchromos": 6400,
      "EO": 6401,
      "Ġvessels": 6402,
      "ĠBro": 6403,
      "Ġdomestic": 6404,
      "ĠAP": 6405,
      "Ġscan": 6406,
      "Ġconcerned": 6407,
      "Ġstructural": 6408,
      "Ġplus": 6409,
      "ĠDevelopment": 6410,
      "Ġouter": 6411,
      "Ġformer": 6412,
      "Ġharder": 6413,
      "Ġsupplies": 6414,
      "Ġfeels": 6415,
      "ĠCam": 6416,
      "pes": 6417,
      "ĠFoundation": 6418,
      "umes": 6419,
      "ĠBefore": 6420,
      "Ġluck": 6421,
      "oons": 6422,
      "Ġchances": 6423,
      "Ġtables": 6424,
      "Ġnorthern": 6425,
      "Ġtast": 6426,
      "Ġtrouble": 6427,
      "illa": 6428,
      "Ġcorner": 6429,
      "Ġperfectly": 6430,
      "Ġmanaging": 6431,
      "Ġlisten": 6432,
      "ĠSl": 6433,
      "Ġleak": 6434,
      "Ġchemistry": 6435,
      "ĠGr": 6436,
      "Ġsouthern": 6437,
      "opic": 6438,
      "well": 6439,
      "Ġrecipes": 6440,
      "agine": 6441,
      "Ġwatching": 6442,
      "Ġinterface": 6443,
      "Ġhappening": 6444,
      "Ġtric": 6445,
      "Ġdim": 6446,
      "Ġpink": 6447,
      "Ġattach": 6448,
      "Ġion": 6449,
      "ĠWeb": 6450,
      "Ġalgorithms": 6451,
      "asm": 6452,
      "ods": 6453,
      "Ġsubs": 6454,
      "ĠLong": 6455,
      "ĠBlue": 6456,
      "Ġol": 6457,
      "atching": 6458,
      "ĠManagement": 6459,
      "Ġexhaust": 6460,
      "Ġreef": 6461,
      "ĠData": 6462,
      "sm": 6463,
      "ĠLake": 6464,
      "-pro": 6465,
      "heet": 6466,
      "Ġautomatically": 6467,
      "Ġorgans": 6468,
      "Ġsubstant": 6469,
      "Ġsessions": 6470,
      "Ġmenu": 6471,
      "obal": 6472,
      "Ġneutral": 6473,
      "aughter": 6474,
      "avy": 6475,
      "Ġspr": 6476,
      "Ġplatforms": 6477,
      "96": 6478,
      "ugs": 6479,
      "Ġdive": 6480,
      "Ġchannel": 6481,
      "Ġmicrob": 6482,
      "osal": 6483,
      "-ch": 6484,
      "Ġadvert": 6485,
      "ora": 6486,
      "Ġvict": 6487,
      "Ġrecycl": 6488,
      "Ġcere": 6489,
      "Ġvelocity": 6490,
      "sts": 6491,
      "BC": 6492,
      "Ġultimately": 6493,
      "ĠOpt": 6494,
      "Ġhealing": 6495,
      "you": 6496,
      "Ġsignificance": 6497,
      "Ġdistingu": 6498,
      "-old": 6499,
      "ĠVol": 6500,
      "Ġdescription": 6501,
      "Ġbabies": 6502,
      "Ġgent": 6503,
      "rub": 6504,
      "angle": 6505,
      "ĠUV": 6506,
      "ĠSometimes": 6507,
      "Ġmm": 6508,
      "Lear": 6509,
      "Ġcouldn": 6510,
      "Ġtires": 6511,
      "Other": 6512,
      "Ġtrail": 6513,
      "Ġcontainers": 6514,
      "Ġresponses": 6515,
      "Ġamb": 6516,
      "atur": 6517,
      "Ġresol": 6518,
      "Ġparameters": 6519,
      "Ġexpans": 6520,
      "47": 6521,
      "from": 6522,
      "zed": 6523,
      "Ġretur": 6524,
      "Ġye": 6525,
      "Ġlaboratory": 6526,
      "ĠSal": 6527,
      "esides": 6528,
      "Ġenables": 6529,
      "Ġwhereas": 6530,
      "ĠMuseum": 6531,
      "Ġblind": 6532,
      "Ġstroke": 6533,
      "TH": 6534,
      "ĠAD": 6535,
      "earing": 6536,
      "Ġnoticed": 6537,
      "Every": 6538,
      "appe": 6539,
      "Ġpipe": 6540,
      "ocket": 6541,
      "ĠStand": 6542,
      "Ġprinciple": 6543,
      "uel": 6544,
      "nel": 6545,
      "ella": 6546,
      "Ġgenerations": 6547,
      "Ġtherap": 6548,
      "Ġyard": 6549,
      "Ġmood": 6550,
      "AI": 6551,
      "Ġtown": 6552,
      "ĠWood": 6553,
      "Ġprecision": 6554,
      "Ġresistant": 6555,
      "Ġfairly": 6556,
      "Ġequivalent": 6557,
      "ĠVis": 6558,
      "Ġparallel": 6559,
      "Ġgrand": 6560,
      "omfort": 6561,
      "enses": 6562,
      "Ġclients": 6563,
      "abil": 6564,
      "Does": 6565,
      "astern": 6566,
      "Ġnutritional": 6567,
      "-P": 6568,
      "Ġholding": 6569,
      "Ġisland": 6570,
      "ĠEnvironmental": 6571,
      "son": 6572,
      "Ġhealthier": 6573,
      "Ġempt": 6574,
      "Ġdivided": 6575,
      "amily": 6576,
      "Ġbeef": 6577,
      "Ġyes": 6578,
      "Ġreached": 6579,
      "ontal": 6580,
      "ether": 6581,
      "Ġyouth": 6582,
      "Ġsilver": 6583,
      "ĠOF": 6584,
      "Ġserving": 6585,
      "Ġselecting": 6586,
      "ket": 6587,
      "Ġinterview": 6588,
      "Ġrecognition": 6589,
      "ĠLondon": 6590,
      "Ġburning": 6591,
      "ĠMexico": 6592,
      "ĠMal": 6593,
      "ĠDise": 6594,
      "coming": 6595,
      "Ġversatile": 6596,
      "Ġwings": 6597,
      "Ġcrow": 6598,
      "Share": 6599,
      "atric": 6600,
      "fit": 6601,
      "Ġpackaging": 6602,
      "ikes": 6603,
      "Ġfacing": 6604,
      "Ġevolved": 6605,
      "CS": 6606,
      "agers": 6607,
      "Ġflexible": 6608,
      "rab": 6609,
      "Ġgluc": 6610,
      "Ġseat": 6611,
      "Ġdelay": 6612,
      "Ġbacterial": 6613,
      "arge": 6614,
      "xid": 6615,
      "56": 6616,
      "Ġweap": 6617,
      "Ġfertilizer": 6618,
      "Ġstorm": 6619,
      "ĠTer": 6620,
      "Ġclar": 6621,
      "uous": 6622,
      "Ġflexibility": 6623,
      "Le": 6624,
      "ĠSol": 6625,
      "Ġaluminum": 6626,
      "rical": 6627,
      "Ġpand": 6628,
      "aped": 6629,
      "then": 6630,
      "Ġplanted": 6631,
      "Ġconvert": 6632,
      "Ġtick": 6633,
      "Ġalter": 6634,
      "Ġvet": 6635,
      "Ġoverw": 6636,
      "Ġblend": 6637,
      "Ġdigestive": 6638,
      "Ġinstant": 6639,
      "opl": 6640,
      "ounced": 6641,
      "Ġentertain": 6642,
      "ĠAcad": 6643,
      "Ġaims": 6644,
      "Don": 6645,
      "Ġabilities": 6646,
      "hent": 6647,
      "91": 6648,
      "Ġloop": 6649,
      "ĠCy": 6650,
      "irty": 6651,
      "Ġathlet": 6652,
      "ĠFree": 6653,
      "Ġartist": 6654,
      "ĠPost": 6655,
      "mas": 6656,
      "Ġlies": 6657,
      "Ġantibiotics": 6658,
      "During": 6659,
      "Ġprevention": 6660,
      "normal": 6661,
      "ilation": 6662,
      "Ġreput": 6663,
      "ommod": 6664,
      "Ġclub": 6665,
      ".âĢĿ": 6666,
      "Ġlik": 6667,
      "Ġeliminate": 6668,
      "\"We": 6669,
      "Ġlived": 6670,
      "ĠDel": 6671,
      "Ġancest": 6672,
      "Ġinfrastructure": 6673,
      "Ġinhib": 6674,
      "ĠWashington": 6675,
      "Ġeffectiveness": 6676,
      "Ġrealize": 6677,
      "54": 6678,
      "Ġsyndrome": 6679,
      "Ġhidden": 6680,
      "Ġmolecule": 6681,
      "ðŁ": 6682,
      "iled": 6683,
      "ĠUnder": 6684,
      "Ġ**": 6685,
      "ĠVe": 6686,
      "Ġcompact": 6687,
      "ĠPen": 6688,
      "izers": 6689,
      "Ġdatabase": 6690,
      "Ġregist": 6691,
      "zym": 6692,
      "Ġdimens": 6693,
      "Ġrobots": 6694,
      "ĠHuman": 6695,
      "ĠBr": 6696,
      "istant": 6697,
      "ĠSpace": 6698,
      "Ġconsumer": 6699,
      "Ġproductivity": 6700,
      "ĠHaw": 6701,
      "Ġwonderful": 6702,
      "Ġcomparison": 6703,
      "Ġinspect": 6704,
      "Ġnervous": 6705,
      "Ġneuro": 6706,
      "ĠRet": 6707,
      "Where": 6708,
      "Ġpotatoes": 6709,
      "igital": 6710,
      "Ġauto": 6711,
      "ĠTreat": 6712,
      "alian": 6713,
      "Ġappreciate": 6714,
      "Ġcav": 6715,
      "ython": 6716,
      "Ġgases": 6717,
      "Ġsubjects": 6718,
      "Ġov": 6719,
      "Ġdurable": 6720,
      "53": 6721,
      "Ġpun": 6722,
      "tic": 6723,
      "ĠStr": 6724,
      "Ġoxid": 6725,
      "anged": 6726,
      "Ġturb": 6727,
      "othe": 6728,
      "Ġparticle": 6729,
      "Ġfitness": 6730,
      "Ġcomplicated": 6731,
      "Ġpel": 6732,
      "Ġknew": 6733,
      "Ġnuts": 6734,
      "orge": 6735,
      "Ġdial": 6736,
      "Ġcoastal": 6737,
      "Ġdeer": 6738,
      "no": 6739,
      "Ġviruses": 6740,
      "fly": 6741,
      "gal": 6742,
      "Ġpossibility": 6743,
      "Ġattacks": 6744,
      "Ġpolicies": 6745,
      "Ġalgorithm": 6746,
      "ĠProfessor": 6747,
      "Ġextent": 6748,
      "Ġnoted": 6749,
      "Ġrib": 6750,
      "otal": 6751,
      "rix": 6752,
      "Ġextend": 6753,
      "Ġsch": 6754,
      "Ġfrozen": 6755,
      "Ġdistur": 6756,
      "Ġwilling": 6757,
      "agnetic": 6758,
      "icity": 6759,
      "Che": 6760,
      "word": 6761,
      "Ġpaid": 6762,
      "Ġspectrum": 6763,
      "ĠFalse": 6764,
      "unt": 6765,
      "Ġbottle": 6766,
      "Ġdrivers": 6767,
      "Ġconvenient": 6768,
      "ĠAM": 6769,
      "Ġrecommendations": 6770,
      "ĠWestern": 6771,
      "Ġgal": 6772,
      "ĠTry": 6773,
      "Ġincome": 6774,
      "Ġfav": 6775,
      "AA": 6776,
      "rolog": 6777,
      "tical": 6778,
      "ĠFind": 6779,
      "Ġexperiencing": 6780,
      "Ġwaiting": 6781,
      "Also": 6782,
      "Ġnecessarily": 6783,
      "Ġmovie": 6784,
      "Ġconversation": 6785,
      "Ġcas": 6786,
      "osion": 6787,
      "Ġphil": 6788,
      "ometer": 6789,
      "Ġoils": 6790,
      "Ġrecognized": 6791,
      "Ġdurability": 6792,
      "quit": 6793,
      "Ġdifficulty": 6794,
      "Ġclock": 6795,
      "aj": 6796,
      "Ġtoys": 6797,
      ");": 6798,
      "rape": 6799,
      "ĠShould": 6800,
      "Ġexchange": 6801,
      "Ġnearby": 6802,
      "ĠTem": 6803,
      "Ġcalm": 6804,
      "eles": 6805,
      "Ġdecline": 6806,
      "Ġlimits": 6807,
      "amic": 6808,
      "Ġcholesterol": 6809,
      "ources": 6810,
      "Ġfinger": 6811,
      "Ġfocuses": 6812,
      "efits": 6813,
      "ĠPlay": 6814,
      "Ġgradually": 6815,
      "Ġbugs": 6816,
      "Ġbreaking": 6817,
      "Ġfather": 6818,
      "Ġintense": 6819,
      "Ġrubber": 6820,
      "fra": 6821,
      "Ġmanaged": 6822,
      "Ġbiodiversity": 6823,
      "ka": 6824,
      "Ġflash": 6825,
      "-day": 6826,
      "Ġappoint": 6827,
      "Ġclay": 6828,
      "heets": 6829,
      "eping": 6830,
      "Ġintensity": 6831,
      "\"ĊĊ": 6832,
      "Ġsuscept": 6833,
      "Ġfunding": 6834,
      "ĠCP": 6835,
      "alysis": 6836,
      "Ġclus": 6837,
      "ĠUnderstanding": 6838,
      "Ġcurriculum": 6839,
      "Ġarms": 6840,
      "DF": 6841,
      "uses": 6842,
      "ushing": 6843,
      "anish": 6844,
      "Ġspeaking": 6845,
      "Ġcalculate": 6846,
      "Ġcaught": 6847,
      "Ġresolution": 6848,
      "ĠPress": 6849,
      "Ġheads": 6850,
      "Ġrespiratory": 6851,
      "osaur": 6852,
      "Ġpartner": 6853,
      ".m": 6854,
      "Ġsan": 6855,
      "Ġcompat": 6856,
      "Ġsuffering": 6857,
      "Ġacts": 6858,
      "Ġcitiz": 6859,
      "Ġkilled": 6860,
      "Ġdealing": 6861,
      "Ġunderst": 6862,
      "ĠInternet": 6863,
      "Ġparticipate": 6864,
      "ĠArch": 6865,
      "Ġdoctors": 6866,
      "ĠFurthermore": 6867,
      "Ġpermanent": 6868,
      "Ġgrain": 6869,
      "oto": 6870,
      "gien": 6871,
      "pm": 6872,
      "reens": 6873,
      "ints": 6874,
      "Ġsteam": 6875,
      "apping": 6876,
      "-T": 6877,
      "Ġleader": 6878,
      "ourse": 6879,
      "Ġintegrated": 6880,
      "'.": 6881,
      "iology": 6882,
      "Ġstreet": 6883,
      "Ġlandscap": 6884,
      "Ġterrit": 6885,
      "Ġderived": 6886,
      "Ġcotton": 6887,
      "Ġmature": 6888,
      "Ġtough": 6889,
      "Ġgrid": 6890,
      "Ġdiscomfort": 6891,
      "Ġinteractive": 6892,
      "RI": 6893,
      "ĠMedical": 6894,
      "Ġshowc": 6895,
      "Ġow": 6896,
      "Ġongoing": 6897,
      "Ġcapital": 6898,
      "arbon": 6899,
      "Ġpestic": 6900,
      "Ġwatering": 6901,
      "Ġsexual": 6902,
      "Ġrod": 6903,
      "lessly": 6904,
      "Ġmammals": 6905,
      "tt": 6906,
      "ĠHouse": 6907,
      "inity": 6908,
      "Ġfunctionality": 6909,
      "Ġjack": 6910,
      "Ġcircumst": 6911,
      "92": 6912,
      "Ġscore": 6913,
      "Ġimmediate": 6914,
      "âĢ¦ĊĊ": 6915,
      "ĠEqu": 6916,
      "ĠAmazon": 6917,
      "Ġwidth": 6918,
      "fast": 6919,
      "Ġpresentation": 6920,
      "Ġcontem": 6921,
      "Inst": 6922,
      "Ġdied": 6923,
      "Ġdefine": 6924,
      "under": 6925,
      "CD": 6926,
      "Ġbrake": 6927,
      "Ġadequate": 6928,
      "Ġargument": 6929,
      "Ġlifespan": 6930,
      "Ġeco": 6931,
      "Ġaccomp": 6932,
      "Ġmer": 6933,
      "uning": 6934,
      "pling": 6935,
      "Ġok": 6936,
      "Ġdirector": 6937,
      "Ġsatell": 6938,
      "itness": 6939,
      "Ġapparent": 6940,
      "Ġdrops": 6941,
      "Ġcolleagues": 6942,
      "ĠFace": 6943,
      "fe": 6944,
      "Ġcomments": 6945,
      "Ġprotecting": 6946,
      "ĠMat": 6947,
      "OW": 6948,
      "49": 6949,
      "SP": 6950,
      "ĠInformation": 6951,
      "ĠNews": 6952,
      "Understanding": 6953,
      "Ġbrands": 6954,
      "Ġjuice": 6955,
      "Ġsupposed": 6956,
      "ĠPublic": 6957,
      "ĠAT": 6958,
      "ĠPract": 6959,
      "eli": 6960,
      "Ġdietary": 6961,
      "bohyd": 6962,
      "ĠOnly": 6963,
      "Ġnarrow": 6964,
      "ĠBest": 6965,
      "Ġpit": 6966,
      "Ġdoors": 6967,
      "opes": 6968,
      "CT": 6969,
      "ĠSil": 6970,
      "comp": 6971,
      "Ġtons": 6972,
      "edom": 6973,
      "Ġcord": 6974,
      "soft": 6975,
      "FA": 6976,
      "ĠGroup": 6977,
      "Ġpilot": 6978,
      "Ġaccommod": 6979,
      "Ġgentle": 6980,
      "Ġtraits": 6981,
      "cont": 6982,
      "elry": 6983,
      "Ġsections": 6984,
      "Ġcake": 6985,
      "Ġvariations": 6986,
      "etal": 6987,
      "Ġconscious": 6988,
      "Ġcompl": 6989,
      "ĠLaw": 6990,
      "Ġrobust": 6991,
      "Because": 6992,
      "Ġbulbs": 6993,
      "ini": 6994,
      "88": 6995,
      "Ġbuff": 6996,
      "66": 6997,
      "Ġholid": 6998,
      "Ġfocusing": 6999,
      "Ġprinter": 7000,
      "Ġveterinarian": 7001,
      "Ġglasses": 7002,
      "Ġvulnerable": 7003,
      "Ġdefect": 7004,
      "ĠNAS": 7005,
      "mented": 7006,
      "Ġdescribes": 7007,
      "ritis": 7008,
      "Ġfederal": 7009,
      "Ġchest": 7010,
      "Ġshorter": 7011,
      "nger": 7012,
      "Ġthoroughly": 7013,
      "althy": 7014,
      "Ġcater": 7015,
      "Ġentry": 7016,
      "ressed": 7017,
      "ona": 7018,
      "Ġsac": 7019,
      "-level": 7020,
      "reating": 7021,
      "Ġpersist": 7022,
      "-by": 7023,
      "Ġduration": 7024,
      ".D": 7025,
      "ĠAND": 7026,
      "ĠPan": 7027,
      "ĠExp": 7028,
      "Just": 7029,
      "Ġpossibilities": 7030,
      "ĠCentral": 7031,
      "Ġtoile": 7032,
      "Ġinfest": 7033,
      "usiness": 7034,
      "BS": 7035,
      "Ġnavigate": 7036,
      "hemistry": 7037,
      "86": 7038,
      "Ġvegan": 7039,
      "Ġnuclear": 7040,
      "Ġfilters": 7041,
      "Ġpeak": 7042,
      "ĠAustralian": 7043,
      "ague": 7044,
      "bage": 7045,
      "Ġcultures": 7046,
      "terior": 7047,
      "lo": 7048,
      "ĠMach": 7049,
      "Ġconclud": 7050,
      "ĠPet": 7051,
      "ading": 7052,
      "Ġprocessed": 7053,
      "Ġson": 7054,
      "ĠRegular": 7055,
      "ĠPot": 7056,
      "Ġpairs": 7057,
      "van": 7058,
      "Ġgoods": 7059,
      "aterials": 7060,
      "Ġtells": 7061,
      "ĠOh": 7062,
      "Ġwheels": 7063,
      "About": 7064,
      "57": 7065,
      "Ġbought": 7066,
      "Ġdemonstrate": 7067,
      "Ġassume": 7068,
      "ĠPhotos": 7069,
      "ĠMedicine": 7070,
      "rich": 7071,
      "Ġdisrupt": 7072,
      "Ġforming": 7073,
      "Ġgeomet": 7074,
      "Ġfant": 7075,
      "ĠRad": 7076,
      "ĠBig": 7077,
      "Ġobesity": 7078,
      "Ġcub": 7079,
      "Ġkm": 7080,
      "ĠIll": 7081,
      "Ġprofile": 7082,
      "Ġherbs": 7083,
      "Ġfing": 7084,
      "//": 7085,
      "Ġourselves": 7086,
      "ĠMoreover": 7087,
      "58": 7088,
      "osquit": 7089,
      "Ġaggressive": 7090,
      "Ġtack": 7091,
      "Ġunknown": 7092,
      "Ġintroduce": 7093,
      "advant": 7094,
      "Ġproven": 7095,
      "Ġjoints": 7096,
      "Ġhybrid": 7097,
      "Ġdense": 7098,
      "Ġobserve": 7099,
      "ceans": 7100,
      "Ġpreferred": 7101,
      "utch": 7102,
      "ocation": 7103,
      "Ġaffecting": 7104,
      "onomic": 7105,
      "ĠSuper": 7106,
      "Ġexamine": 7107,
      "flies": 7108,
      "Figure": 7109,
      "Ġstems": 7110,
      "Ġinstrum": 7111,
      "Ġshock": 7112,
      "62": 7113,
      "ĠConn": 7114,
      "amil": 7115,
      "Ġbringing": 7116,
      "Â·": 7117,
      "band": 7118,
      "ĠThose": 7119,
      "Ġevaluate": 7120,
      "Ġcategory": 7121,
      "Even": 7122,
      "Ġvariables": 7123,
      "Ġcircle": 7124,
      "Ġsodium": 7125,
      "Ġgarlic": 7126,
      "Ġoccurred": 7127,
      "Which": 7128,
      "Ġrect": 7129,
      "ulture": 7130,
      "hav": 7131,
      "ĠGermany": 7132,
      "win": 7133,
      "astics": 7134,
      "Ġrestaurant": 7135,
      "ioxid": 7136,
      "Ġmitig": 7137,
      "Ġtransmit": 7138,
      "Ġresidents": 7139,
      "ĠMot": 7140,
      "Ġpou": 7141,
      "Ġgerm": 7142,
      "Ġidentifying": 7143,
      "Ġpregnant": 7144,
      "Ġlinear": 7145,
      "Ġshouldn": 7146,
      "Ġwires": 7147,
      "Ġlargely": 7148,
      "Have": 7149,
      "Ġbiom": 7150,
      "Ġsalmon": 7151,
      "Ġtreating": 7152,
      "Ġaffordable": 7153,
      "Ġunusual": 7154,
      "wo": 7155,
      "Ġcomprom": 7156,
      "exp": 7157,
      "Ġculinary": 7158,
      "Ġca": 7159,
      "Water": 7160,
      "Ġstated": 7161,
      "Ġboxes": 7162,
      "Ġgenome": 7163,
      ",âĢĿ": 7164,
      "mal": 7165,
      "Ġlistening": 7166,
      "Ġreaders": 7167,
      "Ġenhancing": 7168,
      "inent": 7169,
      "ĠAtt": 7170,
      "Ġsynthetic": 7171,
      "ĠProcess": 7172,
      "Ġdetermining": 7173,
      "Ġcow": 7174,
      ".'": 7175,
      "certain": 7176,
      "izza": 7177,
      "Ġvariation": 7178,
      "Ġgently": 7179,
      "ĠTrue": 7180,
      "Ġdried": 7181,
      "Ġcolumn": 7182,
      "Ġroles": 7183,
      "berg": 7184,
      "ude": 7185,
      "Ġcoral": 7186,
      "ivest": 7187,
      "Ġspark": 7188,
      "ĠDogs": 7189,
      "gu": 7190,
      "Ġtruck": 7191,
      "ENT": 7192,
      "itage": 7193,
      "zyme": 7194,
      "ĠSocial": 7195,
      "Ġbreaks": 7196,
      "Ġkidney": 7197,
      "ĠPal": 7198,
      "rument": 7199,
      "ĠZe": 7200,
      "Ġsubsequ": 7201,
      "Ġcomputing": 7202,
      "Ġcrew": 7203,
      "Ġliterature": 7204,
      "Ġblank": 7205,
      "Ġleadership": 7206,
      "Ġsched": 7207,
      "ooked": 7208,
      "Ġclient": 7209,
      "forcement": 7210,
      "Ġtraum": 7211,
      "tery": 7212,
      "ĠForm": 7213,
      "Ġcrack": 7214,
      "Ġmini": 7215,
      "rying": 7216,
      "Ġriding": 7217,
      "Ġadvoc": 7218,
      "hered": 7219,
      "zymes": 7220,
      "Ġrepeated": 7221,
      "Ġthrow": 7222,
      "ĠPlace": 7223,
      "Ġdies": 7224,
      "rays": 7225,
      "Ġserver": 7226,
      "ago": 7227,
      "CA": 7228,
      "Ġgreatest": 7229,
      "Ġinvent": 7230,
      "Ġequipped": 7231,
      "Ġlux": 7232,
      "Ġaward": 7233,
      "Ġusual": 7234,
      "Ġtheme": 7235,
      "Ġsle": 7236,
      "Ġfibers": 7237,
      "Ġpharm": 7238,
      "Ġneighb": 7239,
      "Ġworn": 7240,
      "Ġrecording": 7241,
      "atively": 7242,
      "erior": 7243,
      "ogether": 7244,
      "Ġcandid": 7245,
      "Ġrevealed": 7246,
      "Col": 7247,
      "-shaped": 7248,
      "Ġbub": 7249,
      "Ġsupplements": 7250,
      "Ġjoy": 7251,
      "Ġcompetitive": 7252,
      "ĠJournal": 7253,
      "Ġintest": 7254,
      "Ġfeather": 7255,
      "Ġidentity": 7256,
      "59": 7257,
      "Ġcred": 7258,
      "Ġtele": 7259,
      "Ġtal": 7260,
      "Ġlaunch": 7261,
      "ingly": 7262,
      "anger": 7263,
      "Ġincorporating": 7264,
      "oust": 7265,
      "Ġlogic": 7266,
      "Ġrecover": 7267,
      "rosion": 7268,
      "Ġgap": 7269,
      "Ġrelief": 7270,
      "Ġingredient": 7271,
      "adian": 7272,
      "Ġicon": 7273,
      "ĠSecond": 7274,
      "ĠAdv": 7275,
      "Ġengagement": 7276,
      "Ġmoon": 7277,
      "oids": 7278,
      "Ġexistence": 7279,
      "Ġglucose": 7280,
      "Of": 7281,
      "Ġframework": 7282,
      "Ġunable": 7283,
      "ican": 7284,
      "ĠCoun": 7285,
      "Ġsoph": 7286,
      "Ġregardless": 7287,
      "âĢľ": 7288,
      "Ġbeet": 7289,
      "Make": 7290,
      "lder": 7291,
      "luding": 7292,
      "ĠFrance": 7293,
      "ĠClimate": 7294,
      "cal": 7295,
      "Ġfisher": 7296,
      "Ġmixing": 7297,
      "pecific": 7298,
      "atus": 7299,
      "Ġanalyze": 7300,
      "Ġviews": 7301,
      "Ġcham": 7302,
      "obe": 7303,
      "mentation": 7304,
      "Ġhazard": 7305,
      "ĠEss": 7306,
      "Ġexcited": 7307,
      "ĠAvoid": 7308,
      "Ġexpansion": 7309,
      "Ġaccurately": 7310,
      "berries": 7311,
      "IR": 7312,
      "ville": 7313,
      "ĠAR": 7314,
      "Ġempty": 7315,
      "94": 7316,
      "Ġspeeds": 7317,
      "Ġkg": 7318,
      "Ġgrains": 7319,
      "Ġattractive": 7320,
      "Ġhem": 7321,
      "Ġloud": 7322,
      "Ġreb": 7323,
      "Ġproof": 7324,
      "Ġexplanation": 7325,
      "Ġbeach": 7326,
      "Ġinitially": 7327,
      "-cl": 7328,
      "gical": 7329,
      "Ġgiant": 7330,
      "utive": 7331,
      "Ġmouse": 7332,
      "Ġpersonality": 7333,
      "Ġquantity": 7334,
      "Ġdecay": 7335,
      "Ġmere": 7336,
      "Ġtheore": 7337,
      "ĠFinally": 7338,
      "such": 7339,
      "Ġspo": 7340,
      "68": 7341,
      "Ġprove": 7342,
      "night": 7343,
      "field": 7344,
      "Ġhyper": 7345,
      "Ġallergies": 7346,
      "ĠWindows": 7347,
      "UT": 7348,
      "Ġhur": 7349,
      "orrect": 7350,
      "Red": 7351,
      "proof": 7352,
      "Ġwast": 7353,
      "Ġstraw": 7354,
      "lock": 7355,
      "Ġsaving": 7356,
      "ivestock": 7357,
      "Ġprofit": 7358,
      "Ġtension": 7359,
      "riction": 7360,
      "Ġcovering": 7361,
      "Ġinvolving": 7362,
      "Ġsulf": 7363,
      "Ġavailability": 7364,
      "Ġnor": 7365,
      "Ġmicrow": 7366,
      "61": 7367,
      "Ġlip": 7368,
      "aneously": 7369,
      "Ġencounter": 7370,
      "Ġbuck": 7371,
      "Ġrear": 7372,
      "ĠApple": 7373,
      "Ġrough": 7374,
      "Ġdrainage": 7375,
      "EP": 7376,
      "Ġdiscipl": 7377,
      "Ġore": 7378,
      "Ġalgae": 7379,
      "Ġassembly": 7380,
      "ĠProv": 7381,
      "Ġven": 7382,
      "Ġsoci": 7383,
      "93": 7384,
      "icit": 7385,
      "Ġgift": 7386,
      "Ġranging": 7387,
      "pection": 7388,
      "sters": 7389,
      "Ġdelicate": 7390,
      "heric": 7391,
      "Ġinterests": 7392,
      "Ġreaching": 7393,
      "Ġessentially": 7394,
      "tles": 7395,
      "Ġprovider": 7396,
      "Ġpopularity": 7397,
      "Ġappeal": 7398,
      "Ġexists": 7399,
      "Ġoutdoors": 7400,
      "ĠProper": 7401,
      "Ġauthent": 7402,
      "Ġoptical": 7403,
      "Ġsmoking": 7404,
      "ĠThanks": 7405,
      "-and": 7406,
      "Ġyounger": 7407,
      "Ġcircumstances": 7408,
      "Ġfract": 7409,
      "ĠVir": 7410,
      "OM": 7411,
      "working": 7412,
      "Ġlift": 7413,
      "Ġincorporate": 7414,
      "assium": 7415,
      "Ġfacility": 7416,
      "Ġcomplexity": 7417,
      "ception": 7418,
      "Ġconsideration": 7419,
      "Ġcategories": 7420,
      "Ġtrad": 7421,
      "ĠAS": 7422,
      "Ġdough": 7423,
      "Ġcharged": 7424,
      "Ġpriorit": 7425,
      "Ġvolcan": 7426,
      "osc": 7427,
      "78": 7428,
      "pread": 7429,
      "Ġformal": 7430,
      "ĠSafety": 7431,
      "Ġimplementation": 7432,
      "Ġabsolutely": 7433,
      "eting": 7434,
      "Ġdanger": 7435,
      "ports": 7436,
      "Ġthickness": 7437,
      "gent": 7438,
      "Ġprevents": 7439,
      "Ġstead": 7440,
      "ĠSuch": 7441,
      "ĠFollow": 7442,
      "elly": 7443,
      "77": 7444,
      "pat": 7445,
      "Ġreprodu": 7446,
      "asant": 7447,
      "Ġvisitors": 7448,
      "63": 7449,
      "thritis": 7450,
      "Ġroute": 7451,
      "etime": 7452,
      "ĠMor": 7453,
      "lectric": 7454,
      "istor": 7455,
      "(s": 7456,
      "Ġhypothes": 7457,
      "Ġbol": 7458,
      "Ġincredibly": 7459,
      "Ġmessages": 7460,
      "while": 7461,
      "Ġdispl": 7462,
      "rem": 7463,
      "ĠAgricult": 7464,
      "Ġuniform": 7465,
      "Ġanalog": 7466,
      "iger": 7467,
      "Ġneur": 7468,
      "Ġcarrying": 7469,
      "Ġcomposed": 7470,
      "Ġestimate": 7471,
      "Ġpipes": 7472,
      "Ġdisappe": 7473,
      "Well": 7474,
      "Ġbrows": 7475,
      "owns": 7476,
      "mble": 7477,
      "Ġwiring": 7478,
      "Ġdiamond": 7479,
      "ĠMo": 7480,
      "Ġsail": 7481,
      "Ġremarkable": 7482,
      "82": 7483,
      "ĠSym": 7484,
      "Ġneighbor": 7485,
      "âĪ": 7486,
      "ĠUSA": 7487,
      "Ġexhibit": 7488,
      "Ġeleph": 7489,
      "Ġsnake": 7490,
      "Ġevolutionary": 7491,
      "utrition": 7492,
      "Ġid": 7493,
      "74": 7494,
      "ĠWildlife": 7495,
      "71": 7496,
      "Ġchips": 7497,
      "Sim": 7498,
      "Ġexploration": 7499,
      "Ġfalls": 7500,
      "Ġecological": 7501,
      "otype": 7502,
      "Ġmuse": 7503,
      "Ġmine": 7504,
      "etch": 7505,
      "Ġpill": 7506,
      "ĠRight": 7507,
      "Ġdocuments": 7508,
      "Ġfilling": 7509,
      "Ġradi": 7510,
      "Ġcombine": 7511,
      "Ġspending": 7512,
      "Ġunex": 7513,
      "Ġreceiving": 7514,
      "thal": 7515,
      "Ġanimation": 7516,
      "Ġagent": 7517,
      "ĠConservation": 7518,
      "ctu": 7519,
      "Ġcharacterized": 7520,
      "Ġgum": 7521,
      "Ġlaun": 7522,
      "lear": 7523,
      "den": 7524,
      "ĠSam": 7525,
      "Ġfatty": 7526,
      "Ġdemonstrated": 7527,
      "Ġphenomenon": 7528,
      "Ġrising": 7529,
      "ĠConf": 7530,
      "igue": 7531,
      "ĠCouncil": 7532,
      "Ġdissol": 7533,
      "Ġresc": 7534,
      "ĠChoose": 7535,
      "face": 7536,
      "Ġpond": 7537,
      "Ġcontributing": 7538,
      "Ġphilos": 7539,
      "Ġintricate": 7540,
      "ĠBack": 7541,
      "Ġine": 7542,
      "Ġevaluation": 7543,
      "esium": 7544,
      "Ġincredible": 7545,
      "roductive": 7546,
      "ĠNASA": 7547,
      "erts": 7548,
      "ĠMa": 7549,
      "Ġblade": 7550,
      "oli": 7551,
      "Ġmask": 7552,
      "anguages": 7553,
      "bow": 7554,
      "Pr": 7555,
      "73": 7556,
      "Ġagents": 7557,
      "ĠDraw": 7558,
      "onnect": 7559,
      "adder": 7560,
      "Ġtomatoes": 7561,
      "ĠFish": 7562,
      "Ġchair": 7563,
      "ĠBur": 7564,
      "76": 7565,
      "Ġclaims": 7566,
      "Ġfunctioning": 7567,
      "Gen": 7568,
      "Ġplates": 7569,
      "Ġdriven": 7570,
      "Ġmul": 7571,
      "reated": 7572,
      "Ġreviews": 7573,
      "Ġpackage": 7574,
      "Ġselling": 7575,
      "overnment": 7576,
      "ĠMass": 7577,
      "Ġcenturies": 7578,
      "Ġalternatives": 7579,
      "ersonal": 7580,
      "rian": 7581,
      "plete": 7582,
      "ĠQuestions": 7583,
      "Ġvill": 7584,
      "Ġidentification": 7585,
      "67": 7586,
      "Ġoutcome": 7587,
      "Ġforeign": 7588,
      "Ġsensitivity": 7589,
      "Ġhygien": 7590,
      "uty": 7591,
      "ega": 7592,
      "Ġdirections": 7593,
      "owners": 7594,
      "ĠCur": 7595,
      "ĠGener": 7596,
      "Ġconfident": 7597,
      "ĠEnd": 7598,
      "Ġvan": 7599,
      "orld": 7600,
      "Ġpropag": 7601,
      "ael": 7602,
      "Ġsplit": 7603,
      "Ġletters": 7604,
      "Ġstimul": 7605,
      ".org": 7606,
      "81": 7607,
      "Ġera": 7608,
      "Ġmirror": 7609,
      "OD": 7610,
      "Ġprotocol": 7611,
      "Ġscientist": 7612,
      "Ġquiet": 7613,
      "Ġdoubt": 7614,
      "ruit": 7615,
      "Ġwarning": 7616,
      "Go": 7617,
      "84": 7618,
      "Ġuniversity": 7619,
      "Ġtreats": 7620,
      "Ġengineers": 7621,
      "Ġhimself": 7622,
      "Ġrarely": 7623,
      "ĠFin": 7624,
      "Ġfats": 7625,
      "Ġsoils": 7626,
      "ĠSciences": 7627,
      "ĠMil": 7628,
      "Ġrivers": 7629,
      "Ġadventure": 7630,
      "Ġpreserve": 7631,
      "ĠSn": 7632,
      "Ġdrought": 7633,
      "Ġgray": 7634,
      "Ġlosing": 7635,
      "Ġrust": 7636,
      "oving": 7637,
      "CE": 7638,
      "ĠMiss": 7639,
      "ĠJe": 7640,
      "Ġprone": 7641,
      "Ġintegr": 7642,
      "rade": 7643,
      "Ġfuels": 7644,
      "Ġescape": 7645,
      "Ġtag": 7646,
      "estone": 7647,
      "87": 7648,
      "Ġworkshop": 7649,
      "Ġsole": 7650,
      "ĠCell": 7651,
      "Ġantioxid": 7652,
      "Ġcrust": 7653,
      "Ġchannels": 7654,
      "Ġpreparing": 7655,
      "Ġexclus": 7656,
      "Ġsomewhat": 7657,
      "Ġposts": 7658,
      "Ġtracking": 7659,
      "UR": 7660,
      "Ġimplications": 7661,
      "heat": 7662,
      "Ġvector": 7663,
      "Any": 7664,
      ".C": 7665,
      "Ġendangered": 7666,
      "Ġthreats": 7667,
      "itamin": 7668,
      "-scale": 7669,
      "Ġperforming": 7670,
      "ĠDavid": 7671,
      "Ġerrors": 7672,
      "??": 7673,
      "plate": 7674,
      "ĠType": 7675,
      "Ġarchitecture": 7676,
      "Â®": 7677,
      "Ġfrust": 7678,
      "edge": 7679,
      "ĠMult": 7680,
      "Ġcabin": 7681,
      "action": 7682,
      "ya": 7683,
      "Ġcombat": 7684,
      "Ġunderstood": 7685,
      "ĠÃ": 7686,
      "Ġsurge": 7687,
      "ools": 7688,
      "Ġwestern": 7689,
      "alls": 7690,
      "Ġjewelry": 7691,
      "Ġdecade": 7692,
      "LA": 7693,
      "Aut": 7694,
      "roat": 7695,
      "Ġcarbohyd": 7696,
      "ĠImp": 7697,
      "\"I": 7698,
      "Ġreaches": 7699,
      "Ġenabling": 7700,
      "Ġdesire": 7701,
      "Ġprinted": 7702,
      "idespread": 7703,
      "Ġinspired": 7704,
      "Ġcoverage": 7705,
      "Ġelectronics": 7706,
      "ĠAud": 7707,
      "Ġorganized": 7708,
      "Ġbonds": 7709,
      "ĠBal": 7710,
      "Ġboundaries": 7711,
      "Ġpassing": 7712,
      "Ġoverwhel": 7713,
      "ĠTop": 7714,
      "Per": 7715,
      "Ġbarrier": 7716,
      "Ġlighter": 7717,
      "ĠDC": 7718,
      "ounce": 7719,
      "Ġoriginally": 7720,
      "Ġvaries": 7721,
      "arming": 7722,
      "Ġovercome": 7723,
      "Introduction": 7724,
      "Ġamino": 7725,
      "Ġdrawn": 7726,
      "89": 7727,
      "Ġchip": 7728,
      "Ġapps": 7729,
      "ĠAtlantic": 7730,
      "ĠSing": 7731,
      "urp": 7732,
      "Ġpreval": 7733,
      "ĠMill": 7734,
      "Ġorient": 7735,
      "Ġinstrument": 7736,
      "-H": 7737,
      "ĠMem": 7738,
      "Ġdimensions": 7739,
      "Ġconsumed": 7740,
      "Ġdesk": 7741,
      "Ġwider": 7742,
      "othing": 7743,
      "rained": 7744,
      "Ġconvey": 7745,
      "cknow": 7746,
      "Ġopened": 7747,
      "Ġprescrib": 7748,
      "Ġhormone": 7749,
      "Ġgained": 7750,
      "Ġtrial": 7751,
      "Ġdil": 7752,
      "iking": 7753,
      "Ġdepartment": 7754,
      "Ġdomain": 7755,
      "Ġchildhood": 7756,
      "MP": 7757,
      "Ġsleeping": 7758,
      "ĠChange": 7759,
      "Ġleather": 7760,
      "Ġmarks": 7761,
      "egin": 7762,
      "ĠDire": 7763,
      "IF": 7764,
      "enger": 7765,
      "Ġlock": 7766,
      "Ġaddressing": 7767,
      "Ġcuts": 7768,
      "ideo": 7769,
      "Ġpersonalized": 7770,
      "olph": 7771,
      "amination": 7772,
      "Ġsurprising": 7773,
      "oted": 7774,
      "cript": 7775,
      "Ġsomewhere": 7776,
      "ĠID": 7777,
      "Ġking": 7778,
      "onia": 7779,
      "lig": 7780,
      "ĠIndust": 7781,
      "Ġwing": 7782,
      "Ġfarms": 7783,
      "Ġdiagnosed": 7784,
      "Ġwebsites": 7785,
      "Related": 7786,
      "ifting": 7787,
      "Ġvinegar": 7788,
      "ĠBook": 7789,
      "Ġshall": 7790,
      "omas": 7791,
      "ĠHy": 7792,
      "Ġinsight": 7793,
      "Ġmodified": 7794,
      "asters": 7795,
      "Ġ)": 7796,
      "RA": 7797,
      "Sm": 7798,
      "riday": 7799,
      "iances": 7800,
      "ovascular": 7801,
      "Ġsheets": 7802,
      "Ġgast": 7803,
      "Ġpy": 7804,
      "ĠStar": 7805,
      "Ġ`": 7806,
      "owered": 7807,
      "ĠTO": 7808,
      "SS": 7809,
      "medi": 7810,
      "Ġregional": 7811,
      "lete": 7812,
      "Ġdetected": 7813,
      "Ġcomplications": 7814,
      "May": 7815,
      "cture": 7816,
      "rous": 7817,
      "do": 7818,
      "ults": 7819,
      "velength": 7820,
      "ĠTips": 7821,
      "Ġbranch": 7822,
      "Ġspiritual": 7823,
      "hea": 7824,
      "Ġcement": 7825,
      "Ġwax": 7826,
      "Ġ...Ċ": 7827,
      "Ġwine": 7828,
      "ĠUN": 7829,
      "Ġlake": 7830,
      "Ġgirls": 7831,
      "Ġinsulin": 7832,
      "omic": 7833,
      "Ġpositions": 7834,
      "Ġcontrolling": 7835,
      "ĠIP": 7836,
      "Ġobservations": 7837,
      "ĠRNA": 7838,
      "Ġille": 7839,
      "Ġbare": 7840,
      "icul": 7841,
      "this": 7842,
      "Ġlapt": 7843,
      "Ġlitter": 7844,
      "Ġcheaper": 7845,
      "rapeut": 7846,
      "Ġremind": 7847,
      "Like": 7848,
      "Ġlarv": 7849,
      "Ġpix": 7850,
      "taining": 7851,
      ".The": 7852,
      "ĠAcademy": 7853,
      "Ġbits": 7854,
      "Ġtender": 7855,
      "icians": 7856,
      "Ġsimult": 7857,
      "ductor": 7858,
      "Ġcompens": 7859,
      "ĠCarol": 7860,
      "Ġenerg": 7861,
      "Ġguy": 7862,
      "Ġeaten": 7863,
      "Ġorganism": 7864,
      "Ġrose": 7865,
      "anned": 7866,
      "Ġobjective": 7867,
      "Ġenhanced": 7868,
      "Ġsale": 7869,
      "aters": 7870,
      "Ġda": 7871,
      "Ġpandemic": 7872,
      "afe": 7873,
      "herent": 7874,
      "Ġfalling": 7875,
      "ĠGeneral": 7876,
      "Ġbeam": 7877,
      "Ġcellular": 7878,
      "Ġethical": 7879,
      "Ġstones": 7880,
      "Ġdating": 7881,
      "83": 7882,
      "Ġmush": 7883,
      "Ġbeds": 7884,
      "Ġguard": 7885,
      "Ġcock": 7886,
      "Ġfootprint": 7887,
      "Ġfalse": 7888,
      "cycle": 7889,
      "Expl": 7890,
      "Com": 7891,
      "ĠPlants": 7892,
      "Ġconversion": 7893,
      "Ġaids": 7894,
      "Ġstuck": 7895,
      "Ġfever": 7896,
      "izz": 7897,
      "ĠMr": 7898,
      "ĠDisease": 7899,
      "Ġcharacteristic": 7900,
      "Ġbusy": 7901,
      "ĠServices": 7902,
      "ynthesis": 7903,
      "()": 7904,
      "Ġdrying": 7905,
      "Ġstrict": 7906,
      "Ġmarked": 7907,
      "everal": 7908,
      "Ġfreedom": 7909,
      "ola": 7910,
      "Ġexpressed": 7911,
      "ĠCut": 7912,
      "Ġrecycled": 7913,
      "icide": 7914,
      "ĠDifferent": 7915,
      "Ġcattle": 7916,
      "Ġcuis": 7917,
      "isl": 7918,
      "Ġbasics": 7919,
      "Ġachieving": 7920,
      "Ġeleg": 7921,
      "Ġepis": 7922,
      "Ġpresents": 7923,
      "Ġdeaths": 7924,
      "ĠSimilar": 7925,
      "Ġtargets": 7926,
      "Ġwidespread": 7927,
      "pled": 7928,
      "Ġchecking": 7929,
      "rane": 7930,
      "Ġmosquit": 7931,
      "ĠDid": 7932,
      "ĠMary": 7933,
      "Â°F": 7934,
      "Ġtechnological": 7935,
      "Ġwra": 7936,
      "Ġdistributed": 7937,
      "ili": 7938,
      "Ġoceans": 7939,
      "rots": 7940,
      "Ġhouses": 7941,
      "oral": 7942,
      "Ġastron": 7943,
      "Ġindoors": 7944,
      "Ġintegration": 7945,
      "oa": 7946,
      "Ġtone": 7947,
      "Ġpaying": 7948,
      "Ġknife": 7949,
      "Am": 7950,
      "Ġtotally": 7951,
      "Ġcann": 7952,
      "Ġton": 7953,
      "sey": 7954,
      "ĠCommun": 7955,
      "ĠHol": 7956,
      "Ġrespectively": 7957,
      "ashes": 7958,
      "Ġrepairs": 7959,
      "ĠLeg": 7960,
      "riting": 7961,
      "ymph": 7962,
      "Ġmyth": 7963,
      "ĠWithout": 7964,
      "engers": 7965,
      "ĠConst": 7966,
      "zil": 7967,
      "ML": 7968,
      "ĠKey": 7969,
      "ĠNeed": 7970,
      "osaurs": 7971,
      "Ġcorpor": 7972,
      "People": 7973,
      "-a": 7974,
      "Ġreplacing": 7975,
      "ĠNor": 7976,
      "Ġediting": 7977,
      "Ġvegetation": 7978,
      "OC": 7979,
      "ĠEngineering": 7980,
      "Ġstretch": 7981,
      "Ġcycl": 7982,
      "-E": 7983,
      "Ġbears": 7984,
      "ãģ": 7985,
      "ongevity": 7986,
      "encing": 7987,
      "sis": 7988,
      "Ġpose": 7989,
      "Ġphysically": 7990,
      "Ġguys": 7991,
      "ĠMag": 7992,
      "Ġshooting": 7993,
      "Ġneural": 7994,
      "Ġphr": 7995,
      "auc": 7996,
      "Ġcurve": 7997,
      "Ġinvasive": 7998,
      "Ġcomplement": 7999,
      "Ġmodule": 8000,
      "Ġinver": 8001,
      "Ġroads": 8002,
      "ĠMiddle": 8003,
      "erenn": 8004,
      "Ġpurple": 8005,
      "icular": 8006,
      "pie": 8007,
      "Ġrh": 8008,
      "Ġintelligent": 8009,
      "Ġsenior": 8010,
      "Ġcirculation": 8011,
      "Ġtech": 8012,
      "Ġretail": 8013,
      "Ġheavily": 8014,
      "Ġsusceptible": 8015,
      "Ġroughly": 8016,
      "rons": 8017,
      "Ġwhenever": 8018,
      "Ġdiffer": 8019,
      "ĠList": 8020,
      "Ġcleaner": 8021,
      "Ġdollars": 8022,
      "ĠSand": 8023,
      "Ġscript": 8024,
      "Ġpapers": 8025,
      "Ġreverse": 8026,
      "ĠHyd": 8027,
      "ittle": 8028,
      "Ġenzymes": 8029,
      "Ġentering": 8030,
      "aft": 8031,
      "Ġtract": 8032,
      "Ġgaming": 8033,
      "imp": 8034,
      "-L": 8035,
      "Ġembry": 8036,
      "ĠMaybe": 8037,
      "Ġwondering": 8038,
      "Ġplacing": 8039,
      "Ġfost": 8040,
      "ĠChristmas": 8041,
      "Ġcoating": 8042,
      "Ġnone": 8043,
      "Ġlimitations": 8044,
      "Ġearn": 8045,
      "Ġstir": 8046,
      "Ġvarying": 8047,
      "Ġcorresponding": 8048,
      "Ġstunning": 8049,
      "Ġpurchasing": 8050,
      "Ġfif": 8051,
      "Ġteen": 8052,
      "Ġlanguages": 8053,
      "Ġfrost": 8054,
      "Ġcris": 8055,
      "Ġpepper": 8056,
      "Ġgenerator": 8057,
      "forest": 8058,
      "agen": 8059,
      "hma": 8060,
      "Ġenzyme": 8061,
      "Ġgolden": 8062,
      "Ġcenters": 8063,
      "Ġsuperior": 8064,
      "ria": 8065,
      "Ġanten": 8066,
      "ĠAcc": 8067,
      "Ġimper": 8068,
      "Ġbelt": 8069,
      "aria": 8070,
      "onday": 8071,
      "ĠLou": 8072,
      "Ġlungs": 8073,
      "Ġhal": 8074,
      "Ġadvis": 8075,
      "Ġbattle": 8076,
      "ĠNext": 8077,
      "Source": 8078,
      "ĠAnimal": 8079,
      "Ġpuzz": 8080,
      "otive": 8081,
      "ĠHand": 8082,
      "Ġhang": 8083,
      "Ġintervention": 8084,
      "Ġlivestock": 8085,
      "Ġoccurring": 8086,
      "Ġtoilet": 8087,
      "imer": 8088,
      "ubric": 8089,
      "Ġduct": 8090,
      "Ġindeed": 8091,
      "Ġbulb": 8092,
      "Ġions": 8093,
      "Ġutilize": 8094,
      "Ġimmun": 8095,
      "Ġdelve": 8096,
      "Ġshower": 8097,
      "........": 8098,
      "obile": 8099,
      "Ġsetup": 8100,
      "|Ċ": 8101,
      "Ġmeter": 8102,
      "Ġremed": 8103,
      "Ġcrystal": 8104,
      "ĠRich": 8105,
      "Ġtiming": 8106,
      "aren": 8107,
      "Ġpip": 8108,
      "Ġshopping": 8109,
      "Ġstations": 8110,
      "ĠDI": 8111,
      "ĠFacebook": 8112,
      "Ġstabil": 8113,
      "ĠDown": 8114,
      "Ġexamination": 8115,
      "Ġaccidents": 8116,
      "ogenic": 8117,
      "atures": 8118,
      "ĠLabor": 8119,
      "Ġhonest": 8120,
      "Ġgrams": 8121,
      "Ġfort": 8122,
      "ĠCost": 8123,
      "cm": 8124,
      "ĠAp": 8125,
      "Ġphotographs": 8126,
      "Ġpod": 8127,
      "Ġdependent": 8128,
      "LL": 8129,
      "utter": 8130,
      "ocr": 8131,
      "Ġwarmer": 8132,
      "/m": 8133,
      "Ġdesigning": 8134,
      "ĠCamp": 8135,
      "Ġdiets": 8136,
      "Post": 8137,
      "oop": 8138,
      "Ġabnormal": 8139,
      "ibration": 8140,
      "Ġexperimental": 8141,
      "Each": 8142,
      "ĠThough": 8143,
      "Ġfootball": 8144,
      "ĠSpecial": 8145,
      "Ġheater": 8146,
      "kers": 8147,
      "Ġharsh": 8148,
      "Ġimaging": 8149,
      "Ġstruggle": 8150,
      "Ġgender": 8151,
      "79": 8152,
      "Ġdefault": 8153,
      "Ġcaptiv": 8154,
      "ĠCH": 8155,
      "\":": 8156,
      "Ġreson": 8157,
      "Ġants": 8158,
      "yard": 8159,
      "Ġupdated": 8160,
      "Ġtwist": 8161,
      "ĠLead": 8162,
      "Ġships": 8163,
      "Keep": 8164,
      "Ġshaped": 8165,
      "Ġpus": 8166,
      "Ġcampaign": 8167,
      "Ġcash": 8168,
      "igenous": 8169,
      "Ġrural": 8170,
      "even": 8171,
      "Ġemit": 8172,
      "69": 8173,
      "Ġdys": 8174,
      "Ġmanif": 8175,
      "orph": 8176,
      "Ġmarkets": 8177,
      ",ĊĊ": 8178,
      "stein": 8179,
      "ĠLow": 8180,
      "ĠSpanish": 8181,
      "ptic": 8182,
      "Ġtrib": 8183,
      "Ġdelight": 8184,
      "Ġcer": 8185,
      "Ġmeth": 8186,
      "ĠAnim": 8187,
      "Ġtransplant": 8188,
      "Ġtends": 8189,
      "Ġrays": 8190,
      "Ġimplemented": 8191
    },
    "merges": [
      [
        "Ġ",
        "t"
      ],
      [
        "Ġ",
        "a"
      ],
      [
        "i",
        "n"
      ],
      [
        "h",
        "e"
      ],
      [
        "r",
        "e"
      ],
      [
        "o",
        "n"
      ],
      [
        "Ġt",
        "he"
      ],
      [
        "e",
        "r"
      ],
      [
        "Ġ",
        "s"
      ],
      [
        "a",
        "t"
      ],
      [
        "Ġ",
        "c"
      ],
      [
        "Ġ",
        "o"
      ],
      [
        "e",
        "s"
      ],
      [
        "e",
        "n"
      ],
      [
        "Ġ",
        "w"
      ],
      [
        "n",
        "d"
      ],
      [
        "in",
        "g"
      ],
      [
        "i",
        "t"
      ],
      [
        "i",
        "s"
      ],
      [
        "Ġ",
        "p"
      ],
      [
        "Ġ",
        "b"
      ],
      [
        "o",
        "r"
      ],
      [
        "Ġ",
        "f"
      ],
      [
        "o",
        "u"
      ],
      [
        "a",
        "l"
      ],
      [
        "a",
        "n"
      ],
      [
        "Ġ",
        "m"
      ],
      [
        "Ġt",
        "o"
      ],
      [
        "e",
        "d"
      ],
      [
        "a",
        "r"
      ],
      [
        "Ġo",
        "f"
      ],
      [
        "Ġ",
        "in"
      ],
      [
        "Ġa",
        "nd"
      ],
      [
        "Ġ",
        "d"
      ],
      [
        "i",
        "c"
      ],
      [
        "i",
        "on"
      ],
      [
        "l",
        "e"
      ],
      [
        "r",
        "o"
      ],
      [
        "a",
        "s"
      ],
      [
        "Ġ",
        "h"
      ],
      [
        "Ġt",
        "h"
      ],
      [
        "c",
        "t"
      ],
      [
        "Ġ",
        "e"
      ],
      [
        "en",
        "t"
      ],
      [
        "Ġ",
        "l"
      ],
      [
        "v",
        "e"
      ],
      [
        "i",
        "l"
      ],
      [
        "Ġ",
        "re"
      ],
      [
        "o",
        "m"
      ],
      [
        "u",
        "s"
      ],
      [
        "Ġ",
        "is"
      ],
      [
        ".",
        "Ċ"
      ],
      [
        "Ġ",
        "y"
      ],
      [
        "Ġ",
        "n"
      ],
      [
        "e",
        "t"
      ],
      [
        "l",
        "y"
      ],
      [
        "Ġ",
        "g"
      ],
      [
        "Ġy",
        "ou"
      ],
      [
        "o",
        "w"
      ],
      [
        "Ġb",
        "e"
      ],
      [
        "u",
        "t"
      ],
      [
        "o",
        "t"
      ],
      [
        "i",
        "m"
      ],
      [
        "Ġ",
        "T"
      ],
      [
        "i",
        "d"
      ],
      [
        "s",
        "t"
      ],
      [
        "o",
        "l"
      ],
      [
        "c",
        "e"
      ],
      [
        "Ġf",
        "or"
      ],
      [
        "i",
        "g"
      ],
      [
        "r",
        "a"
      ],
      [
        "Ġ",
        "A"
      ],
      [
        "c",
        "h"
      ],
      [
        "u",
        "r"
      ],
      [
        "at",
        "ion"
      ],
      [
        "Ġ",
        "on"
      ],
      [
        "Ġs",
        "t"
      ],
      [
        "Ġ",
        "I"
      ],
      [
        "Ġth",
        "at"
      ],
      [
        "i",
        "r"
      ],
      [
        "e",
        "l"
      ],
      [
        "v",
        "er"
      ],
      [
        "Ġ",
        "it"
      ],
      [
        "Ġa",
        "re"
      ],
      [
        "a",
        "y"
      ],
      [
        "u",
        "l"
      ],
      [
        "it",
        "h"
      ],
      [
        "Ġp",
        "ro"
      ],
      [
        "s",
        "e"
      ],
      [
        "i",
        "f"
      ],
      [
        "Ġa",
        "n"
      ],
      [
        "Ġw",
        "ith"
      ],
      [
        "a",
        "m"
      ],
      [
        "Ġ",
        "S"
      ],
      [
        "es",
        "t"
      ],
      [
        "Ġo",
        "r"
      ],
      [
        "Ġc",
        "on"
      ],
      [
        "Ġa",
        "s"
      ],
      [
        ".Ċ",
        "Ċ"
      ],
      [
        "Ġa",
        "l"
      ],
      [
        "o",
        "d"
      ],
      [
        "he",
        "r"
      ],
      [
        "a",
        "d"
      ],
      [
        "Ġ",
        "C"
      ],
      [
        "Ċ",
        "Ċ"
      ],
      [
        "k",
        "e"
      ],
      [
        "t",
        "er"
      ],
      [
        "Ġc",
        "an"
      ],
      [
        "u",
        "n"
      ],
      [
        "Ġw",
        "h"
      ],
      [
        "g",
        "e"
      ],
      [
        "u",
        "re"
      ],
      [
        "es",
        "s"
      ],
      [
        "Ġh",
        "a"
      ],
      [
        "ĠT",
        "he"
      ],
      [
        "il",
        "l"
      ],
      [
        "at",
        "e"
      ],
      [
        "Ġ",
        "W"
      ],
      [
        "Ġc",
        "om"
      ],
      [
        "u",
        "m"
      ],
      [
        "a",
        "b"
      ],
      [
        "Ġ",
        "he"
      ],
      [
        "Ġe",
        "x"
      ],
      [
        "er",
        "s"
      ],
      [
        "an",
        "t"
      ],
      [
        "o",
        "re"
      ],
      [
        "p",
        "e"
      ],
      [
        "ig",
        "h"
      ],
      [
        "q",
        "u"
      ],
      [
        "'",
        "s"
      ],
      [
        "t",
        "h"
      ],
      [
        "Ġyou",
        "r"
      ],
      [
        "i",
        "ve"
      ],
      [
        "Ġ",
        "us"
      ],
      [
        "m",
        "ent"
      ],
      [
        "i",
        "es"
      ],
      [
        "Ġ",
        "v"
      ],
      [
        "Ġd",
        "e"
      ],
      [
        "o",
        "p"
      ],
      [
        "a",
        "c"
      ],
      [
        "Ġw",
        "e"
      ],
      [
        "it",
        "y"
      ],
      [
        "a",
        "in"
      ],
      [
        "o",
        "s"
      ],
      [
        "l",
        "d"
      ],
      [
        "is",
        "t"
      ],
      [
        "ro",
        "m"
      ],
      [
        "Ġ",
        "P"
      ],
      [
        "Ġ",
        "M"
      ],
      [
        "Ġs",
        "e"
      ],
      [
        "Ġn",
        "e"
      ],
      [
        "e",
        "m"
      ],
      [
        "Ġ",
        "B"
      ],
      [
        "Ġc",
        "h"
      ],
      [
        "Ġ",
        "en"
      ],
      [
        "p",
        "p"
      ],
      [
        "Ġ",
        "("
      ],
      [
        "Ġ",
        "r"
      ],
      [
        "e",
        "ct"
      ],
      [
        "Ġa",
        "t"
      ],
      [
        "Ġs",
        "u"
      ],
      [
        "Ġs",
        "h"
      ],
      [
        "i",
        "al"
      ],
      [
        "Ġha",
        "ve"
      ],
      [
        "Ġf",
        "rom"
      ],
      [
        "i",
        "v"
      ],
      [
        "igh",
        "t"
      ],
      [
        "or",
        "t"
      ],
      [
        "Ġ",
        "le"
      ],
      [
        "Ġd",
        "o"
      ],
      [
        "n",
        "t"
      ],
      [
        "Ġ",
        "D"
      ],
      [
        "Ġp",
        "l"
      ],
      [
        "re",
        "s"
      ],
      [
        "Ġb",
        "y"
      ],
      [
        "Ġ",
        "H"
      ],
      [
        "a",
        "nd"
      ],
      [
        "Ġn",
        "ot"
      ],
      [
        "ar",
        "t"
      ],
      [
        "p",
        "er"
      ],
      [
        "o",
        "c"
      ],
      [
        "u",
        "d"
      ],
      [
        "us",
        "t"
      ],
      [
        "al",
        "l"
      ],
      [
        "Ġ",
        "F"
      ],
      [
        "om",
        "e"
      ],
      [
        "ic",
        "al"
      ],
      [
        "Ġth",
        "is"
      ],
      [
        "n",
        "s"
      ],
      [
        "id",
        "e"
      ],
      [
        "r",
        "i"
      ],
      [
        "Ġa",
        "b"
      ],
      [
        "r",
        "ou"
      ],
      [
        "ou",
        "ld"
      ],
      [
        "Ġ",
        "u"
      ],
      [
        "in",
        "e"
      ],
      [
        "ou",
        "t"
      ],
      [
        "Ġ",
        "E"
      ],
      [
        "p",
        "t"
      ],
      [
        "a",
        "ct"
      ],
      [
        "Ġm",
        "a"
      ],
      [
        "o",
        "st"
      ],
      [
        "Ġ",
        "im"
      ],
      [
        "ar",
        "d"
      ],
      [
        "o",
        "g"
      ],
      [
        "el",
        "l"
      ],
      [
        "ion",
        "s"
      ],
      [
        "d",
        "u"
      ],
      [
        "Ġw",
        "he"
      ],
      [
        "Ġw",
        "ill"
      ],
      [
        "re",
        "d"
      ],
      [
        "ic",
        "h"
      ],
      [
        "Ġ",
        "R"
      ],
      [
        "Ġw",
        "or"
      ],
      [
        "as",
        "t"
      ],
      [
        "Ġcom",
        "p"
      ],
      [
        "Ġthe",
        "ir"
      ],
      [
        "Ġthe",
        "y"
      ],
      [
        "ou",
        "r"
      ],
      [
        "f",
        "f"
      ],
      [
        "â",
        "Ģ"
      ],
      [
        "g",
        "h"
      ],
      [
        "o",
        "od"
      ],
      [
        "Ġ",
        "k"
      ],
      [
        "Ġin",
        "t"
      ],
      [
        "k",
        "ing"
      ],
      [
        "t",
        "her"
      ],
      [
        "T",
        "he"
      ],
      [
        "i",
        "z"
      ],
      [
        "a",
        "ge"
      ],
      [
        "Ġa",
        "d"
      ],
      [
        "at",
        "er"
      ],
      [
        "p",
        "l"
      ],
      [
        "Ġ",
        "N"
      ],
      [
        "Ġal",
        "l"
      ],
      [
        "Ġ",
        "L"
      ],
      [
        "h",
        "at"
      ],
      [
        "a",
        "g"
      ],
      [
        "Ġm",
        "ore"
      ],
      [
        "ab",
        "le"
      ],
      [
        "w",
        "er"
      ],
      [
        "Ġw",
        "as"
      ],
      [
        "at",
        "ed"
      ],
      [
        "en",
        "d"
      ],
      [
        "est",
        "ion"
      ],
      [
        "Q",
        "u"
      ],
      [
        "Ġ",
        "G"
      ],
      [
        "Ġcon",
        "t"
      ],
      [
        "e",
        "re"
      ],
      [
        "o",
        "o"
      ],
      [
        "Ġb",
        "ut"
      ],
      [
        "al",
        "ly"
      ],
      [
        "k",
        "s"
      ],
      [
        "ul",
        "t"
      ],
      [
        "Ġs",
        "o"
      ],
      [
        "i",
        "b"
      ],
      [
        "an",
        "s"
      ],
      [
        "Ġt",
        "e"
      ],
      [
        "i",
        "p"
      ],
      [
        "ou",
        "s"
      ],
      [
        "Ġ",
        "O"
      ],
      [
        "Ġin",
        "c"
      ],
      [
        "s",
        "o"
      ],
      [
        "in",
        "d"
      ],
      [
        "r",
        "u"
      ],
      [
        "e",
        "p"
      ],
      [
        "Ġm",
        "e"
      ],
      [
        "r",
        "y"
      ],
      [
        "Ġ",
        "j"
      ],
      [
        "i",
        "ke"
      ],
      [
        "a",
        "re"
      ],
      [
        "on",
        "g"
      ],
      [
        "c",
        "c"
      ],
      [
        "ns",
        "wer"
      ],
      [
        "Ġc",
        "l"
      ],
      [
        "an",
        "ce"
      ],
      [
        "Qu",
        "estion"
      ],
      [
        "Ġre",
        "s"
      ],
      [
        "Ġd",
        "is"
      ],
      [
        "Ġh",
        "as"
      ],
      [
        "or",
        "m"
      ],
      [
        "ĠA",
        "nswer"
      ],
      [
        "Ġwh",
        "ich"
      ],
      [
        "Ġo",
        "ut"
      ],
      [
        "Ġ",
        "\""
      ],
      [
        "Ġs",
        "p"
      ],
      [
        "ve",
        "l"
      ],
      [
        "e",
        "ar"
      ],
      [
        "Ġim",
        "p"
      ],
      [
        "ation",
        "s"
      ],
      [
        "Ġ",
        "un"
      ],
      [
        "h",
        "is"
      ],
      [
        "Ġo",
        "ther"
      ],
      [
        "i",
        "e"
      ],
      [
        "ct",
        "ion"
      ],
      [
        "on",
        "e"
      ],
      [
        "'",
        "t"
      ],
      [
        "Ġal",
        "so"
      ],
      [
        "a",
        "v"
      ],
      [
        "Ġm",
        "an"
      ],
      [
        "re",
        "at"
      ],
      [
        "Ġt",
        "im"
      ],
      [
        "ent",
        "s"
      ],
      [
        "Ġon",
        "e"
      ],
      [
        "Ġs",
        "pe"
      ],
      [
        "a",
        "us"
      ],
      [
        "ver",
        "y"
      ],
      [
        "en",
        "s"
      ],
      [
        "a",
        "ce"
      ],
      [
        "ic",
        "e"
      ],
      [
        "Ġf",
        "e"
      ],
      [
        "en",
        "ce"
      ],
      [
        "a",
        "ch"
      ],
      [
        "2",
        "0"
      ],
      [
        "Ġthe",
        "m"
      ],
      [
        "ig",
        "n"
      ],
      [
        "as",
        "e"
      ],
      [
        "as",
        "s"
      ],
      [
        "a",
        "p"
      ],
      [
        "Ġ",
        "U"
      ],
      [
        "Ġab",
        "out"
      ],
      [
        "it",
        "ion"
      ],
      [
        "ac",
        "k"
      ],
      [
        "l",
        "ow"
      ],
      [
        "or",
        "s"
      ],
      [
        "Ġp",
        "er"
      ],
      [
        "ĠI",
        "n"
      ],
      [
        "ĠI",
        "t"
      ],
      [
        "Ġl",
        "ike"
      ],
      [
        "Ġu",
        "p"
      ],
      [
        "ar",
        "y"
      ],
      [
        "Ġp",
        "re"
      ],
      [
        "Ġ",
        "ro"
      ],
      [
        "res",
        "s"
      ],
      [
        "Ġs",
        "c"
      ],
      [
        "if",
        "f"
      ],
      [
        "il",
        "d"
      ],
      [
        "Ġwhe",
        "n"
      ],
      [
        "Ġs",
        "ome"
      ],
      [
        "Ġ",
        "qu"
      ],
      [
        "n",
        "ow"
      ],
      [
        "i",
        "le"
      ],
      [
        "i",
        "re"
      ],
      [
        "Ġe",
        "v"
      ],
      [
        "u",
        "e"
      ],
      [
        "Ġ",
        "if"
      ],
      [
        "it",
        "e"
      ],
      [
        "Ġs",
        "y"
      ],
      [
        "i",
        "a"
      ],
      [
        "ou",
        "nd"
      ],
      [
        "Ġne",
        "ed"
      ],
      [
        "c",
        "es"
      ],
      [
        "Ġp",
        "art"
      ],
      [
        "Ġint",
        "o"
      ],
      [
        "o",
        "se"
      ],
      [
        "Ġus",
        "e"
      ],
      [
        "Ġc",
        "ol"
      ],
      [
        "ĠW",
        "hat"
      ],
      [
        "Ġh",
        "ow"
      ],
      [
        "Ġd",
        "iff"
      ],
      [
        "ĠT",
        "his"
      ],
      [
        "Ġhe",
        "l"
      ],
      [
        "Ġtim",
        "e"
      ],
      [
        "a",
        "k"
      ],
      [
        "r",
        "ic"
      ],
      [
        "Ġ",
        "Y"
      ],
      [
        "Ġm",
        "ay"
      ],
      [
        "Ġa",
        "pp"
      ],
      [
        "ay",
        "s"
      ],
      [
        "am",
        "e"
      ],
      [
        "f",
        "orm"
      ],
      [
        "Ġth",
        "an"
      ],
      [
        "ro",
        "w"
      ],
      [
        "Ġit",
        "s"
      ],
      [
        "a",
        "il"
      ],
      [
        "re",
        "e"
      ],
      [
        "l",
        "l"
      ],
      [
        "Ġthe",
        "re"
      ],
      [
        "b",
        "er"
      ],
      [
        "ing",
        "s"
      ],
      [
        "Ġhel",
        "p"
      ],
      [
        "Ġp",
        "e"
      ],
      [
        "Ġbe",
        "c"
      ],
      [
        "Ġt",
        "ra"
      ],
      [
        "Ġa",
        "r"
      ],
      [
        "Ġan",
        "y"
      ],
      [
        "Ġo",
        "ver"
      ],
      [
        "Ġb",
        "l"
      ],
      [
        "Ġre",
        "c"
      ],
      [
        "aus",
        "e"
      ],
      [
        "le",
        "ct"
      ],
      [
        "al",
        "s"
      ],
      [
        "Ġcom",
        "m"
      ],
      [
        "if",
        "ic"
      ],
      [
        "Ġb",
        "et"
      ],
      [
        "at",
        "ing"
      ],
      [
        "nd",
        "er"
      ],
      [
        "Ġspe",
        "c"
      ],
      [
        "Ġk",
        "now"
      ],
      [
        "Ġcon",
        "s"
      ],
      [
        "l",
        "es"
      ],
      [
        "c",
        "ess"
      ],
      [
        "Ġthe",
        "se"
      ],
      [
        "o",
        "ve"
      ],
      [
        "an",
        "g"
      ],
      [
        "Ġg",
        "o"
      ],
      [
        "Ġg",
        "et"
      ],
      [
        "ou",
        "gh"
      ],
      [
        "a",
        "ke"
      ],
      [
        "is",
        "h"
      ],
      [
        "or",
        "d"
      ],
      [
        "Ġs",
        "a"
      ],
      [
        "in",
        "t"
      ],
      [
        "h",
        "y"
      ],
      [
        ".",
        "."
      ],
      [
        "Ġw",
        "ater"
      ],
      [
        "ol",
        "og"
      ],
      [
        "Ġd",
        "es"
      ],
      [
        "Ġst",
        "ud"
      ],
      [
        "w",
        "e"
      ],
      [
        "t",
        "e"
      ],
      [
        "Ġ",
        "âĢ"
      ],
      [
        "on",
        "d"
      ],
      [
        "on",
        "s"
      ],
      [
        "rou",
        "gh"
      ],
      [
        "Ġus",
        "ed"
      ],
      [
        "Ġpro",
        "du"
      ],
      [
        "Ġo",
        "ur"
      ],
      [
        "Ġwh",
        "at"
      ],
      [
        "Ġt",
        "r"
      ],
      [
        "Ġin",
        "d"
      ],
      [
        "st",
        "em"
      ],
      [
        "ou",
        "nt"
      ],
      [
        "Ġc",
        "o"
      ],
      [
        "Ġf",
        "l"
      ],
      [
        "Ġe",
        "ff"
      ],
      [
        "u",
        "b"
      ],
      [
        "at",
        "ure"
      ],
      [
        "Ġ",
        "ra"
      ],
      [
        "al",
        "th"
      ],
      [
        "or",
        "y"
      ],
      [
        "ul",
        "ar"
      ],
      [
        "Ġy",
        "ear"
      ],
      [
        "Ġm",
        "ost"
      ],
      [
        "m",
        "s"
      ],
      [
        "ar",
        "i"
      ],
      [
        "Ġdiff",
        "ere"
      ],
      [
        "Ġof",
        "f"
      ],
      [
        "rou",
        "nd"
      ],
      [
        "oo",
        "k"
      ],
      [
        "t",
        "ing"
      ],
      [
        "n",
        "ing"
      ],
      [
        "op",
        "le"
      ],
      [
        "Ġg",
        "en"
      ],
      [
        "Ġ",
        "J"
      ],
      [
        "ic",
        "k"
      ],
      [
        "Ġma",
        "ke"
      ],
      [
        "l",
        "ud"
      ],
      [
        "c",
        "k"
      ],
      [
        "Ġa",
        "ct"
      ],
      [
        "ver",
        "s"
      ],
      [
        "n",
        "e"
      ],
      [
        "Ġwh",
        "o"
      ],
      [
        "Ġa",
        "cc"
      ],
      [
        "Ġsu",
        "ch"
      ],
      [
        "Ġu",
        "nder"
      ],
      [
        "Ġpro",
        "v"
      ],
      [
        "er",
        "v"
      ],
      [
        "Ġne",
        "w"
      ],
      [
        "Ġa",
        "m"
      ],
      [
        "i",
        "ent"
      ],
      [
        "Ġsh",
        "ould"
      ],
      [
        "Ġs",
        "m"
      ],
      [
        "Ġad",
        "d"
      ],
      [
        "x",
        "t"
      ],
      [
        "Ġa",
        "g"
      ],
      [
        "et",
        "h"
      ],
      [
        "Ġc",
        "ar"
      ],
      [
        "p",
        "le"
      ],
      [
        "Ġwe",
        "re"
      ],
      [
        "f",
        "ul"
      ],
      [
        "Ġpe",
        "ople"
      ],
      [
        "ur",
        "ing"
      ],
      [
        "il",
        "ity"
      ],
      [
        "at",
        "es"
      ],
      [
        "Ġt",
        "w"
      ],
      [
        "ĠS",
        "t"
      ],
      [
        "ot",
        "h"
      ],
      [
        "j",
        "ect"
      ],
      [
        "er",
        "g"
      ],
      [
        "Ġbe",
        "en"
      ],
      [
        "Ġe",
        "m"
      ],
      [
        "Ġw",
        "ould"
      ],
      [
        "an",
        "ge"
      ],
      [
        "ment",
        "s"
      ],
      [
        "Ġwor",
        "k"
      ],
      [
        "ir",
        "st"
      ],
      [
        "Ġth",
        "rough"
      ],
      [
        "Ġinc",
        "lud"
      ],
      [
        "Ġt",
        "y"
      ],
      [
        "os",
        "s"
      ],
      [
        "Ġd",
        "i"
      ],
      [
        "Ġsy",
        "stem"
      ],
      [
        "p",
        "h"
      ],
      [
        "Ġj",
        "ust"
      ],
      [
        "Ġp",
        "r"
      ],
      [
[...]
