{
  "version": "1.0",
  "truncation": null,
  "padding": null,
  "added_tokens": [
    {
      "id": 0,
      "content": "<|bos|>",
      "single_word": false,
      "lstrip": false,
      "rstrip": false,
      "normalized": false,
      "special": true
    },
    {
      "id": 1,
      "content": "<|user_start|>",
      "single_word": false,
      "lstrip": false,
      "rstrip": false,
      "normalized": false,
      "special": true
    },
    {
      "id": 2,
      "content": "<|user_end|>",
      "single_word": false,
      "lstrip": false,
      "rstrip": false,
      "normalized": false,
      "special": true
    },
    {
      "id": 3,
      "content": "<|assistant_start|>",
      "single_word": false,
      "lstrip": false,
      "rstrip": false,
      "normalized": false,
      "special": true
    },
    {
      "id": 4,
      "content": "<|assistant_end|>",
      "single_word": false,
      "lstrip": false,
      "rstrip": false,
      "normalized": false,
      "special": true
    },
    {
      "id": 5,
      "content": "<|python_start|>",
      "single_word": false,
      "lstrip": false,
      "rstrip": false,
      "normalized": false,
      "special": true
    },
    {
      "id": 6,
      "content": "<|python_end|>",
      "single_word": false,
      "lstrip": false,
      "rstrip": false,
      "normalized": false,
      "special": true
    },
    {
      "id": 7,
      "content": "<|output_start|>",
      "single_word": false,
      "lstrip": false,
      "rstrip": false,
      "normalized": false,
      "special": true
    },
    {
      "id": 8,
      "content": "<|output_end|>",
      "single_word": false,
      "lstrip": false,
      "rstrip": false,
      "normalized": false,
      "special": true
    }
  ],
  "normalizer": null,
  "pre_tokenizer": {
    "type": "Sequence",
    "pretokenizers": [
      {
        "type": "Split",
        "pattern": {
          "Regex": "'(?i:[sdmt]|ll|ve|re)|[^\\r\\n\\p{L}\\p{N}]?+\\p{L}+|\\p{N}{1,2}| ?[^\\s\\p{L}\\p{N}]++[\\r\\n]*|\\s*[\\r\\n]|\\s+(?!\\S)|\\s+"
        },
        "behavior": "Isolated",
        "invert": false
      },
      {
        "type": "ByteLevel",
        "add_prefix_space": false,
        "trim_offsets": true,
        "use_regex": false
      }
    ]
  },
  "post_processor": null,
  "decoder": {
    "type": "ByteLevel",
    "add_prefix_space": true,
    "trim_offsets": true,
    "use_regex": true
  },
  "model": {
    "type": "BNE",
    "dropout": null,
    "unk_token": null,
    "continuing_subword_prefix": null,
    "end_of_word_suffix": null,
    "fuse_unk": false,
    "byte_fallback": true,
    "ignore_merges": false,
    "vocab": {
      "<|bos|>": 0,
      "<|user_start|>": 1,
      "<|user_end|>": 2,
      "<|assistant_start|>": 3,
      "<|assistant_end|>": 4,
      "<|python_start|>": 5,
      "<|python_end|>": 6,
      "<|output_start|>": 7,
      "<|output_end|>": 8,
      "!": 9,
      "\"": 10,
      "#": 11,
      "$": 12,
      "%": 13,
      "&": 14,
      "'": 15,
      "(": 16,
      ")": 17,
      "*": 18,
      "+": 19,
      ",": 20,
      "-": 21,
      ".": 22,
      "/": 23,
      "0": 24,
      "1": 25,
      "2": 26,
      "3": 27,
      "4": 28,
      "5": 29,
      "6": 30,
      "7": 31,
      "8": 32,
      "9": 33,
      ":": 34,
      ";": 35,
      "<": 36,
      "=": 37,
      ">": 38,
      "?": 39,
      "@": 40,
      "A": 41,
      "B": 42,
      "C": 43,
      "D": 44,
      "E": 45,
      "F": 46,
      "G": 47,
      "H": 48,
      "I": 49,
      "J": 50,
      "K": 51,
      "L": 52,
      "M": 53,
      "N": 54,
      "O": 55,
      "P": 56,
      "Q": 57,
      "R": 58,
      "S": 59,
      "T": 60,
      "U": 61,
      "V": 62,
      "W": 63,
      "X": 64,
      "Y": 65,
      "Z": 66,
      "[": 67,
      "\\": 68,
      "]": 69,
      "^": 70,
      "_": 71,
      "`": 72,
      "a": 73,
      "b": 74,
      "c": 75,
      "d": 76,
      "e": 77,
      "f": 78,
      "g": 79,
      "h": 80,
      "i": 81,
      "j": 82,
      "k": 83,
      "l": 84,
      "m": 85,
      "n": 86,
      "o": 87,
      "p": 88,
      "q": 89,
      "r": 90,
      "s": 91,
      "t": 92,
      "u": 93,
      "v": 94,
      "w": 95,
      "x": 96,
      "y": 97,
      "z": 98,
      "{": 99,
      "|": 100,
      "}": 101,
      "~": 102,
      "¡": 103,
      "¢": 104,
      "£": 105,
      "¤": 106,
      "¥": 107,
      "¦": 108,
      "§": 109,
      "¨": 110,
      "©": 111,
      "ª": 112,
      "«": 113,
      "¬": 114,
      "®": 115,
      "¯": 116,
      "°": 117,
      "±": 118,
      "²": 119,
      "³": 120,
      "´": 121,
      "µ": 122,
      "¶": 123,
      "·": 124,
      "¸": 125,
      "¹": 126,
      "º": 127,
      "»": 128,
      "¼": 129,
      "½": 130,
      "¾": 131,
      "¿": 132,
      "À": 133,
      "Á": 134,
      "Â": 135,
      "Ã": 136,
      "Ä": 137,
      "Å": 138,
      "Æ": 139,
      "Ç": 140,
      "È": 141,
      "É": 142,
      "Ê": 143,
      "Ë": 144,
      "Ì": 145,
      "Í": 146,
      "Î": 147,
      "Ï": 148,
      "Ð": 149,
      "Ñ": 150,
      "Ò": 151,
      "Ó": 152,
      "Ô": 153,
      "Õ": 154,
      "Ö": 155,
      "×": 156,
      "Ø": 157,
      "Ù": 158,
      "Ú": 159,
      "Û": 160,
      "Ü": 161,
      "Ý": 162,
      "Þ": 163,
      "ß": 164,
      "à": 165,
      "á": 166,
      "â": 167,
      "ã": 168,
      "ä": 169,
      "å": 170,
      "æ": 171,
      "ç": 172,
      "è": 173,
      "é": 174,
      "ê": 175,
      "ë": 176,
      "ì": 177,
      "í": 178,
      "î": 179,
      "ï": 180,
      "ð": 181,
      "ñ": 182,
      "ò": 183,
      "ó": 184,
      "ô": 185,
      "õ": 186,
      "ö": 187,
      "÷": 188,
      "ø": 189,
      "ù": 190,
      "ú": 191,
      "û": 192,
      "ü": 193,
      "ý": 194,
      "þ": 195,
      "ÿ": 196,
      "Ā": 197,
      "ā": 198,
      "Ă": 199,
      "ă": 200,
      "Ą": 201,
      "ą": 202,
      "Ć": 203,
      "ć": 204,
      "Ĉ": 205,
      "ĉ": 206,
      "Ċ": 207,
      "ċ": 208,
      "Č": 209,
      "č": 210,
      "Ď": 211,
      "ď": 212,
      "Đ": 213,
      "đ": 214,
      "Ē": 215,
      "ē": 216,
      "Ĕ": 217,
      "ĕ": 218,
      "Ė": 219,
      "ė": 220,
      "Ę": 221,
      "ę": 222,
      "Ě": 223,
      "ě": 224,
      "Ĝ": 225,
      "ĝ": 226,
      "Ğ": 227,
      "ğ": 228,
      "Ġ": 229,
      "ġ": 230,
      "Ģ": 231,
      "ģ": 232,
      "Ĥ": 233,
      "ĥ": 234,
      "Ħ": 235,
      "ħ": 236,
      "Ĩ": 237,
      "ĩ": 238,
      "Ī": 239,
      "ī": 240,
      "Ĭ": 241,
      "ĭ": 242,
      "Į": 243,
      "į": 244,
      "İ": 245,
      "ı": 246,
      "Ĳ": 247,
      "ĳ": 248,
      "Ĵ": 249,
      "ĵ": 250,
      "Ķ": 251,
      "ķ": 252,
      "ĸ": 253,
      "Ĺ": 254,
      "ĺ": 255,
      "Ļ": 256,
      "ļ": 257,
      "Ľ": 258,
      "ľ": 259,
      "Ŀ": 260,
      "ŀ": 261,
      "Ł": 262,
      "ł": 263,
      "Ń": 264,
      "Ġthe": 265,
      "Ġa": 266,
      "in": 267,
      "er": 268,
      "Ġt": 269,
      "tion": 270,
      "re": 271,
      "Ġo": 272,
      "Ġand": 273,
      "Ġs": 274,
      "Ġc": 275,
      "en": 276,
      "es": 277,
      "at": 278,
      "Ġw": 279,
      "Ġyou": 280,
      "ing": 281,
      "an": 282,
      "is": 283,
      "Ġp": 284,
      "it": 285,
      "or": 286,
      "Ġb": 287,
      "Ġf": 288,
      "al": 289,
      "ed": 290,
      "Ġm": 291,
      "Ġto": 292,
      "on": 293,
      "ar": 294,
      "Ġof": 295,
      "Ġin": 296,
      "Ġd": 297,
      "ro": 298,
      "ic": 299,
      "Ġh": 300,
      "le": 301,
      "as": 302,
      "Ġth": 303,
      "ou": 304,
      "ent": 305,
      "Ġe": 306,
      "Ġl": 307,
      "ĠTh": 308,
      "il": 309,
      "el": 310,
      "Ġre": 311,
      "om": 312,
      "us": 313,
      "Ġis": 314,
      "Ġwith": 315,
      ".Ċ": 316,
      "et": 317,
      "Ġn": 318,
      "ac": 319,
      "ec": 320,
      "Ġg": 321,
      "ve": 322,
      "ight": 323,
      "ow": 324,
      "ly": 325,
      "im": 326,
      "id": 327,
      "th": 328,
      "ol": 329,
      "ĠAnswer": 330,
      "Ġfor": 331,
      "st": 332,
      "ut": 333,
      "ur": 334,
      "Ġbe": 335,
      "ation": 336,
      "Ġon": 337,
      "Ġst": 338,
      "un": 339,
      "ĠI": 340,
      "Ġthat": 341,
      "ir": 342,
      "Ġwh": 343,
      "ot": 344,
      "ver": 345,
      "ay": 346,
      "Ġit": 347,
      "Ġare": 348,
      "am": 349,
      "ul": 350,
      "Ġhave": 351,
      "ce": 352,
      "Ġpro": 353,
      "ĠA": 354,
      "Ġfrom": 355,
      "ch": 356,
      "ad": 357,
      "if": 358,
      "Ġan": 359,
      "ter": 360,
      "ĠS": 361,
      "Ġor": 362,
      "Ġas": 363,
      "Ġcon": 364,
      ".ĊĊ": 365,
      "Ġal": 366,
      "od": 367,
      "se": 368,
      "Question": 369,
      "ĠC": 370,
      "ig": 371,
      "ts": 372,
      "ĊĊ": 373,
      "ould": 374,
      "Ġcan": 375,
      "ers": 376,
      "em": 377,
      "ke": 378,
      "ab": 379,
      "ag": 380,
      "ain": 381,
      "ess": 382,
      "Ġwill": 383,
      "ĠWh": 384,
      "ure": 385,
      "Ġcomp": 386,
      "um": 387,
      "Ġabout": 388,
      "Ġex": 389,
      "ore": 390,
      "Ġch": 391,
      "qu": 392,
      "Ġr": 393,
      "'s": 394,
      "ate": 395,
      "Ġyour": 396,
      "Ġv": 397,
      "op": 398,
      "Ġus": 399,
      "ct": 400,
      "ies": 401,
      "ap": 402,
      "ity": 403,
      "ĠThe": 404,
      "The": 405,
      "Ġsh": 406,
      "os": 407,
      "ive": 408,
      "ĠP": 409,
      "ĠM": 410,
      "up": 411,
      "ant": 412,
      "and": 413,
      "Ġimp": 414,
      "ĠB": 415,
      "iv": 416,
      "Ġen": 417,
      "Ġ(": 418,
      "Ġthrough": 419,
      "est": 420,
      "Ġwhich": 421,
      "ment": 422,
      "Ġinclud": 423,
      "Ġat": 424,
      "Ġsp": 425,
      "Ġknow": 426,
      "Ġne": 427,
      "ial": 428,
      "Ġalso": 429,
      "ion": 430,
      "ist": 431,
      "Ġle": 432,
      "Ġdo": 433,
      "ere": 434,
      "ect": 435,
      "Ġdiffer": 436,
      "ook": 437,
      "ome": 438,
      "Ġapp": 439,
      "Ġde": 440,
      "Ġyear": 441,
      "ĠD": 442,
      "Ġtr": 443,
      "Ġpl": 444,
      "Ġwe": 445,
      "Ġby": 446,
      "res": 447,
      "ĠH": 448,
      "Ġse": 449,
      "uc": 450,
      "Ġunder": 451,
      "oc": 452,
      "Ġother": 453,
      "all": 454,
      "Ġnot": 455,
      "ip": 456,
      "ust": 457,
      "ĠF": 458,
      "Ġhe": 459,
      "Ġbetween": 460,
      "ell": 461,
      "Ġthis": 462,
      "ical": 463,
      "Ġpeople": 464,
      "ort": 465,
      "Ġwork": 466,
      "Ġbecause": 467,
      "ĠT": 468,
      "ib": 469,
      "art": 470,
      "Ġsystem": 471,
      "oun": 472,
      "Ġinto": 473,
      "ĠE": 474,
      "ine": 475,
      "ost": 476,
      "og": 477,
      "per": 478,
      "ard": 479,
      "Ġlike": 480,
      "ak": 481,
      "Ġtime": 482,
      "ide": 483,
      "our": 484,
      "ge": 485,
      "form": 486,
      "ĠR": 487,
      "Ġhelp": 488,
      "act": 489,
      "âĢ": 490,
      "Ġthey": 491,
      "Ġtheir": 492,
      "ff": 493,
      "ood": 494,
      "iz": 495,
      "Ġcomm": 496,
      "ill": 497,
      "Ġsu": 498,
      "ast": 499,
      "are": 500,
      "av": 501,
      "ater": 502,
      "ach": 503,
      "ĠW": 504,
      "Ġad": 505,
      "ĠN": 506,
      "round": 507,
      "Ġstud": 508,
      "Ġdevelop": 509,
      "Ġhigh": 510,
      "able": 511,
      "Ġall": 512,
      "ĠL": 513,
      "ep": 514,
      "ake": 515,
      "age": 516,
      "Ġmore": 517,
      "Ġwas": 518,
      "ated": 519,
      "end": 520,
      "ough": 521,
      "Ġacc": 522,
      "Ġenvironment": 523,
      "ĠG": 524,
      "Ġcont": 525,
      "Ġtechn": 526,
      "Ġbut": 527,
      "pl": 528,
      "ack": 529,
      "ally": 530,
      "Ġso": 531,
      "ious": 532,
      "ans": 533,
      "ind": 534,
      "ence": 535,
      "ĠO": 536,
      "ition": 537,
      "ĠIn": 538,
      "Ġj": 539,
      "Ġcl": 540,
      "ong": 541,
      "Ġres": 542,
      "Ġdesign": 543,
      "ance": 544,
      "Ġdis": 545,
      "Ġhas": 546,
      "Ġresearch": 547,
      "Ġun": 548,
      "ire": 549,
      "Ġout": 550,
      "Ġ\"": 551,
      "Ġtyp": 552,
      "Ġme": 553,
      "ations": 554,
      "ens": 555,
      "oth": 556,
      "ents": 557,
      "Ġmany": 558,
      "Ġincreas": 559,
      "Ġro": 560,
      "Ġpre": 561,
      "'t": 562,
      "Ġhealth": 563,
      "ult": 564,
      "one": 565,
      "her": 566,
      "reat": 567,
      "Ġone": 568,
      "Ġfe": 569,
      "Ġworld": 570,
      "ely": 571,
      "very": 572,
      "ace": 573,
      "ue": 574,
      "Ġindividual": 575,
      "Ġup": 576,
      "ry": 577,
      "Ġtwo": 578,
      "20": 579,
      "Ġthem": 580,
      "ice": 581,
      "ass": 582,
      "Ġfollow": 583,
      "ie": 584,
      "ĠU": 585,
      "ors": 586,
      "Ġproblem": 587,
      "Ġper": 588,
      "Ġtemperature": 589,
      "Ġfirst": 590,
      "ary": 591,
      "ose": 592,
      "ish": 593,
      "ress": 594,
      "Ġenergy": 595,
      "Ġpr": 596,
      "ild": 597,
      "Ġwhen": 598,
      "Ġqu": 599,
      "ĠIt": 600,
      "Ġsome": 601,
      "Ġfl": 602,
      "ile": 603,
      "tions": 604,
      "Ġprocess": 605,
      "Ġcaus": 606,
      "Ġev": 607,
      "Ġelectr": 608,
      "Ġif": 609,
      "ia": 610,
      "Ġsign": 611,
      "Ġsc": 612,
      "ail": 613,
      "ame": 614,
      "Ġgrow": 615,
      "ord": 616,
      "Ġconsider": 617,
      "Ġneed": 618,
      "duc": 619,
      "ays": 620,
      "ting": 621,
      "ase": 622,
      "ĠWhat": 623,
      "Ġuse": 624,
      "ite": 625,
      "Ġcol": 626,
      "Ġhow": 627,
      "ĠThis": 628,
      "ren": 629,
      "ĠY": 630,
      "Ġlearn": 631,
      "Ġsupp": 632,
      "ound": 633,
      "Ġmay": 634,
      "ick": 635,
      "Ġte": 636,
      "Ġmuch": 637,
      "Ġsomething": 638,
      "Ġthan": 639,
      "Ġits": 640,
      "Ġbl": 641,
      "Ġk": 642,
      "ang": 643,
      "ber": 644,
      "Ġar": 645,
      "Ġthere": 646,
      "ra": 647,
      "ology": 648,
      "Ġover": 649,
      "Ġpossib": 650,
      "Ġbenefit": 651,
      "Ġimportant": 652,
      "ĠâĢĵ": 653,
      "ri": 654,
      "Ġany": 655,
      "Ġrec": 656,
      "ating": 657,
      "Ġprogram": 658,
      "ub": 659,
      "les": 660,
      "ree": 661,
      "Ġgener": 662,
      "Ġsmall": 663,
      "ific": 664,
      "ks": 665,
      "Ġspec": 666,
      "Ġgo": 667,
      "Ġab": 668,
      "Ġthese": 669,
      "enc": 670,
      "Ġget": 671,
      "Ġmethod": 672,
      "Ġafter": 673,
      "Ġpart": 674,
      "ings": 675,
      "ond": 676,
      "Ġsa": 677,
      "Ġop": 678,
      "Ġco": 679,
      "Ġwater": 680,
      "ĠUniversity": 681,
      "ru": 682,
      "te": 683,
      "Ġph": 684,
      "Ġdown": 685,
      "Ġinter": 686,
      "Ġused": 687,
      "Ġour": 688,
      "Wh": 689,
      "ten": 690,
      "Ġwhat": 691,
      "Ġexample": 692,
      "ons": 693,
      "ower": 694,
      "Ġbefore": 695,
      "als": 696,
      "Ġeff": 697,
      "Ġown": 698,
      "Ġduring": 699,
      "Ġschool": 700,
      "ory": 701,
      "Ġlevel": 702,
      "ular": 703,
      "Ġespecially": 704,
      "Ġmost": 705,
      "Ġmo": 706,
      "Ġoff": 707,
      "erv": 708,
      "Ġsymptoms": 709,
      "ĠJ": 710,
      "ll": 711,
      "Ġbr": 712,
      "Ġmake": 713,
      "ĠHowever": 714,
      "Ġpotential": 715,
      "Ġkeep": 716,
      "Ġwho": 717,
      "Ġexperi": 718,
      "Ġlife": 719,
      "Ġnew": 720,
      "Ġsuch": 721,
      "Ġprov": 722,
      "Ġam": 723,
      "Ġmaterial": 724,
      "ient": 725,
      "Ġbody": 726,
      "ous": 727,
      "Ġshould": 728,
      "ud": 729,
      "Ġadd": 730,
      "Ġgr": 731,
      "Ġag": 732,
      "Th": 733,
      "Ġcar": 734,
      "ear": 735,
      "ric": 736,
      "ink": 737,
      "Ġmade": 738,
      "oint": 739,
      "ys": 740,
      "duce": 741,
      "ful": 742,
      "erm": 743,
      "ates": 744,
      "Ġperson": 745,
      "Ġac": 746,
      "Ġwere": 747,
      "xt": 748,
      "ĠSt": 749,
      "ility": 750,
      "ne": 751,
      "Ġnatural": 752,
      "Ġcurrent": 753,
      "Ġbeen": 754,
      "Ġem": 755,
      "Ġwould": 756,
      "Ġact": 757,
      "ount": 758,
      "Ġdata": 759,
      "ark": 760,
      "Ġunderstand": 761,
      "anc": 762,
      "Ġfunction": 763,
      "Ġcondition": 764,
      "Ġjust": 765,
      "ĠAmeric": 766,
      "Ġno": 767,
      "ug": 768,
      "Ġrequire": 769,
      "Ġlittle": 770,
      "Ġdi": 771,
      "ics": 772,
      "Ġonly": 773,
      "ĠAn": 774,
      "10": 775,
      "Ġinformation": 776,
      "rop": 777,
      "ities": 778,
      "ĠCh": 779,
      "duct": 780,
      "ange": 781,
      "ĠK": 782,
      "Ġorgan": 783,
      "out": 784,
      "Ġcom": 785,
      "aking": 786,
      "Ġsur": 787,
      "ograph": 788,
      "ield": 789,
      "In": 790,
      "ĠV": 791,
      "Ġwell": 792,
      "ures": 793,
      "Ġavailable": 794,
      "Ġvari": 795,
      "ise": 796,
      "Ġnumber": 797,
      "ĠThese": 798,
      "Ġdoes": 799,
      "ants": 800,
      "Ġmy": 801,
      "old": 802,
      "Ġbetter": 803,
      "Ġreg": 804,
      "lic": 805,
      "Ġrep": 806,
      "Ġrel": 807,
      "Ġessential": 808,
      "Ġman": 809,
      "Ġdifficult": 810,
      "...": 811,
      "tain": 812,
      "vers": 813,
      "Ġdifferent": 814,
      "ments": 815,
      "Ġbuild": 816,
      "Ġexp": 817,
      "Ġrem": 818,
      "arm": 819,
      "ob": 820,
      "ath": 821,
      "olution": 822,
      "Ġcre": 823,
      "Ġwhere": 824,
      "?Ċ": 825,
      "Ġoccur": 826,
      "urn": 827,
      "Ġlong": 828,
      "19": 829,
      "ually": 830,
      "Ġind": 831,
      "Ġ-": 832,
      "ects": 833,
      "get": 834,
      "Ġform": 835,
      "Ġway": 836,
      "ize": 837,
      "Ġins": 838,
      "Ġdec": 839,
      "Ġcr": 840,
      "Ġmod": 841,
      "Ġhapp": 842,
      "Ġim": 843,
      "der": 844,
      "Ġcharacter": 845,
      "Ġcons": 846,
      "pt": 847,
      "ross": 848,
      "Ġrecommend": 849,
      "Ġtrans": 850,
      "Ġfood": 851,
      "Ġsim": 852,
      "ft": 853,
      "ative": 854,
      "Ġbehavi": 855,
      "Ġhuman": 856,
      "Ġusing": 857,
      "ĠIf": 858,
      "Ġfamily": 859,
      "Ġcould": 860,
      "Ġob": 861,
      "Ġgroup": 862,
      "Ġcontrol": 863,
      "Ġsuccess": 864,
      "ph": 865,
      "Ġthen": 866,
      "fer": 867,
      "Ġinvolv": 868,
      "Ġchildren": 869,
      "Ġlarge": 870,
      "Ġevery": 871,
      "Ġeven": 872,
      "Ġinst": 873,
      "Ġlook": 874,
      "ions": 875,
      "Ġdr": 876,
      "Ġstr": 877,
      "lect": 878,
      "atter": 879,
      "Ġdet": 880,
      "Ġmain": 881,
      "ĠThey": 882,
      "Ġass": 883,
      "Ġproduc": 884,
      "Ġdescrib": 885,
      "ov": 886,
      "ique": 887,
      "ual": 888,
      "Ġcalled": 889,
      "iss": 890,
      "Ġlikely": 891,
      "ically": 892,
      "its": 893,
      "Ġinf": 894,
      "Ġclean": 895,
      "Ġvery": 896,
      "'re": 897,
      "Ġsee": 898,
      "Ġbusiness": 899,
      "ich": 900,
      "ian": 901,
      "Ġprofession": 902,
      "Ġidentif": 903,
      "aw": 904,
      "Ġlight": 905,
      "ines": 906,
      "ning": 907,
      "Ġissues": 908,
      "ove": 909,
      "Ġsk": 910,
      "ĠYou": 911,
      "Ġavoid": 912,
      "Ġsec": 913,
      "cl": 914,
      "Ġback": 915,
      "Ġsub": 916,
      "Ġmajor": 917,
      "air": 918,
      "ject": 919,
      "Ġbas": 920,
      "Ġext": 921,
      "ith": 922,
      "ness": 923,
      "Ġint": 924,
      "?ĊĊ": 925,
      "Ġmin": 926,
      "Ġdon": 927,
      "Ġgood": 928,
      "orm": 929,
      "Ġeach": 930,
      "ple": 931,
      "00": 932,
      "ock": 933,
      "Ġprevent": 934,
      "Ġanother": 935,
      "Ġbecome": 936,
      "Ġyears": 937,
      "elf": 938,
      "Ġshow": 939,
      "Ġdog": 940,
      "Ġfind": 941,
      "ices": 942,
      "Ġvarious": 943,
      "Ġset": 944,
      "oy": 945,
      "ied": 946,
      "Ġalways": 947,
      "Ġcells": 948,
      "ety": 949,
      "ources": 950,
      "Ġwhile": 951,
      "Ġhad": 952,
      "akes": 953,
      "red": 954,
      "he": 955,
      "Ġdisc": 956,
      "Ġear": 957,
      "Ġgl": 958,
      ").": 959,
      "row": 960,
      "ont": 961,
      "work": 962,
      "ands": 963,
      "Ġtake": 964,
      "Ġair": 965,
      "ven": 966,
      "Ġmed": 967,
      "Ġstruct": 968,
      "Ġhis": 969,
      "Ġeducation": 970,
      "Ġwant": 971,
      "Ġfound": 972,
      "Ġfocus": 973,
      "ometimes": 974,
      "Ġpres": 975,
      "Ġauthor": 976,
      "Ġart": 977,
      "ists": 978,
      "ages": 979,
      "gg": 980,
      "ality": 981,
      "ĠAs": 982,
      "ern": 983,
      "els": 984,
      "Ġsignificant": 985,
      "Ġpo": 986,
      "Ġy": 987,
      "Ġbeing": 988,
      "Ġbre": 989,
      "Ġensure": 990,
      "Ġeas": 991,
      "Ġvehic": 992,
      "Ġseveral": 993,
      "Ġatt": 994,
      "Ġcirc": 995,
      "Ġdisease": 996,
      "Ġaround": 997,
      "Ġdirect": 998,
      "ix": 999,
      "ins": 1000,
      "),": 1001,
      "Ġanimals": 1002,
      "Ġher": 1003,
      "ible": 1004,
      "Ġtimes": 1005,
      "Ġrisk": 1006,
      "io": 1007,
      "Ġkey": 1008,
      "Ġresp": 1009,
      "ĠWe": 1010,
      "Ġsl": 1011,
      "ement": 1012,
      "Ġallow": 1013,
      "Ġnecessary": 1014,
      "Ġfurther": 1015,
      "atch": 1016,
      "ribut": 1017,
      "Ġmonth": 1018,
      "rit": 1019,
      "Ġbo": 1020,
      "Ġmanufactur": 1021,
      "Ġcomple": 1022,
      "ted": 1023,
      "ew": 1024,
      "Ġbel": 1025,
      "Ġloc": 1026,
      "Ġengine": 1027,
      "Ġstart": 1028,
      "ium": 1029,
      "ives": 1030,
      "Ġdep": 1031,
      "Ġcor": 1032,
      "Ġalready": 1033,
      "Ġsame": 1034,
      "Ġestablish": 1035,
      "Ġmechan": 1036,
      "Ġdist": 1037,
      "Ġexpl": 1038,
      "Ġprotect": 1039,
      "ized": 1040,
      "ets": 1041,
      "olog": 1042,
      "Ġsurface": 1043,
      "Ġoften": 1044,
      "view": 1045,
      "ection": 1046,
      "Ġval": 1047,
      "Ġcertain": 1048,
      "ger": 1049,
      "Ġboth": 1050,
      "Ġthose": 1051,
      "Ġlead": 1052,
      "Ġpower": 1053,
      "ational": 1054,
      "Ġknowledge": 1055,
      "Ġbird": 1056,
      "Ġadv": 1057,
      "ĠâĢ": 1058,
      ".\"": 1059,
      "Ġpartic": 1060,
      "Ġchalleng": 1061,
      "Ġimprove": 1062,
      "Ġend": 1063,
      "ward": 1064,
      "Ġanswer": 1065,
      "Ġthemselves": 1066,
      "Ġent": 1067,
      "Ġpressure": 1068,
      "Ġbest": 1069,
      "rom": 1070,
      ":Ċ": 1071,
      "Ġtogether": 1072,
      "Ġfact": 1073,
      "ather": 1074,
      "Ġright": 1075,
      "oss": 1076,
      "Ġuntil": 1077,
      "Ġtoo": 1078,
      "Ġopportun": 1079,
      "Ġpar": 1080,
      "Ġvis": 1081,
      "Ġread": 1082,
      "Ġsince": 1083,
      "ism": 1084,
      "ale": 1085,
      "Ġprovid": 1086,
      "Ġsw": 1087,
      "Ġaway": 1088,
      "What": 1089,
      "Ġmet": 1090,
      "tern": 1091,
      "Ġplant": 1092,
      "ull": 1093,
      "Ġgu": 1094,
      "ats": 1095,
      "ature": 1096,
      "Ġcommon": 1097,
      "ty": 1098,
      "Ġless": 1099,
      "Ġcare": 1100,
      "Ġcheck": 1101,
      "Ġpop": 1102,
      "Ġeffect": 1103,
      "Ġcap": 1104,
      "ience": 1105,
      "reen": 1106,
      "Ġtechniques": 1107,
      "Ġplay": 1108,
      "ĠPro": 1109,
      "Ġfr": 1110,
      "ign": 1111,
      "ĠFor": 1112,
      "iciency": 1113,
      "iving": 1114,
      "Ġaffect": 1115,
      "str": 1116,
      "Ġhaving": 1117,
      "Ġresults": 1118,
      "Ġthink": 1119,
      "ash": 1120,
      "Ġhome": 1121,
      "ax": 1122,
      "Ġday": 1123,
      "Ġgarden": 1124,
      "Ġsol": 1125,
      "ier": 1126,
      "ld": 1127,
      "ave": 1128,
      "Ġperiod": 1129,
      "Ġothers": 1130,
      "Ġcourse": 1131,
      "ef": 1132,
      "-b": 1133,
      "ains": 1134,
      "gr": 1135,
      "Ġsaid": 1136,
      "ĠHe": 1137,
      "Ġ'": 1138,
      "Ġtreatment": 1139,
      "Ġchanges": 1140,
      "ases": 1141,
      "How": 1142,
      "Ġpatients": 1143,
      "Ġsocial": 1144,
      "Ġassociated": 1145,
      "eed": 1146,
      "ĠEn": 1147,
      "Ġstrength": 1148,
      "Ġinv": 1149,
      "Ġdef": 1150,
      "ited": 1151,
      "ugh": 1152,
      "Ġcustom": 1153,
      "Ġapproach": 1154,
      "ĠTo": 1155,
      "ason": 1156,
      "Ġmeasure": 1157,
      "Ġhand": 1158,
      "Ġsimilar": 1159,
      "Ġcommun": 1160,
      "Ġgen": 1161,
      "lec": 1162,
      "Ġproper": 1163,
      "Ġspecies": 1164,
      "-s": 1165,
      "âĢĻs": 1166,
      "ily": 1167,
      "ĠAl": 1168,
      "Ġfun": 1169,
      "over": 1170,
      "Ġeconom": 1171,
      "Ġrelationship": 1172,
      "Ġpositive": 1173,
      "ids": 1174,
      "Ġeye": 1175,
      "Ġclear": 1176,
      "any": 1177,
      "Ġmight": 1178,
      "Ġdraw": 1179,
      "Ġprobably": 1180,
      "ush": 1181,
      "Ġfriend": 1182,
      "12": 1183,
      "Ġmultiple": 1184,
      "Ġequ": 1185,
      "king": 1186,
      "Ġfuture": 1187,
      "ots": 1188,
      "cent": 1189,
      "Ġnow": 1190,
      "Ġprovide": 1191,
      "Ġplan": 1192,
      "erg": 1193,
      "ade": 1194,
      ",\"": 1195,
      "Ġstudy": 1196,
      "Ġsaf": 1197,
      "Ġserv": 1198,
      "Ġactiv": 1199,
      "Ġtraditional": 1200,
      "Ġdamage": 1201,
      "Ġfew": 1202,
      "Ġfrequ": 1203,
      "This": 1204,
      "Ġmarket": 1205,
      "day": 1206,
      "Ġpaper": 1207,
      "ability": 1208,
      "Ġaccording": 1209,
      "ences": 1210,
      "Ġpol": 1211,
      "Ġhouse": 1212,
      "ym": 1213,
      "Ġcho": 1214,
      "Ġbegin": 1215,
      "Ġtop": 1216,
      "Ġlength": 1217,
      "Ġagainst": 1218,
      "Ġpur": 1219,
      "Ġstudents": 1220,
      "ead": 1221,
      "Ġcent": 1222,
      "Ġgreat": 1223,
      "Ġwithout": 1224,
      "yn": 1225,
      "ump": 1226,
      "Ġdid": 1227,
      "Ġclass": 1228,
      "ĠUn": 1229,
      "Ġcreat": 1230,
      "Ġpublished": 1231,
      "Ġpublic": 1232,
      "Ġpiec": 1233,
      "Ġgiven": 1234,
      "Ġstill": 1235,
      "An": 1236,
      "Ġchemical": 1237,
      "Ġplants": 1238,
      "br": 1239,
      "ars": 1240,
      "Ġconnect": 1241,
      "Ġbacteria": 1242,
      "Ġview": 1243,
      "Ġphysical": 1244,
      "Ġmaking": 1245,
      "---------": 1246,
      "Ġecosystem": 1247,
      "Ġachie": 1248,
      "Ġsingle": 1249,
      "Ġincluding": 1250,
      "Ġshe": 1251,
      "Ġsm": 1252,
      "inal": 1253,
      "Ġdiscuss": 1254,
      "Ġmentioned": 1255,
      "If": 1256,
      "Ġchange": 1257,
      "Ġbi": 1258,
      "ĠEurope": 1259,
      "line": 1260,
      "Ġmicro": 1261,
      "Ġstandard": 1262,
      "Ġweek": 1263,
      "aining": 1264,
      ":ĊĊ": 1265,
      "Ġpain": 1266,
      "Ġtext": 1267,
      "Ġsource": 1268,
      "Ġsummer": 1269,
      "ĠBut": 1270,
      "Ġtest": 1271,
      "Ġclimate": 1272,
      "ĠThere": 1273,
      "orth": 1274,
      "Ġcreate": 1275,
      "ulation": 1276,
      "ared": 1277,
      "Ġanimal": 1278,
      "Ġlanguage": 1279,
      "Ġskills": 1280,
      "Ġoxygen": 1281,
      "Ġsoftware": 1282,
      "etic": 1283,
      "Ġtype": 1284,
      "ĠAnd": 1285,
      "It": 1286,
      "Ġpattern": 1287,
      "Ġref": 1288,
      "Ġknown": 1289,
      "ering": 1290,
      "Ġdigital": 1291,
      "crip": 1292,
      "Ġser": 1293,
      "Ġparen": 1294,
      "Ġeither": 1295,
      "less": 1296,
      "com": 1297,
      "agn": 1298,
      "ecause": 1299,
      "Ġhy": 1300,
      "Ġide": 1301,
      "Ġrequires": 1302,
      "Ġingredients": 1303,
      "-f": 1304,
      "ccording": 1305,
      "Ġquestion": 1306,
      "Ġmem": 1307,
      "ying": 1308,
      "ately": 1309,
      "Ġcarbon": 1310,
      "bs": 1311,
      "Ġpract": 1312,
      "to": 1313,
      "15": 1314,
      "Ġsupport": 1315,
      "ips": 1316,
      "ape": 1317,
      "Ġbeautiful": 1318,
      "ex": 1319,
      "ner": 1320,
      "ĠCalifornia": 1321,
      "ĠCom": 1322,
      "Ġwhether": 1323,
      "Ġenjoy": 1324,
      "Ġcause": 1325,
      "Ġrun": 1326,
      "Ġanalysis": 1327,
      "ĠSp": 1328,
      "Ġveget": 1329,
      "Ġhours": 1330,
      "uring": 1331,
      "Ġcomputer": 1332,
      "ters": 1333,
      "Ġthough": 1334,
      "ues": 1335,
      "Ġfeel": 1336,
      "Ġthree": 1337,
      "ĠResearch": 1338,
      "ased": 1339,
      "'ll": 1340,
      "Ġposition": 1341,
      "Ġsure": 1342,
      "ert": 1343,
      "eg": 1344,
      "wh": 1345,
      "ively": 1346,
      "Ġperform": 1347,
      "amp": 1348,
      "ĠHow": 1349,
      "ator": 1350,
      "ever": 1351,
      "Ġthings": 1352,
      "outh": 1353,
      "30": 1354,
      "ved": 1355,
      "Ġcal": 1356,
      "Ġhistory": 1357,
      "Ġindustry": 1358,
      "18": 1359,
      "Ġcombin": 1360,
      "erc": 1361,
      "ĠAd": 1362,
      "Ġmust": 1363,
      "Ġdel": 1364,
      "ustr": 1365,
      "tim": 1366,
      "Ġfeatures": 1367,
      "Ġhard": 1368,
      "ĠWhen": 1369,
      "Ġarea": 1370,
      "Ġplace": 1371,
      "ĠSchool": 1372,
      "iver": 1373,
      "Ġcost": 1374,
      "Ġlow": 1375,
      "Ġele": 1376,
      "Ġexc": 1377,
      "Ġincorpor": 1378,
      "Ġtools": 1379,
      "ĠAr": 1380,
      "ural": 1381,
      "ĠSo": 1382,
      "Ġbu": 1383,
      "Ġleaves": 1384,
      "Ġsustain": 1385,
      "Ġphot": 1386,
      "az": 1387,
      "ental": 1388,
      "Ġdev": 1389,
      "Ġarticle": 1390,
      "ently": 1391,
      "Ġcontin": 1392,
      "Ġcountries": 1393,
      "Ġwithin": 1394,
      "pos": 1395,
      "Ġwhy": 1396,
      "Ġdes": 1397,
      "Ġhumans": 1398,
      "Ġquestions": 1399,
      "Ġstrateg": 1400,
      "Ġmusc": 1401,
      "Ġstep": 1402,
      "Ġresult": 1403,
      "Ġturn": 1404,
      "'ve": 1405,
      "like": 1406,
      "Ġperfect": 1407,
      "Ġbecom": 1408,
      "Ġexperience": 1409,
      "Ġreal": 1410,
      "Ġmove": 1411,
      "-c": 1412,
      "Ġnumbers": 1413,
      "Ġcamera": 1414,
      "itch": 1415,
      "ee": 1416,
      "of": 1417,
      "cept": 1418,
      "amples": 1419,
      "ute": 1420,
      "Ġmonitor": 1421,
      "Ġinclude": 1422,
      "par": 1423,
      "Ġbott": 1424,
      "Ġtrees": 1425,
      "Ġable": 1426,
      "Ġcancer": 1427,
      "Ġsit": 1428,
      "Ġyoung": 1429,
      "Ġspecific": 1430,
      "ank": 1431,
      "Ġcorrect": 1432,
      "Ġfish": 1433,
      "Ġreally": 1434,
      "Ġdue": 1435,
      "arg": 1436,
      "ior": 1437,
      "Ġimm": 1438,
      "ract": 1439,
      "Ġfollowing": 1440,
      "Ġrest": 1441,
      "Ġterm": 1442,
      "ĠSh": 1443,
      "Ġminutes": 1444,
      "orts": 1445,
      "ĠSc": 1446,
      "ycle": 1447,
      "Ġprin": 1448,
      "Ġpossible": 1449,
      "the": 1450,
      "Ġmillion": 1451,
      "Ġvideo": 1452,
      "Ġpoint": 1453,
      "Ġaddition": 1454,
      "lu": 1455,
      "ling": 1456,
      "Ġcolor": 1457,
      "Ġcrucial": 1458,
      "aces": 1459,
      "50": 1460,
      "Ġmoney": 1461,
      "Ġel": 1462,
      "Ġprimary": 1463,
      "Ġgoing": 1464,
      "Ġhead": 1465,
      "ĠPl": 1466,
      "Ġconf": 1467,
      "Ġcome": 1468,
      "pr": 1469,
      "Ġput": 1470,
      "read": 1471,
      "ems": 1472,
      "ization": 1473,
      "rap": 1474,
      "Ġsoil": 1475,
      "Ġoper": 1476,
      "ests": 1477,
      "Ġlot": 1478,
      "ving": 1479,
      "Ġlim": 1480,
      "Ġsleep": 1481,
      "Ġhere": 1482,
      "Ġetc": 1483,
      "Ġquickly": 1484,
      "ides": 1485,
      "Ġblood": 1486,
      "St": 1487,
      "Ġmanagement": 1488,
      "11": 1489,
      "Ġexperim": 1490,
      "ildlife": 1491,
      "Ġrecogn": 1492,
      "Ġdemonstr": 1493,
      "Ġgovernment": 1494,
      "Ġyourself": 1495,
      "Ġfil": 1496,
      "ech": 1497,
      "Ġcomfort": 1498,
      "Ġopen": 1499,
      "Ġmeans": 1500,
      "thing": 1501,
      "oot": 1502,
      "ances": 1503,
      "Ġconcern": 1504,
      "Ġneeds": 1505,
      "Ġlet": 1506,
      "Ġeyes": 1507,
      "land": 1508,
      "Ġsecond": 1509,
      "ones": 1510,
      "ĠWhich": 1511,
      "Ġnut": 1512,
      "ict": 1513,
      "Ġappropriate": 1514,
      "put": 1515,
      "Ġed": 1516,
      "Ġextrem": 1517,
      "Ġfree": 1518,
      "Ġteach": 1519,
      "aste": 1520,
      "Ġpass": 1521,
      "Ġaverage": 1522,
      "Ġwomen": 1523,
      "Ġheat": 1524,
      "ĠIs": 1525,
      "Ġlo": 1526,
      "Ġoutside": 1527,
      "Ġant": 1528,
      "ton": 1529,
      "ane": 1530,
      "Ġbook": 1531,
      "Ġsense": 1532,
      "Ġflow": 1533,
      "Ġsay": 1534,
      "Ġprotein": 1535,
      "Ġalgorithm": 1536,
      "action": 1537,
      "Ġtypes": 1538,
      "ember": 1539,
      "Ġcut": 1540,
      "Ġissue": 1541,
      "Ġsimply": 1542,
      "Ġfin": 1543,
      "Ġsize": 1544,
      "Ġdirection": 1545,
      "Ġhalf": 1546,
      "Ġnormal": 1547,
      "af": 1548,
      "ĠTr": 1549,
      "Ġrepresent": 1550,
      "Ġtarget": 1551,
      "ĠOn": 1552,
      "oes": 1553,
      "Ġmachine": 1554,
      "Ġcat": 1555,
      "-d": 1556,
      "ribution": 1557,
      "Ġlast": 1558,
      "Ġreduc": 1559,
      "Ġareas": 1560,
      "Ġscientists": 1561,
      "ency": 1562,
      "own": 1563,
      "ident": 1564,
      "Ġvol": 1565,
      "Ġcannot": 1566,
      "Ġalcohol": 1567,
      "Ġlearning": 1568,
      "Ġalmost": 1569,
      "ode": 1570,
      "Ġret": 1571,
      "Ġlay": 1572,
      "Ġwinter": 1573,
      "Ġmean": 1574,
      "ox": 1575,
      "Ġspace": 1576,
      "Ġdevelopment": 1577,
      "Ġrange": 1578,
      "Ġfresh": 1579,
      "Ġattention": 1580,
      "Ġprom": 1581,
      "Ġpresent": 1582,
      "Ġteam": 1583,
      "ined": 1584,
      "ĠEx": 1585,
      "ending": 1586,
      "Ġbattery": 1587,
      "As": 1588,
      "Ġglobal": 1589,
      "aring": 1590,
      "Ġoil": 1591,
      "eter": 1592,
      "Ġemploy": 1593,
      "Ġmakes": 1594,
      "Ġobserv": 1595,
      "Ġfuel": 1596,
      "Ġintegr": 1597,
      "Ġenough": 1598,
      "Ġapplications": 1599,
      "Ġusually": 1600,
      "Ġlarger": 1601,
      "Ġgive": 1602,
      "Ġsuggest": 1603,
      "Ġautom": 1604,
      "Ġcountry": 1605,
      "port": 1606,
      "eth": 1607,
      "ev": 1608,
      "Ġquality": 1609,
      "amm": 1610,
      "Ġbig": 1611,
      "Ġfield": 1612,
      "Ġefficient": 1613,
      "Ġconstruction": 1614,
      "Ġhabit": 1615,
      "ping": 1616,
      "Ġbro": 1617,
      "âĢĶ": 1618,
      "Ġorder": 1619,
      "Ġaccess": 1620,
      "Ġsal": 1621,
      "Ġdetermine": 1622,
      "Ġspecial": 1623,
      "Ġbased": 1624,
      "Ġsystems": 1625,
      "We": 1626,
      "oci": 1627,
      "Ġsens": 1628,
      "Ġconditions": 1629,
      "ision": 1630,
      "Ġtechnology": 1631,
      "Ġchild": 1632,
      "atic": 1633,
      "ese": 1634,
      "-p": 1635,
      "ĠCl": 1636,
      "arch": 1637,
      "Ġmaterials": 1638,
      "Ġfac": 1639,
      "'m": 1640,
      "Ġatmosphere": 1641,
      "Ġtotal": 1642,
      "Ġpost": 1643,
      "Ġliquid": 1644,
      "ring": 1645,
      "Ġequipment": 1646,
      "rogen": 1647,
      "Ġtravel": 1648,
      "ĠEarth": 1649,
      "Ġ$": 1650,
      "pect": 1651,
      "alk": 1652,
      "16": 1653,
      "Ġlist": 1654,
      "Ġcook": 1655,
      "jects": 1656,
      "Ġcomponents": 1657,
      "Ġside": 1658,
      "igh": 1659,
      "Ġtaken": 1660,
      "Ġsup": 1661,
      "ories": 1662,
      "und": 1663,
      "Ġfeed": 1664,
      "uck": 1665,
      "Ġsn": 1666,
      "Ġparticular": 1667,
      "ah": 1668,
      "Ġpurpose": 1669,
      "ological": 1670,
      "aster": 1671,
      "14": 1672,
      "roduc": 1673,
      "Ġdocument": 1674,
      "ĠAf": 1675,
      "Ġmil": 1676,
      "Ġadjust": 1677,
      "Ġnon": 1678,
      "Ġsound": 1679,
      "yl": 1680,
      "ĠInd": 1681,
      "When": 1682,
      "ĠAdditionally": 1683,
      "Ġwind": 1684,
      "Ġdaily": 1685,
      "ĠPh": 1686,
      "ĠWith": 1687,
      "Ġplastic": 1688,
      "Ġjourney": 1689,
      "orn": 1690,
      "Ġencour": 1691,
      "ĠHealth": 1692,
      "Ġprevious": 1693,
      "clusion": 1694,
      "Ġcomprehensive": 1695,
      "Ġcollabor": 1696,
      "Ġwords": 1697,
      "Ġz": 1698,
      "Ġimpact": 1699,
      "Ġbehind": 1700,
      ")Ċ": 1701,
      "Ġcover": 1702,
      "Ġproblems": 1703,
      "ables": 1704,
      "Ġproperties": 1705,
      "Ġbelieve": 1706,
      "sh": 1707,
      "Ġdrug": 1708,
      "let": 1709,
      "_____": 1710,
      "Ġweight": 1711,
      "ves": 1712,
      "..": 1713,
      "Ġpsych": 1714,
      "aging": 1715,
      "Ġinterest": 1716,
      "Ġlevels": 1717,
      "led": 1718,
      "Ġsymbol": 1719,
      "ĠBy": 1720,
      "Ġline": 1721,
      "be": 1722,
      "Ġcur": 1723,
      "oor": 1724,
      "Ġfamil": 1725,
      "load": 1726,
      "Ġdiseases": 1727,
      "iting": 1728,
      "Ġnear": 1729,
      "Ġapproximately": 1730,
      "ication": 1731,
      "Ġsun": 1732,
      "ik": 1733,
      "Ġbeneficial": 1734,
      "ĠCan": 1735,
      "use": 1736,
      "eds": 1737,
      "Ġ&": 1738,
      "Ġamount": 1739,
      "Ġspeak": 1740,
      "ope": 1741,
      "amin": 1742,
      "Ġproject": 1743,
      "ĠNew": 1744,
      "ron": 1745,
      "Ġproducts": 1746,
      "Ġ=": 1747,
      "Ġdegrees": 1748,
      "13": 1749,
      "ĠDNA": 1750,
      "Ġtowards": 1751,
      "oll": 1752,
      "Ġworking": 1753,
      "ital": 1754,
      "Ġinc": 1755,
      "Ġcell": 1756,
      "Ġmaintain": 1757,
      "ote": 1758,
      "other": 1759,
      "Ġeggs": 1760,
      "Ġdays": 1761,
      "Ġmiddle": 1762,
      "You": 1763,
      "ury": 1764,
      "Ġfore": 1765,
      "Ġrepl": 1766,
      "Ġcomes": 1767,
      "Ġsugar": 1768,
      "board": 1769,
      "Ġstate": 1770,
      "Ġnext": 1771,
      "Ġproduct": 1772,
      "Ġcult": 1773,
      "Ġweeks": 1774,
      "Ġleg": 1775,
      "ĠEnvironment": 1776,
      "Ġaware": 1777,
      "tional": 1778,
      "Ġalong": 1779,
      "ored": 1780,
      "Ġkind": 1781,
      "Ġincrease": 1782,
      "Ġoffer": 1783,
      "Ġshort": 1784,
      "ired": 1785,
      "Ġeasy": 1786,
      "ble": 1787,
      "ĠEnglish": 1788,
      "Ġrele": 1789,
      "Ġresponse": 1790,
      "Ġearly": 1791,
      "Ġpoints": 1792,
      "osed": 1793,
      "-m": 1794,
      "Ġname": 1795,
      "ames": 1796,
      "Ġmaxim": 1797,
      "Ġcase": 1798,
      "Ġreduce": 1799,
      "une": 1800,
      "Ġhealthy": 1801,
      "17": 1802,
      "ĠThat": 1803,
      "Ġlocal": 1804,
      "There": 1805,
      "Ġstrong": 1806,
      "mission": 1807,
      "ced": 1808,
      "Ġrad": 1809,
      "Ġfull": 1810,
      "Ġdoesn": 1811,
      "light": 1812,
      "Ġred": 1813,
      "uch": 1814,
      "Ġhigher": 1815,
      "Ġgrowth": 1816,
      "ĠAt": 1817,
      "Ġold": 1818,
      "âĢ¦": 1819,
      "Ġlower": 1820,
      "Ġmembers": 1821,
      "Ġdogs": 1822,
      "Ġwarm": 1823,
      "ration": 1824,
      "Ġlab": 1825,
      "Ch": 1826,
      "Ġgreen": 1827,
      "Ġapplication": 1828,
      "Ġestim": 1829,
      "ped": 1830,
      "ators": 1831,
      "Ġground": 1832,
      "Ġevidence": 1833,
      "Ġappear": 1834,
      "ird": 1835,
      "Ġdry": 1836,
      "Ġexercise": 1837,
      "Ġactually": 1838,
      "ivers": 1839,
      "Ġimplement": 1840,
      "Ġdiabetes": 1841,
      "itive": 1842,
      "Ġwebsite": 1843,
      "Ġinstruc": 1844,
      "Ġrole": 1845,
      "Ġsimple": 1846,
      "Ġi": 1847,
      "Ġcompletely": 1848,
      "ams": 1849,
      "ising": 1850,
      "gan": 1851,
      "Ġleast": 1852,
      "ĠInstitute": 1853,
      "ised": 1854,
      "Ġconst": 1855,
      "Ġorig": 1856,
      "Ġtreat": 1857,
      "err": 1858,
      "Ġcontain": 1859,
      "Ġrece": 1860,
      "Ġbalance": 1861,
      "Ġreason": 1862,
      "Ġmodel": 1863,
      "Ġeat": 1864,
      "Ġdiet": 1865,
      "Ġways": 1866,
      "ene": 1867,
      "ivity": 1868,
      "Ġchallenge": 1869,
      "ruct": 1870,
      "ule": 1871,
      "ann": 1872,
      "Ġpatient": 1873,
      "Ġ[": 1874,
      "ery": 1875,
      "Ġage": 1876,
      "tle": 1877,
      "Ġir": 1878,
      "Ġvir": 1879,
      "Ġcalcul": 1880,
      "Ġpe": 1881,
      "Ġunique": 1882,
      "izing": 1883,
      "Ġmind": 1884,
      "Ġskin": 1885,
      "Ġanalyz": 1886,
      "Ġocc": 1887,
      "ilities": 1888,
      "Ġinvest": 1889,
      "atory": 1890,
      "Ġprogress": 1891,
      "Ġstyle": 1892,
      "Ġacross": 1893,
      "ified": 1894,
      "Ġmusic": 1895,
      "Ġproduction": 1896,
      "Ġinnov": 1897,
      "Ġspeed": 1898,
      "Ġwrit": 1899,
      "25": 1900,
      "Ġimmediately": 1901,
      "Ġgreater": 1902,
      "Ġpred": 1903,
      "Ġcritical": 1904,
      "ails": 1905,
      "Ġthing": 1906,
      "Ġbuilt": 1907,
      "ĠJohn": 1908,
      "Ġprincip": 1909,
      "Ġlifestyle": 1910,
      "Ġinitial": 1911,
      "ret": 1912,
      "ĠYour": 1913,
      "Ġscientific": 1914,
      "Ġreach": 1915,
      "Ġdone": 1916,
      "room": 1917,
      "Ġreasons": 1918,
      "ches": 1919,
      "though": 1920,
      "Ġvalue": 1921,
      "Ġnever": 1922,
      "Ġnetwork": 1923,
      "Ġfour": 1924,
      "Ġgas": 1925,
      "Ġabsor": 1926,
      "ĠSome": 1927,
      "Ġmotor": 1928,
      "Ġcompanies": 1929,
      "40": 1930,
      "aps": 1931,
      "Ġhim": 1932,
      "Ġcontroll": 1933,
      "Ġbreak": 1934,
      "Ġsays": 1935,
      "ĠBe": 1936,
      "Ġhelps": 1937,
      "Ġregular": 1938,
      "Ġfruit": 1939,
      "Ġintern": 1940,
      "Ġprot": 1941,
      "derstanding": 1942,
      "anced": 1943,
      "Ġloss": 1944,
      "we": 1945,
      "Ġpast": 1946,
      "Ġbenefits": 1947,
      "Ġcelebr": 1948,
      "ral": 1949,
      "Ġpopular": 1950,
      "Ġcool": 1951,
      "Ġheart": 1952,
      "Ġmaintenance": 1953,
      "Ġflu": 1954,
      "Ġenhance": 1955,
      "ules": 1956,
      "Ġcall": 1957,
      "Ġtry": 1958,
      "Ġlive": 1959,
      "Ġmar": 1960,
      "Ġvacc": 1961,
      "Ġmen": 1962,
      "To": 1963,
      "Ġste": 1964,
      "avor": 1965,
      "Ġbit": 1966,
      "!ĊĊ": 1967,
      "Ġlaw": 1968,
      "Ġwhite": 1969,
      "ĠWorld": 1970,
      "ĠCon": 1971,
      "aff": 1972,
      "Ġelectric": 1973,
      "Ġbaby": 1974,
      "Ġparts": 1975,
      "ĠAustral": 1976,
      "Ġimportance": 1977,
      "Ġabove": 1978,
      "Ġrecord": 1979,
      "sc": 1980,
      "ĠQ": 1981,
      "Ġworks": 1982,
      "ĠZ": 1983,
      "Ġlooking": 1984,
      "ived": 1985,
      "Ġpretty": 1986,
      "Ġeffects": 1987,
      "Ġappreci": 1988,
      "Ġrespons": 1989,
      "Ġdangerous": 1990,
      "co": 1991,
      "Ġreport": 1992,
      "ĠDepartment": 1993,
      "ĠBl": 1994,
      "Ġleft": 1995,
      "Ġland": 1996,
      "fficient": 1997,
      "Ġnegative": 1998,
      "Ġfar": 1999,
      "Ġunderstanding": 2000,
      "Ġclaim": 2001,
      "ards": 2002,
      ")ĊĊ": 2003,
      "Ġdesigned": 2004,
      "cep": 2005,
      "ows": 2006,
      "Ġfactors": 2007,
      "ume": 2008,
      "Ġutil": 2009,
      "uth": 2010,
      "Ġeng": 2011,
      "Ġfabric": 2012,
      "so": 2013,
      "Ġwr": 2014,
      "ĠâĢĶ": 2015,
      "ected": 2016,
      "Ġresistance": 2017,
      "itude": 2018,
      "Ġlandsc": 2019,
      "int": 2020,
      "ening": 2021,
      "Ġnumerous": 2022,
      "pe": 2023,
      "ression": 2024,
      "Ġanxiety": 2025,
      "Ġfarm": 2026,
      "Ġgraph": 2027,
      "Ġtherm": 2028,
      "pro": 2029,
      "Ġdisplay": 2030,
      "Ġtraining": 2031,
      "Ġcomplex": 2032,
      "ained": 2033,
      "utions": 2034,
      "eck": 2035,
      "Ġonce": 2036,
      "ĠRe": 2037,
      "Ġtoday": 2038,
      "yst": 2039,
      "ĠOr": 2040,
      "Ġpet": 2041,
      "Ġhold": 2042,
      "lection": 2043,
      "Ġwood": 2044,
      "Ġproduce": 2045,
      "Ġallows": 2046,
      "!Ċ": 2047,
      "ends": 2048,
      "Ġsmo": 2049,
      "Ġpregnancy": 2050,
      "hy": 2051,
      "acy": 2052,
      "Ġstress": 2053,
      "Ġensuring": 2054,
      "Ġevalu": 2055,
      "mit": 2056,
      "Ġconcrete": 2057,
      "Ġpercent": 2058,
      "Ġgetting": 2059,
      "mon": 2060,
      "For": 2061,
      "ensive": 2062,
      "Ġplatform": 2063,
      "Ġability": 2064,
      "Ġadapt": 2065,
      "Ġstop": 2066,
      "ournal": 2067,
      "Ġmass": 2068,
      "Ġprovides": 2069,
      "por": 2070,
      "Ġsatisf": 2071,
      "Ġrock": 2072,
      "Ġamong": 2073,
      "ĠDr": 2074,
      "Ġblack": 2075,
      "Ġfall": 2076,
      "ĠUS": 2077,
      "rown": 2078,
      "ime": 2079,
      "Ġnutrients": 2080,
      "Ġeffective": 2081,
      "ER": 2082,
      "Ġsuitable": 2083,
      "ĠĠĠ": 2084,
      "Ġvers": 2085,
      "Ġbreath": 2086,
      "Ġvariety": 2087,
      "Ġharvest": 2088,
      "ination": 2089,
      "fore": 2090,
      "Ġmatter": 2091,
      "Answer": 2092,
      "Ġrefer": 2093,
      "Ġbrain": 2094,
      "ĠAll": 2095,
      "Ġscience": 2096,
      "ener": 2097,
      "Ġdifference": 2098,
      "Ġprimarily": 2099,
      "Ġnutrition": 2100,
      "Ġroom": 2101,
      "ification": 2102,
      "ership": 2103,
      "Ġaircraft": 2104,
      "Ġhot": 2105,
      "ina": 2106,
      "ales": 2107,
      "ĠCOVID": 2108,
      "Ġyellow": 2109,
      "Ġheavy": 2110,
      "istic": 2111,
      "Ġnothing": 2112,
      "Ġtell": 2113,
      "ining": 2114,
      "Ġsafety": 2115,
      "Ġnaturally": 2116,
      "aged": 2117,
      "Ġgame": 2118,
      "ĠIm": 2119,
      "inc": 2120,
      "ĠOne": 2121,
      "Ġstat": 2122,
      "21": 2123,
      "Ġbelow": 2124,
      "ibr": 2125,
      "for": 2126,
      "lying": 2127,
      "Ġperformance": 2128,
      "aving": 2129,
      "Ġneeded": 2130,
      "Ġpersonal": 2131,
      "fl": 2132,
      "ught": 2133,
      "Ġsafe": 2134,
      "Ġcommunity": 2135,
      "Ġill": 2136,
      "ĠAI": 2137,
      "Ġhorse": 2138,
      ",Ċ": 2139,
      "Ġresearchers": 2140,
      "Ġpot": 2141,
      "Ġhyd": 2142,
      "Ġfully": 2143,
      "Ġevent": 2144,
      "Ġocean": 2145,
      "Ġdoing": 2146,
      "Ġindic": 2147,
      "ask": 2148,
      "Ġstorage": 2149,
      "ae": 2150,
      "Ġtree": 2151,
      "ores": 2152,
      "Ġmoment": 2153,
      "semb": 2154,
      "Ġliter": 2155,
      "ider": 2156,
      "Ġstructure": 2157,
      "ole": 2158,
      "Ġstraight": 2159,
      "oring": 2160,
      "Ġever": 2161,
      "Ġinside": 2162,
      "Ġmix": 2163,
      "acks": 2164,
      "Ġprof": 2165,
      "ream": 2166,
      "ming": 2167,
      "Ġexactly": 2168,
      "Ġsecurity": 2169,
      "Ġrapid": 2170,
      "Ġcontent": 2171,
      "ĠNOT": 2172,
      "60": 2173,
      "Ġwonder": 2174,
      "Ġagricult": 2175,
      "ĠCol": 2176,
      "Ġcharge": 2177,
      "Ġbeauty": 2178,
      "Ġsituation": 2179,
      "ĠFlorida": 2180,
      "Ġfat": 2181,
      "ĠNo": 2182,
      "Ġmixture": 2183,
      "ycl": 2184,
      "man": 2185,
      "Ġask": 2186,
      "Ġapplied": 2187,
      "Ġonline": 2188,
      "ension": 2189,
      "Ġactivities": 2190,
      "Ġimage": 2191,
      "Ġexist": 2192,
      "Ġexpert": 2193,
      "Ġexcellent": 2194,
      "24": 2195,
      "Ġlonger": 2196,
      "Ġdemand": 2197,
      "Ġarr": 2198,
      "Ġcommercial": 2199,
      "Ġmoisture": 2200,
      "Ġbuilding": 2201,
      "ĠTechn": 2202,
      "Ġaff": 2203,
      ".,": 2204,
      "ises": 2205,
      "Ġrequired": 2206,
      "Ġcircuit": 2207,
      "Ġseen": 2208,
      "-term": 2209,
      "Ġpath": 2210,
      "ther": 2211,
      "aced": 2212,
      "rel": 2213,
      "Ġdoctor": 2214,
      "ding": 2215,
      "Ġbirth": 2216,
      "Ġexposure": 2217,
      "Ġprefer": 2218,
      "fully": 2219,
      "Ġfunctions": 2220,
      "vert": 2221,
      "Ġcompany": 2222,
      "Ġlove": 2223,
      "ift": 2224,
      "Ġminim": 2225,
      "Ġintellig": 2226,
      "Ġantibiot": 2227,
      "Ġcontribute": 2228,
      "-friendly": 2229,
      "ouse": 2230,
      "ung": 2231,
      "ĠGoogle": 2232,
      "Ġpay": 2233,
      "Ġenvironmental": 2234,
      "umb": 2235,
      "Ġdeep": 2236,
      "Ġrate": 2237,
      "Ġaddress": 2238,
      "Ġsyn": 2239,
      "ĠAp": 2240,
      "Ġself": 2241,
      "Ġtherapy": 2242,
      "Ġflex": 2243,
      "Ġlaunch": 2244,
      "Ġtaking": 2245,
      "Ġprec": 2246,
      "Ġbecame": 2247,
      "Ġliving": 2248,
      "Ġmethods": 2249,
      "Ġtypically": 2250,
      "Ġpicture": 2251,
      "ections": 2252,
      "Ġinstall": 2253,
      "ites": 2254,
      "Ġtissue": 2255,
      "Ġuser": 2256,
      "Ġidea": 2257,
      "Ġisn": 2258,
      "Ġsomeone": 2259,
      "Ġcapacity": 2260,
      "by": 2261,
      "Ġmonths": 2262,
      "aling": 2263,
      "Ġfertil": 2264,
      "Ġseason": 2265,
      "Ġselect": 2266,
      "Ġagain": 2267,
      "way": 2268,
      "ibility": 2269,
      "Ġwhole": 2270,
      "âĢĻ": 2271,
      "Ġactivity": 2272,
      "-t": 2273,
      "ĠAmerican": 2274,
      "illed": 2275,
      "urs": 2276,
      "Ġbeyond": 2277,
      "erve": 2278,
      "ĠPeople": 2279,
      "Ġbar": 2280,
      "Ġeasily": 2281,
      "ĠCent": 2282,
      "Ġnature": 2283,
      "Ġfit": 2284,
      "inary": 2285,
      "ades": 2286,
      "urb": 2287,
      "22": 2288,
      "ief": 2289,
      "Ġremov": 2290,
      "Ġconsumption": 2291,
      "Ġobject": 2292,
      "Ġ.": 2293,
      "Ġbehavior": 2294,
      "Ġche": 2295,
      "Ġsqu": 2296,
      "Ġsubst": 2297,
      "Ġcold": 2298,
      "anging": 2299,
      "Ġindividuals": 2300,
      "âĢĵ": 2301,
      "Ġnucle": 2302,
      "Ġsevere": 2303,
      "Ġgeneral": 2304,
      "Ġolder": 2305,
      "ike": 2306,
      "ended": 2307,
      "Ġharm": 2308,
      "acts": 2309,
      "evelop": 2310,
      "TION": 2311,
      "Ġgrowing": 2312,
      "Ġdiscovered": 2313,
      "osing": 2314,
      "Ġbring": 2315,
      "Ġpack": 2316,
      "Ġtasks": 2317,
      "Ġjob": 2318,
      "mer": 2319,
      "Ġimpro": 2320,
      "Ġinj": 2321,
      "ĠGr": 2322,
      "Ġconservation": 2323,
      "uff": 2324,
      "Ġemissions": 2325,
      "Ġcases": 2326,
      "Ġslightly": 2327,
      "ext": 2328,
      "Ġcreating": 2329,
      "Ġlargest": 2330,
      "dd": 2331,
      "Ġentire": 2332,
      "Al": 2333,
      "Ġfigure": 2334,
      "Ġmedical": 2335,
      "-l": 2336,
      "So": 2337,
      "Ġmagn": 2338,
      "Ġmeet": 2339,
      "oles": 2340,
      "Ġgot": 2341,
      "Ġwall": 2342,
      "enn": 2343,
      ".\"Ċ": 2344,
      "Ġproteins": 2345,
      ").Ċ": 2346,
      "Ġstay": 2347,
      "Ġvaluable": 2348,
      "Ġresources": 2349,
      "Ġadults": 2350,
      ".\"ĊĊ": 2351,
      "Ġoverall": 2352,
      "ĠChrist": 2353,
      "Ġalternative": 2354,
      "elling": 2355,
      "Ġconsidered": 2356,
      "ians": 2357,
      "ĠAc": 2358,
      "eat": 2359,
      "ĠWhile": 2360,
      "ify": 2361,
      "Ġvoltage": 2362,
      "Ġuses": 2363,
      "Ġfascinating": 2364,
      "Ġfemale": 2365,
      "ork": 2366,
      "Ġhuge": 2367,
      "Ġcontact": 2368,
      "Ġnetworks": 2369,
      "Ġsolution": 2370,
      "IN": 2371,
      "ered": 2372,
      "ulations": 2373,
      "Ġaud": 2374,
      "Ġrather": 2375,
      "isc": 2376,
      "osis": 2377,
      "Ġthroughout": 2378,
      "Ġtrend": 2379,
      "Ġrelatively": 2380,
      "eng": 2381,
      "Ġchoose": 2382,
      "Ġcharacteristics": 2383,
      "Ġadvantage": 2384,
      "Ġlater": 2385,
      "Ġtool": 2386,
      "Ġtechnologies": 2387,
      "80": 2388,
      "Ġsetting": 2389,
      "Ġbirds": 2390,
      "Ġprofessional": 2391,
      "Ġcateg": 2392,
      "ĠFebruary": 2393,
      "ĠFirst": 2394,
      "Ġinflu": 2395,
      "ms": 2396,
      "Ġpan": 2397,
      "Ġsweet": 2398,
      "ool": 2399,
      "Ġconnection": 2400,
      "-based": 2401,
      "arent": 2402,
      "Ġinflammation": 2403,
      "Ġmolec": 2404,
      "ival": 2405,
      "Ġchocolate": 2406,
      "Ġarchitect": 2407,
      "Ġmeasures": 2408,
      "Ġann": 2409,
      "Ġclose": 2410,
      "Ġsch": 2411,
      "ĠCar": 2412,
      "Ġphys": 2413,
      "Ġhowever": 2414,
      "ened": 2415,
      "Ġtakes": 2416,
      "Ġdistinct": 2417,
      "Ġbackground": 2418,
      "Ġoptions": 2419,
      "Ġwor": 2420,
      "urthermore": 2421,
      "Ġthought": 2422,
      "Ġwar": 2423,
      "Ġsepar": 2424,
      "Ġservice": 2425,
      "Ġbad": 2426,
      "Ġfoot": 2427,
      "On": 2428,
      "Ġcapture": 2429,
      "Ġpractice": 2430,
      "Ġcreated": 2431,
      "Ġaspects": 2432,
      "Ġpopulation": 2433,
      "Ġtw": 2434,
      "actions": 2435,
      "ense": 2436,
      "sp": 2437,
      "ĠNorth": 2438,
      "Ġhistor": 2439,
      "Ġfashion": 2440,
      "ps": 2441,
      "Ġnight": 2442,
      "Ġindepend": 2443,
      "Ġfeet": 2444,
      "Ġtend": 2445,
      "Ġfoods": 2446,
      "lease": 2447,
      "ills": 2448,
      "Ġcauses": 2449,
      "Ġaccur": 2450,
      "Ġmodern": 2451,
      "Ġdeveloped": 2452,
      "ĠDo": 2453,
      "Ġrefriger": 2454,
      "ĠJapan": 2455,
      "**": 2456,
      "Ġrob": 2457,
      "ti": 2458,
      "Ġdrop": 2459,
      "Ġcop": 2460,
      "Ġchicken": 2461,
      "Ġconsist": 2462,
      "Ġwaste": 2463,
      "Ġmult": 2464,
      "Ġfinancial": 2465,
      "Ġbreed": 2466,
      "Ġslow": 2467,
      "Ġacid": 2468,
      "ĠX": 2469,
      "Ġmiss": 2470,
      "osp": 2471,
      "Ġfast": 2472,
      "oid": 2473,
      "Ġjoin": 2474,
      "ĠSeptember": 2475,
      "Ġsil": 2476,
      "Ġservices": 2477,
      "iation": 2478,
      "Ġrelated": 2479,
      "ried": 2480,
      "Ġincreased": 2481,
      "Ġincludes": 2482,
      "ĠPr": 2483,
      "ler": 2484,
      "Ġcompet": 2485,
      "Ġinstead": 2486,
      "esp": 2487,
      "ince": 2488,
      "Ġdynam": 2489,
      "Ġregion": 2490,
      "Ġweather": 2491,
      "ES": 2492,
      "ĠSouth": 2493,
      "Ġspecifically": 2494,
      "Ġtiny": 2495,
      "Ġparticip": 2496,
      "Ġoptim": 2497,
      "ges": 2498,
      "ĠUnited": 2499,
      "onic": 2500,
      "Ġcorrespond": 2501,
      "ounds": 2502,
      "Ġquant": 2503,
      "ĠSe": 2504,
      "Ġcomponent": 2505,
      "Ġdevice": 2506,
      "val": 2507,
      "verse": 2508,
      "ished": 2509,
      "Ġfossil": 2510,
      "-w": 2511,
      "Ġfurniture": 2512,
      "Ġinfrastructure": 2513,
      "Ġshape": 2514,
      "acing": 2515,
      "Ġrisks": 2516,
      "Ġnavig": 2517,
      "AR": 2518,
      "Ġguidelines": 2519,
      "fortunately": 2520,
      "Ġanswers": 2521,
      "Ġfive": 2522,
      "Ġelimin": 2523,
      "Ġspread": 2524,
      "ife": 2525,
      "Ġstudies": 2526,
      "Ġphenomen": 2527,
      "Ġmathemat": 2528,
      "eep": 2529,
      "Ġcouple": 2530,
      "Ġconsum": 2531,
      ".S": 2532,
      "oph": 2533,
      "Ġwide": 2534,
      "ĠMed": 2535,
      "Ġenthusi": 2536,
      "ĠNational": 2537,
      "Ġsuggests": 2538,
      "Ġremove": 2539,
      "ĠFr": 2540,
      "ĠUsing": 2541,
      "ads": 2542,
      "Ġincreasing": 2543,
      "Ġcarbohydr": 2544,
      "Un": 2545,
      "Ġdegree": 2546,
      "oms": 2547,
      "Ġmark": 2548,
      "izes": 2549,
      "Ġelements": 2550,
      "Ġra": 2551,
      "AS": 2552,
      "Ġhomes": 2553,
      "Ġsometimes": 2554,
      "Ġmon": 2555,
      "ether": 2556,
      "ĠOctober": 2557,
      "Ġdig": 2558,
      "Ġoffers": 2559,
      "Ġbasic": 2560,
      "ison": 2561,
      "Ġapart": 2562,
      "emistry": 2563,
      "Ġcounter": 2564,
      "Ġeverything": 2565,
      "ĠHere": 2566,
      "ĠBr": 2567,
      "Ġstar": 2568,
      "cess": 2569,
      "Ġcollect": 2570,
      "Ġbodies": 2571,
      "Ġdefinitely": 2572,
      "iven": 2573,
      "23": 2574,
      "ĠAfrica": 2575,
      "âĢĿ": 2576,
      "Ġcardiovascular": 2577,
      "Ġproviding": 2578,
      "Ġwon": 2579,
      "Ġnecessarily": 2580,
      "Ġreturn": 2581,
      "Ġcompared": 2582,
      "Pro": 2583,
      "Ġstory": 2584,
      "Ġmanufacture": 2585,
      "Ġcaused": 2586,
      "Ġprep": 2587,
      "Ġchoice": 2588,
      "Ġanything": 2589,
      "Ġfavorite": 2590,
      "Ġyet": 2591,
      "ED": 2592,
      "ires": 2593,
      "ĠCont": 2594,
      "eral": 2595,
      "Ġshows": 2596,
      "-in": 2597,
      "ĠAm": 2598,
      "Ġdevices": 2599,
      "Ġsample": 2600,
      "Â·Â·Â·Â·Â·Â·Â·Â·Â·Â·Â·Â·Â·Â·Â·Â·Â·Â·Â·Â·Â·Â·Â·Â·Â·Â·Â·Â·Â·": 2601,
      "Ġface": 2602,
      "Ġfruits": 2603,
      "Ġhundred": 2604,
      "Ġmetal": 2605,
      "Ġexhib": 2606,
      "ided": 2607,
      "Ġexperienced": 2608,
      "Ġdom": 2609,
      "Ġlog": 2610,
      "ĠJanuary": 2611,
      "Ġones": 2612,
      "Ġsurv": 2613,
      "Ġbuy": 2614,
      "Ġperspective": 2615,
      "Ġfundamental": 2616,
      "Ġregarding": 2617,
      "Ġmedic": 2618,
      "Ġquite": 2619,
      "Ġsite": 2620,
      "Ġbox": 2621,
      "One": 2622,
      "Ġseem": 2623,
      "ipe": 2624,
      "ably": 2625,
      "Ġfib": 2626,
      "Ġgenerally": 2627,
      "Ġang": 2628,
      "Ġstarted": 2629,
      "Ġclos": 2630,
      "ights": 2631,
      "ography": 2632,
      "Ġcomplete": 2633,
      "Ġcloth": 2634,
      "Ġsurgery": 2635,
      "where": 2636,
      "Ġfront": 2637,
      "au": 2638,
      "Ġamounts": 2639,
      "Ġdark": 2640,
      "Ġsociety": 2641,
      "Ġconduct": 2642,
      "Ġkids": 2643,
      "Ġtrue": 2644,
      "raw": 2645,
      "agram": 2646,
      "Ġmeat": 2647,
      "Ġshare": 2648,
      "Ġtem": 2649,
      "Ġfire": 2650,
      "Ġartificial": 2651,
      "Ġencounter": 2652,
      "iding": 2653,
      "Ġtrying": 2654,
      "ĠCons": 2655,
      "isms": 2656,
      "Ġdedicated": 2657,
      "Ġpupp": 2658,
      "Ġpollution": 2659,
      "ley": 2660,
      "90": 2661,
      "Ġextra": 2662,
      "Research": 2663,
      "reg": 2664,
      "ulate": 2665,
      "After": 2666,
      "Ġlayer": 2667,
      "Ġlink": 2668,
      "ource": 2669,
      "Ġge": 2670,
      "Ġglass": 2671,
      "known": 2672,
      "Ġchanged": 2673,
      "Ġsearch": 2674,
      "Ġemo": 2675,
      "Why": 2676,
      "oon": 2677,
      "Ġhealthcare": 2678,
      "Ġdouble": 2679,
      "Ġago": 2680,
      "Ġveterinarian": 2681,
      "Ġitself": 2682,
      "illing": 2683,
      "ials": 2684,
      "eal": 2685,
      "Ġball": 2686,
      "Ġacceler": 2687,
      "Ġrot": 2688,
      "Ġcontinu": 2689,
      "Ġterms": 2690,
      "Ġachieve": 2691,
      "Ġreading": 2692,
      "Ġgroups": 2693,
      "ino": 2694,
      "Ġwatch": 2695,
      "att": 2696,
      "time": 2697,
      "Ġmilk": 2698,
      "ĠAfter": 2699,
      "Com": 2700,
      "Ġsteps": 2701,
      "Ġexperts": 2702,
      "Ġice": 2703,
      "ns": 2704,
      "70": 2705,
      "Ġassess": 2706,
      "Ġconsequ": 2707,
      "ister": 2708,
      "Ġiniti": 2709,
      "Sh": 2710,
      "Ġcode": 2711,
      "alking": 2712,
      "Ġsurfaces": 2713,
      "iness": 2714,
      "iff": 2715,
      "Ġstand": 2716,
      "Ġeating": 2717,
      "Ġtable": 2718,
      "Ġheld": 2719,
      ").ĊĊ": 2720,
      "·Â·Â·Â·Â·Â·Â·Â·Â·Â·Â·Â·Â·Â·Â·Â·Â·Â·Â·Â·Â·Â·Â·Â·Â·Â·Â·Â·Â·Â": 2721,
      "aves": 2722,
      "Ġdish": 2723,
      "-h": 2724,
      "Ġintroduc": 2725,
      "Ġcolors": 2726,
      "Ġmachines": 2727,
      "go": 2728,
      "ĠMan": 2729,
      "ĠCo": 2730,
      "Ġsmaller": 2731,
      "Ġbase": 2732,
      "Ġhumidity": 2733,
      "Ġindustrial": 2734,
      "uss": 2735,
      "Ġadded": 2736,
      "Ġancient": 2737,
      "Ġpick": 2738,
      "rum": 2739,
      "Ġteeth": 2740,
      "Ġdecisions": 2741,
      "ĠShe": 2742,
      "Ġdeterm": 2743,
      "-year": 2744,
      "aur": 2745,
      "Ġdiv": 2746,
      "Ġparticularly": 2747,
      "Ġblue": 2748,
      "emic": 2749,
      "ĠYes": 2750,
      "aries": 2751,
      "Ġdiagn": 2752,
      "Ġhair": 2753,
      "Ġwild": 2754,
      "Ġparents": 2755,
      "Ġoption": 2756,
      "ops": 2757,
      "ĠStates": 2758,
      "Ġleading": 2759,
      "Ġassist": 2760,
      "Ġwidely": 2761,
      "Ġinsp": 2762,
      "ĠAssociation": 2763,
      "'d": 2764,
      "Ġcats": 2765,
      "vention": 2766,
      "Ġforce": 2767,
      "Ġcryst": 2768,
      "Ġadditional": 2769,
      "Ġprovided": 2770,
      "Ġblock": 2771,
      "Ġaction": 2772,
      "Ġsharp": 2773,
      "Ġwheel": 2774,
      "Ġvehicle": 2775,
      "Ġcontr": 2776,
      "iring": 2777,
      "Ġshown": 2778,
      "Ġlatest": 2779,
      "But": 2780,
      "Ġnamed": 2781,
      "Ġfail": 2782,
      "Ġdirectly": 2783,
      "Ġvacuum": 2784,
      "Ġexplore": 2785,
      "Ġbatteries": 2786,
      "arb": 2787,
      "Ġcameras": 2788,
      "Ex": 2789,
      "Ġhun": 2790,
      "min": 2791,
      "vel": 2792,
      "Ġstudent": 2793,
      "Ġvitamins": 2794,
      "Ġwear": 2795,
      "Ġtroub": 2796,
      "Ġadvantages": 2797,
      "ĠStud": 2798,
      "Ġhighly": 2799,
      "Ġmess": 2800,
      "rol": 2801,
      "Ġcourses": 2802,
      "Ġemb": 2803,
      "Ġdestroy": 2804,
      "AT": 2805,
      "Ġearlier": 2806,
      "ĠMay": 2807,
      "Ġpurch": 2808,
      "Ġlives": 2809,
      "Ġemerg": 2810,
      "Ġgrad": 2811,
      "Ġcontinue": 2812,
      "Ġmorning": 2813,
      "Ġconcentr": 2814,
      "Ġeveryone": 2815,
      "Ġsolar": 2816,
      "Ġinvolved": 2817,
      "Ġtrack": 2818,
      "ners": 2819,
      "unction": 2820,
      "Ġkitchen": 2821,
      "Ġsea": 2822,
      "Ġtoxic": 2823,
      "Ġthousands": 2824,
      "rew": 2825,
      "Ġimages": 2826,
      "ai": 2827,
      "Ġburn": 2828,
      "omet": 2829,
      "Ġsources": 2830,
      "Ġcomb": 2831,
      "Ġrecommended": 2832,
      "Ġdetailed": 2833,
      "Ġparallel": 2834,
      "Ġstrugg": 2835,
      "ĠNovember": 2836,
      "Is": 2837,
      "Ġneighb": 2838,
      "na": 2839,
      "Ġeasier": 2840,
      "Ġreview": 2841,
      "Ġidentify": 2842,
      "ging": 2843,
      "Ġaut": 2844,
      "Ġrenewable": 2845,
      "Ġbul": 2846,
      "Ġgoal": 2847,
      "Ġultim": 2848,
      "Ġelectro": 2849,
      "Ġabsolutely": 2850,
      "med": 2851,
      "ody": 2852,
      "Ġsituations": 2853,
      "Ġitems": 2854,
      "-quality": 2855,
      "oud": 2856,
      "Ġproduced": 2857,
      "vant": 2858,
      "Ġer": 2859,
      "Ġtreated": 2860,
      "Ġguide": 2861,
      "Ġobvious": 2862,
      "-st": 2863,
      "ey": 2864,
      "Ġoutdoor": 2865,
      "Ġvisit": 2866,
      "ĠNot": 2867,
      "Ġtips": 2868,
      "anks": 2869,
      "uly": 2870,
      "hold": 2871,
      "Ġsuper": 2872,
      "ĠAre": 2873,
      "ait": 2874,
      "ĠOf": 2875,
      "Ġbed": 2876,
      "Ġgenetic": 2877,
      "Ġdefinition": 2878,
      "now": 2879,
      "Ġrecent": 2880,
      "-to": 2881,
      "Ġmodels": 2882,
      "Ġsand": 2883,
      "Ġcomposition": 2884,
      "Ġcrop": 2885,
      "Ġtouch": 2886,
      "Ġstore": 2887,
      "Ġdidn": 2888,
      "Ġorganizations": 2889,
      "Ġearth": 2890,
      "Ġforest": 2891,
      "Ġreliable": 2892,
      "Ġaim": 2893,
      "Â°": 2894,
      "ĠFrench": 2895,
      "cription": 2896,
      "Ġcomput": 2897,
      "ĠGu": 2898,
      "Ġtemperatures": 2899,
      "Ġbillion": 2900,
      "ĠFl": 2901,
      "Ġcoffee": 2902,
      "asing": 2903,
      "Ġensures": 2904,
      "Ġrunning": 2905,
      "Ġelse": 2906,
      "app": 2907,
      "Ġpolicy": 2908,
      "li": 2909,
      "Ġtransform": 2910,
      "ray": 2911,
      "Ġcognitive": 2912,
      "ĠCanada": 2913,
      "ata": 2914,
      "umm": 2915,
      "ĠScience": 2916,
      "iate": 2917,
      "Ġrain": 2918,
      "Ġflowers": 2919,
      "Ġproperly": 2920,
      "Ġkept": 2921,
      "Ġvitamin": 2922,
      "ĠPre": 2923,
      "Ġdeath": 2924,
      "Ġkn": 2925,
      "Ġscreen": 2926,
      "Ġshapes": 2927,
      "Ġpictures": 2928,
      "Ġpoly": 2929,
      "Ġswitch": 2930,
      "Con": 2931,
      "Ġevents": 2932,
      "ĠMy": 2933,
      "Ġthorough": 2934,
      "...ĊĊ": 2935,
      "ocks": 2936,
      "Ġseeds": 2937,
      "Ġamazing": 2938,
      "water": 2939,
      "Ġcampaign": 2940,
      "ware": 2941,
      "Ġmeaning": 2942,
      "ĠMost": 2943,
      "itation": 2944,
      "-being": 2945,
      "Ġword": 2946,
      "ĠLe": 2947,
      "esc": 2948,
      "Ġexternal": 2949,
      "Ġx": 2950,
      "ma": 2951,
      "Ġemphas": 2952,
      "Ġserious": 2953,
      "Ġreveal": 2954,
      "Ġroutine": 2955,
      "Ġdecre": 2956,
      "Ġhands": 2957,
      "Ġvelocity": 2958,
      "Ġpiece": 2959,
      "Ġconstant": 2960,
      "Ġprocesses": 2961,
      "urrent": 2962,
      "AN": 2963,
      "Ġmovement": 2964,
      "Ġchallenges": 2965,
      "Ġuseful": 2966,
      "ok": 2967,
      "Ġ/": 2968,
      "Ġsubject": 2969,
      "come": 2970,
      "ĠBritish": 2971,
      "yp": 2972,
      "Ġenzym": 2973,
      "Ġlines": 2974,
      "Ġspring": 2975,
      "Ġprivate": 2976,
      "oo": 2977,
      "iles": 2978,
      "olve": 2979,
      "ĠApril": 2980,
      "Ġactive": 2981,
      "ĠMore": 2982,
      "Ġfix": 2983,
      "AC": 2984,
      "Ġlif": 2985,
      "Ġprior": 2986,
      "Ġpowder": 2987,
      "Ġthreat": 2988,
      "Ġparameters": 2989,
      "inks": 2990,
      "raft": 2991,
      "Ġcross": 2992,
      "ĠDesign": 2993,
      "Ġratio": 2994,
      "onom": 2995,
      "Ġtransport": 2996,
      "ĠMexico": 2997,
      "Ġwash": 2998,
      "ĠâĢľ": 2999,
      "Ġplenty": 3000,
      "Ġsupply": 3001,
      "Ġefficiency": 3002,
      "Ġsurrounding": 3003,
      "Ġmedia": 3004,
      "Ġprocedure": 3005,
      "amb": 3006,
      "Ġvisual": 3007,
      "acter": 3008,
      "Ġmetabol": 3009,
      "Ġmoving": 3010,
      "rough": 3011,
      "Ġforces": 3012,
      "Ġremember": 3013,
      "ĠProfess": 3014,
      "atives": 3015,
      "Ġcarry": 3016,
      "Ġgoes": 3017,
      "Ġpump": 3018,
      "Ġminerals": 3019,
      "ĠFrom": 3020,
      "Ġseries": 3021,
      "Ġ+": 3022,
      "Ġexpect": 3023,
      "Ġbag": 3024,
      "ĠWhy": 3025,
      "Can": 3026,
      "Ġvirus": 3027,
      "Ġprojects": 3028,
      "Ġhappens": 3029,
      "Ġusers": 3030,
      "Ġsus": 3031,
      "ĠâĢ¦": 3032,
      "Ġ--": 3033,
      "Ġtalk": 3034,
      "Ġrandom": 3035,
      "ured": 3036,
      "elt": 3037,
      "ĠMar": 3038,
      "Ġsix": 3039,
      "Ġcontains": 3040,
      "Ġthick": 3041,
      "Ġallowing": 3042,
      "urt": 3043,
      "Ġcosts": 3044,
      "Ġaluminum": 3045,
      "Ġtow": 3046,
      "Ġfeature": 3047,
      "rup": 3048,
      "Ġwaters": 3049,
      "Ġdeveloping": 3050,
      "back": 3051,
      "Ġpatterns": 3052,
      "Ġprice": 3053,
      "Ġorganic": 3054,
      "-g": 3055,
      "Ġaccom": 3056,
      "Ġforms": 3057,
      "Ġdepending": 3058,
      "ĠEnergy": 3059,
      "ĠSystem": 3060,
      "ils": 3061,
      "Ġmobile": 3062,
      "Ġdensity": 3063,
      "head": 3064,
      "Ġcommonly": 3065,
      "Ġpurposes": 3066,
      "Ġprograms": 3067,
      "Ġleave": 3068,
      "Ġchronic": 3069,
      "Ġgets": 3070,
      "Cl": 3071,
      "Ġevolution": 3072,
      "Ġmental": 3073,
      "Ġdeal": 3074,
      "Ġtomat": 3075,
      "Ġvideos": 3076,
      "Ġep": 3077,
      "Ġlack": 3078,
      "Ġhidden": 3079,
      "aly": 3080,
      "Ġlocation": 3081,
      "Ġdatabase": 3082,
      "ĠUse": 3083,
      "uzz": 3084,
      "Ġframe": 3085,
      "ĠInternational": 3086,
      "Ġperhaps": 3087,
      "ĠAg": 3088,
      "Ġoutput": 3089,
      "Ġunit": 3090,
      "ĠMany": 3091,
      "OR": 3092,
      "Ġdur": 3093,
      "Ġprotection": 3094,
      "Ġsuff": 3095,
      "Ġtrigger": 3096,
      "Ġconcentration": 3097,
      "Ġcooking": 3098,
      "ĠEducation": 3099,
      "icate": 3100,
      "overy": 3101,
      "ĠWashington": 3102,
      "Ġconven": 3103,
      "Ġdrive": 3104,
      "ĠAmerica": 3105,
      "Ġvision": 3106,
      "EN": 3107,
      "Ġenter": 3108,
      "Ġtradition": 3109,
      "Ġfamiliar": 3110,
      "Ġsigns": 3111,
      "Ġgirl": 3112,
      "Ġdrink": 3113,
      "Ġcommunication": 3114,
      "ube": 3115,
      "ĠEm": 3116,
      "IS": 3117,
      "thesis": 3118,
      "Ġdam": 3119,
      "Ġessay": 3120,
      "Ġsave": 3121,
      "ĠAb": 3122,
      "Ġconcepts": 3123,
      "ĠEng": 3124,
      "Ġscr": 3125,
      "set": 3126,
      "Ġmotiv": 3127,
      "Ġgrass": 3128,
      "Ġload": 3129,
      "Ġtheory": 3130,
      "Ġspirit": 3131,
      "Ġhoney": 3132,
      "irt": 3133,
      "Ġcoll": 3134,
      "Ġobjects": 3135,
      "While": 3136,
      "Ġcard": 3137,
      "airs": 3138,
      "book": 3139,
      "Ġfrozen": 3140,
      "Ġcurriculum": 3141,
      "Ġsequ": 3142,
      "Ġ,": 3143,
      "Ġseems": 3144,
      "ony": 3145,
      "ĠThen": 3146,
      "Ġhorses": 3147,
      "-related": 3148,
      "Ġsyndrome": 3149,
      "Ġbiodiversity": 3150,
      "Ġelectrical": 3151,
      "Ġseed": 3152,
      "ĠRep": 3153,
      "ĠInst": 3154,
      "Ġzero": 3155,
      "ĠCommun": 3156,
      "Ġinfection": 3157,
      "ways": 3158,
      "Ġren": 3159,
      "oe": 3160,
      "Ġpage": 3161,
      "Ġclinical": 3162,
      "icks": 3163,
      "arr": 3164,
      "Ġdisorders": 3165,
      "Ġlimited": 3166,
      "ially": 3167,
      "Ġlikelihood": 3168,
      "Ġuniverse": 3169,
      "\",": 3170,
      "Ġhearing": 3171,
      "Ġcame": 3172,
      "Ġcenter": 3173,
      "Ġbottom": 3174,
      "ĠAfrican": 3175,
      "Ġbecomes": 3176,
      "Ġdoub": 3177,
      "Ġexcess": 3178,
      "Ġdistance": 3179,
      "Ġlens": 3180,
      "Ġhorizontal": 3181,
      "Ġoriginal": 3182,
      "Ġstates": 3183,
      "ze": 3184,
      "Ġnormally": 3185,
      "Ġsoon": 3186,
      "Ġstretch": 3187,
      "Ġvirtual": 3188,
      "Ġaccount": 3189,
      "Ġotherwise": 3190,
      "Ġcolleagues": 3191,
      "Ġport": 3192,
      "Ġsouth": 3193,
      "Ġready": 3194,
      "Ġideas": 3195,
      "Ġpractices": 3196,
      "Ġwavelength": 3197,
      "With": 3198,
      "Ġbudget": 3199,
      "Ġvarieties": 3200,
      "ged": 3201,
      "asts": 3202,
      "Ġorigin": 3203,
      "Ġvary": 3204,
      "ĠRec": 3205,
      "Ġargument": 3206,
      "Ġtim": 3207,
      "ula": 3208,
      "Ġimmune": 3209,
      "Ġsustainable": 3210,
      "Ġsignal": 3211,
      "ector": 3212,
      "ĠRes": 3213,
      "Ġinput": 3214,
      "Ġroot": 3215,
      "Ġrich": 3216,
      "Ġvulnerable": 3217,
      "Ġcity": 3218,
      "clud": 3219,
      "Ġoccasion": 3220,
      "Ġdiamond": 3221,
      "Ġideal": 3222,
      "Ġlate": 3223,
      "Ġurban": 3224,
      "Ġreducing": 3225,
      "By": 3226,
      "Ġrare": 3227,
      "Ġupon": 3228,
      "Ġvoice": 3229,
      "Ġinvolves": 3230,
      "These": 3231,
      "Ġgives": 3232,
      "tr": 3233,
      "Ġvalues": 3234,
      "ĠCO": 3235,
      "Ġcholesterol": 3236,
      "ĠTe": 3237,
      "Ġrespect": 3238,
      "de": 3239,
      "Ġerror": 3240,
      "Ġstomach": 3241,
      "Ġfriends": 3242,
      "Ġadequate": 3243,
      "ĠPer": 3244,
      "En": 3245,
      "active": 3246,
      "Ġwriting": 3247,
      "35": 3248,
      "Ġnorth": 3249,
      "Ġtraffic": 3250,
      "Ph": 3251,
      "ĠComp": 3252,
      "Ġsolutions": 3253,
      "Ġcleaning": 3254,
      "Ġtesting": 3255,
      "Ġgold": 3256,
      "Ġwhatever": 3257,
      "Ġdiscomfort": 3258,
      "Ġpress": 3259,
      "Ġsudden": 3260,
      "Ġbegins": 3261,
      "ĠReg": 3262,
      "ios": 3263,
      "Ġcalcium": 3264,
      "Ġworth": 3265,
      "Ġthr": 3266,
      "Ġmill": 3267,
      "Ġresponsible": 3268,
      "idge": 3269,
      "cer": 3270,
      "Ġourselves": 3271,
      "Ġmatch": 3272,
      "ney": 3273,
      "Ġfine": 3274,
      "At": 3275,
      "troduction": 3276,
      "Ġthinking": 3277,
      "iet": 3278,
      "Ġpoor": 3279,
      "First": 3280,
      "ĠMicro": 3281,
      "Ġpush": 3282,
      "Ġsoft": 3283,
      "Ġpull": 3284,
      "ĠCounty": 3285,
      "Ġbowl": 3286,
      "Ġhappen": 3287,
      "Ġhope": 3288,
      "Ġdiversity": 3289,
      "Ġhost": 3290,
      "Ġroll": 3291,
      "Ġexhaust": 3292,
      "Ġcredit": 3293,
      "Ġaren": 3294,
      "Ġver": 3295,
      "ishing": 3296,
      "Ġaggressive": 3297,
      "Ġur": 3298,
      "ĠSm": 3299,
      "Ġlongevity": 3300,
      "ĠWho": 3301,
      "Ġbroken": 3302,
      "Ġboard": 3303,
      "ĠAugust": 3304,
      "Ġmemory": 3305,
      "AL": 3306,
      "Ġattached": 3307,
      "Ġcollege": 3308,
      "Ġspot": 3309,
      "ball": 3310,
      "Ġscenar": 3311,
      "tic": 3312,
      "vent": 3313,
      "Ġcycle": 3314,
      "Ġsmooth": 3315,
      "Ġlaser": 3316,
      "They": 3317,
      "Ġpor": 3318,
      "ĠOur": 3319,
      "ulated": 3320,
      "Ġfile": 3321,
      "Ġbalanced": 3322,
      "Ġrequirements": 3323,
      "Ġstarting": 3324,
      "Ġhabits": 3325,
      "Ġworldwide": 3326,
      "order": 3327,
      "--": 3328,
      "unch": 3329,
      "ĠGl": 3330,
      "imilar": 3331,
      "ĠAir": 3332,
      "ĠAlso": 3333,
      "Ġtechnique": 3334,
      "Ġinjuries": 3335,
      "Ġfamous": 3336,
      "ĠLet": 3337,
      "Ġet": 3338,
      "âĢ¢": 3339,
      "Ġpregnant": 3340,
      "Ġpoll": 3341,
      "01": 3342,
      "atur": 3343,
      "Ġattract": 3344,
      "Ġbond": 3345,
      "Ġcharg": 3346,
      "Ġadding": 3347,
      "Ġsalt": 3348,
      "Ġillegal": 3349,
      "Ġsignificantly": 3350,
      "Ġpowerful": 3351,
      "Ġingredient": 3352,
      "Ġfacilit": 3353,
      "Ġdeeper": 3354,
      "ster": 3355,
      "Ġbur": 3356,
      "Ġrepresents": 3357,
      "Ġdioxide": 3358,
      "ĠNow": 3359,
      "Ġfinal": 3360,
      "Ġelement": 3361,
      "dom": 3362,
      "oom": 3363,
      "Ġled": 3364,
      "Ġgames": 3365,
      "Ġexpress": 3366,
      "Ġcutting": 3367,
      "Ġvegetables": 3368,
      "Ġpieces": 3369,
      "Ġcommit": 3370,
      "ana": 3371,
      "rib": 3372,
      "Ġrev": 3373,
      "vey": 3374,
      "Ġenhancing": 3375,
      "Ġconnections": 3376,
      "otic": 3377,
      "Ġsent": 3378,
      "Ġprofessor": 3379,
      "ipes": 3380,
      "Ġlimit": 3381,
      "-up": 3382,
      "Ġtook": 3383,
      "Ġgreenhouse": 3384,
      "Ġstage": 3385,
      "ĠPhotoshop": 3386,
      "imate": 3387,
      "Ġbright": 3388,
      "Ġcausing": 3389,
      "ifferent": 3390,
      "Ġplaces": 3391,
      "ĠTheir": 3392,
      "ference": 3393,
      "Ġavailability": 3394,
      "Ġviol": 3395,
      "Ġexam": 3396,
      "Step": 3397,
      "Ġdelicious": 3398,
      "Ġconcept": 3399,
      "And": 3400,
      "Ġweb": 3401,
      "ĠLearning": 3402,
      "-shaped": 3403,
      "Ġattempt": 3404,
      "astic": 3405,
      "Ġinvestig": 3406,
      "Ġsection": 3407,
      "Im": 3408,
      "oration": 3409,
      "Ġprop": 3410,
      "45": 3411,
      "lands": 3412,
      "Ġfaster": 3413,
      "ĠGe": 3414,
      "Ġbutter": 3415,
      "ĠOnce": 3416,
      "Ġchlor": 3417,
      "Ġsimultaneously": 3418,
      "ĠRem": 3419,
      "Ġfactor": 3420,
      "Ġcurrently": 3421,
      "inn": 3422,
      "Ġdead": 3423,
      "Ġcentury": 3424,
      "Ġident": 3425,
      "Ġimag": 3426,
      "Ġbiggest": 3427,
      "Ġcars": 3428,
      "Ġ...": 3429,
      "Ġfirm": 3430,
      "Ġtransfer": 3431,
      "Ġtail": 3432,
      "ros": 3433,
      "Ġindustries": 3434,
      "IC": 3435,
      "Do": 3436,
      "Ġhypothes": 3437,
      "Ġapply": 3438,
      "Ġwoman": 3439,
      "Ġdim": 3440,
      ".com": 3441,
      "Ġmigr": 3442,
      "Ġschedule": 3443,
      "Ġmirror": 3444,
      "Ġiron": 3445,
      "Ġconvers": 3446,
      "aper": 3447,
      "Ġve": 3448,
      "Ġsuccessful": 3449,
      "Ġanyone": 3450,
      "Ġthird": 3451,
      "Ġtaste": 3452,
      "Ġobtain": 3453,
      "Ġclimb": 3454,
      "Ġcircumstances": 3455,
      "28": 3456,
      "Ġflower": 3457,
      "Ġwalk": 3458,
      "Ġquick": 3459,
      "Ġreaction": 3460,
      "ries": 3461,
      "Ġwrong": 3462,
      "Ġmouth": 3463,
      "Ġoutdoors": 3464,
      "Ġwire": 3465,
      "Ġdocuments": 3466,
      "ĠAtlantic": 3467,
      "idence": 3468,
      "Ġbroad": 3469,
      "Ġnews": 3470,
      "ĠChinese": 3471,
      "Ġfloor": 3472,
      "Ġswim": 3473,
      "ĠSup": 3474,
      "Ġlocated": 3475,
      "Ġbrown": 3476,
      "Ġfa": 3477,
      "Ġinform": 3478,
      "ĠWater": 3479,
      "ĠCollege": 3480,
      "Ġinteresting": 3481,
      "Ġopportunity": 3482,
      "ulf": 3483,
      "Ġroad": 3484,
      "26": 3485,
      "\".": 3486,
      "Ġnitrogen": 3487,
      "roll": 3488,
      "me": 3489,
      "ĠOver": 3490,
      "Ġexperiment": 3491,
      "uilding": 3492,
      "Ġgar": 3493,
      "odes": 3494,
      "Ġincredibly": 3495,
      "Ġhaven": 3496,
      "ogen": 3497,
      "Ġpers": 3498,
      "Ġrocks": 3499,
      "Ġpossess": 3500,
      "Ġdespite": 3501,
      "Ġeffectively": 3502,
      "Ġmuscle": 3503,
      "Ġcoming": 3504,
      "Ġpaint": 3505,
      "Ġsolid": 3506,
      "Ġbelieved": 3507,
      "Ġlibrary": 3508,
      "27": 3509,
      "reed": 3510,
      "roc": 3511,
      "Ġround": 3512,
      "ĠToday": 3513,
      "ĠQu": 3514,
      "Ġculture": 3515,
      "iction": 3516,
      "Ġmount": 3517,
      "apter": 3518,
      "Ġforward": 3519,
      "estic": 3520,
      "encies": 3521,
      "Ġaesth": 3522,
      "Ġoccurs": 3523,
      "ĠDec": 3524,
      "Ġfight": 3525,
      "aid": 3526,
      "Ġdirections": 3527,
      "Ġcapabilities": 3528,
      "Pl": 3529,
      "Ġhear": 3530,
      "pers": 3531,
      "Ġemployees": 3532,
      "Ġroof": 3533,
      "hip": 3534,
      "Ġdepend": 3535,
      "Ġinches": 3536,
      "Ġlooks": 3537,
      "Ġtutor": 3538,
      "Ġschools": 3539,
      "ĠCouncil": 3540,
      "agement": 3541,
      "Now": 3542,
      "IT": 3543,
      "Ġscale": 3544,
      "Ġprocedures": 3545,
      "ender": 3546,
      "Ġspeech": 3547,
      "Ġsex": 3548,
      "ĠSw": 3549,
      "Ġsupplement": 3550,
      "ĠProgram": 3551,
      "Ġdriver": 3552,
      "ĠTexas": 3553,
      "Ġcount": 3554,
      "Ġjewelry": 3555,
      "Ġweak": 3556,
      "Ġwet": 3557,
      "efore": 3558,
      "itis": 3559,
      "ugs": 3560,
      "Ġkeeping": 3561,
      "Ġreceive": 3562,
      "Ġadvanced": 3563,
      "Ġstrategies": 3564,
      "charge": 3565,
      "Ġproperty": 3566,
      "Ġnote": 3567,
      "Ġrecycling": 3568,
      "Ġreinfor": 3569,
      "Ġoutcomes": 3570,
      "Ġcup": 3571,
      "Ġinsurance": 3572,
      "Ġcolour": 3573,
      "ĠBecause": 3574,
      "Ġhospital": 3575,
      "Ġaquarium": 3576,
      "Ġflavor": 3577,
      "rict": 3578,
      "Ġelectricity": 3579,
      "orms": 3580,
      "Ġexperiences": 3581,
      "Ġtask": 3582,
      "Ġchance": 3583,
      "Ġdecision": 3584,
      "Ġexpensive": 3585,
      "Ġantioxid": 3586,
      "Ġvia": 3587,
      "ĠRed": 3588,
      "Ġcy": 3589,
      "off": 3590,
      "ĠSociety": 3591,
      "asting": 3592,
      "Ġallerg": 3593,
      "Ġaccept": 3594,
      "bi": 3595,
      "ĠVirginia": 3596,
      "Ġcontribut": 3597,
      "Ġcombination": 3598,
      "Ġfilter": 3599,
      "ĠJust": 3600,
      "Ġdetails": 3601,
      "Ġgiving": 3602,
      "ĠEach": 3603,
      "ĠGerman": 3604,
      "Ġ|": 3605,
      "Ġgain": 3606,
      "Ġprocessing": 3607,
      "ky": 3608,
      "used": 3609,
      "Ġextremely": 3610,
      "Ġrecently": 3611,
      "Ġnutrient": 3612,
      "32": 3613,
      "Ġphotos": 3614,
      "Ġlov": 3615,
      "Ġfrequency": 3616,
      "Ġtank": 3617,
      "Ġstick": 3618,
      "irect": 3619,
      "Ġeffort": 3620,
      "09": 3621,
      "ĠService": 3622,
      "Ġoffic": 3623,
      "Ġship": 3624,
      "roph": 3625,
      "Ġphosph": 3626,
      "Ġopposite": 3627,
      "Ġnotice": 3628,
      "Ġguidance": 3629,
      "Ġatmospheric": 3630,
      "Ġsaw": 3631,
      "Ġacademic": 3632,
      "ĠMe": 3633,
      "Ġsteel": 3634,
      "rim": 3635,
      "Ġtherefore": 3636,
      "Ġgrav": 3637,
      "ĠMake": 3638,
      "acement": 3639,
      "Ġonto": 3640,
      "Ġ#": 3641,
      "Ġreduced": 3642,
      "Ġnative": 3643,
      "usion": 3644,
      "ĠTwo": 3645,
      "Ġreflect": 3646,
      "iqu": 3647,
      "ffective": 3648,
      ".g": 3649,
      "Ġconnected": 3650,
      "ĠAct": 3651,
      "bit": 3652,
      "Ġincluded": 3653,
      "Ġhandle": 3654,
      "Ġnarrow": 3655,
      "Ad": 3656,
      "ĠCenter": 3657,
      "Ġtra": 3658,
      "Ġbrand": 3659,
      "Ġsauce": 3660,
      "Ġwin": 3661,
      "Ġexamples": 3662,
      "Some": 3663,
      "Ġbooks": 3664,
      "Ġwidespread": 3665,
      "Ġwrite": 3666,
      "Ġeth": 3667,
      "onal": 3668,
      "Ġgene": 3669,
      "Ġsmart": 3670,
      "Ġparticles": 3671,
      "Ġexpected": 3672,
      "ĠAntarctic": 3673,
      "Ġsession": 3674,
      "asc": 3675,
      "ament": 3676,
      "tes": 3677,
      "Ġupd": 3678,
      "ĠMiddle": 3679,
      "Ġstructures": 3680,
      "ĠPennsylvania": 3681,
      "Ġstyles": 3682,
      "Ġgardens": 3683,
      "OS": 3684,
      "Ġremain": 3685,
      "Ġmosquit": 3686,
      "-e": 3687,
      "Sc": 3688,
      "Ġtherapeutic": 3689,
      "Ġheight": 3690,
      "Ġstre": 3691,
      "Ġdinosaurs": 3692,
      "Ġpresence": 3693,
      "08": 3694,
      "Ġlost": 3695,
      "ĠÂ": 3696,
      "Ġdebris": 3697,
      "owing": 3698,
      "Ġnoise": 3699,
      "Ġfair": 3700,
      "Ġrespond": 3701,
      "Ġmag": 3702,
      "Ġmap": 3703,
      "Ġcoordin": 3704,
      "Ġplanet": 3705,
      "ĠIts": 3706,
      "NA": 3707,
      "RE": 3708,
      "Ġtests": 3709,
      "Ġdetect": 3710,
      "Ġcommunities": 3711,
      "Ġgenes": 3712,
      "orks": 3713,
      "Ġlivestock": 3714,
      "Ġaffected": 3715,
      "ĠLearn": 3716,
      "Ġattack": 3717,
      "Ġchanging": 3718,
      "estern": 3719,
      "Ġrelease": 3720,
      "Ġcomfortable": 3721,
      "olar": 3722,
      "People": 3723,
      "Ġwrote": 3724,
      "ĠChildren": 3725,
      "Ġsounds": 3726,
      "Ġtooth": 3727,
      "Ġthus": 3728,
      "Ġdeliver": 3729,
      "Ġphone": 3730,
      "Ġfemales": 3731,
      "Ġopportunities": 3732,
      "Ġexercises": 3733,
      "Ġvinegar": 3734,
      "Ġdelivery": 3735,
      "Ġsites": 3736,
      "ĠAcademy": 3737,
      "ĠAccording": 3738,
      "Ġlanguages": 3739,
      "Ġhit": 3740,
      "ĠEven": 3741,
      "Ġtitle": 3742,
      "alt": 3743,
      "Ġgoals": 3744,
      "inding": 3745,
      "ĠNatural": 3746,
      "iant": 3747,
      "Ġdest": 3748,
      "Ġteachers": 3749,
      "Ġvolunte": 3750,
      "Ġdriving": 3751,
      "Ġmembrane": 3752,
      "posed": 3753,
      "ĠNe": 3754,
      "Ġinterpret": 3755,
      "Ġplaced": 3756,
      "Ġarticles": 3757,
      "Ġbranches": 3758,
      "Ġtropical": 3759,
      "Ġmotion": 3760,
      "ĠOcean": 3761,
      "Ġremains": 3762,
      "ells": 3763,
      "ĠHigh": 3764,
      "Ġalthough": 3765,
      "Ġgovern": 3766,
      "Ġmyself": 3767,
      "ds": 3768,
      "esting": 3769,
      "Ġincreases": 3770,
      "Ġmedium": 3771,
      "Ġflight": 3772,
      "ĠTHE": 3773,
      "Ġauthors": 3774,
      "Ġversion": 3775,
      "Ġdepth": 3776,
      "ĠPacific": 3777,
      "Ġthin": 3778,
      "Ġexpand": 3779,
      "Ġmut": 3780,
      "Ġflat": 3781,
      "ĠMediterranean": 3782,
      "Ġmaximum": 3783,
      "anch": 3784,
      "Ġteaching": 3785,
      "Ġsnow": 3786,
      "Ġtissues": 3787,
      "encing": 3788,
      "Ġdepends": 3789,
      "Tr": 3790,
      "Ġcoast": 3791,
      "aught": 3792,
      "Ġcontemporary": 3793,
      "Ġinh": 3794,
      "Ġ:": 3795,
      "Ġpreparation": 3796,
      "Ġmanage": 3797,
      "Ġopinion": 3798,
      "ients": 3799,
      "Ġbone": 3800,
      "Ġstim": 3801,
      "Ġabnormal": 3802,
      "ĠOp": 3803,
      "inter": 3804,
      "Ġdifferences": 3805,
      "ogs": 3806,
      "Ġunnecessary": 3807,
      "Ġinsects": 3808,
      "hood": 3809,
      "rier": 3810,
      "05": 3811,
      "och": 3812,
      "Ġexplain": 3813,
      "onduct": 3814,
      "ĠHistory": 3815,
      "ID": 3816,
      "Ġfoliage": 3817,
      "ĠPar": 3818,
      "eless": 3819,
      "Ġflavors": 3820,
      "Ġadop": 3821,
      "Ġfilm": 3822,
      "Ġvolume": 3823,
      "Ġmid": 3824,
      "aughter": 3825,
      "ĠGroup": 3826,
      "Ġpolitical": 3827,
      "Ġimpossible": 3828,
      "Ġfluid": 3829,
      "Ġmeasuring": 3830,
      "ĠClean": 3831,
      "Ġinstance": 3832,
      "Ġstuff": 3833,
      "iers": 3834,
      "Ġalone": 3835,
      "con": 3836,
      "ĠIndia": 3837,
      "fish": 3838,
      "Ġguarant": 3839,
      "que": 3840,
      "Ġsold": 3841,
      "Ġton": 3842,
      "ÂŃ": 3843,
      "Ġdem": 3844,
      "Ġpromoting": 3845,
      "Ġfeeling": 3846,
      "ceed": 3847,
      "Ġkill": 3848,
      "Using": 3849,
      "Ġmilitary": 3850,
      "Ġphotograph": 3851,
      "Ġdairy": 3852,
      "Ġunivers": 3853,
      "Ġdiameter": 3854,
      "Ġchosen": 3855,
      "Ġcylind": 3856,
      "Ġefforts": 3857,
      "oses": 3858,
      "Here": 3859,
      "Ġund": 3860,
      "Ġlabor": 3861,
      "Ġspect": 3862,
      "itor": 3863,
      "etics": 3864,
      "ĠDevelopment": 3865,
      "Ġdescribed": 3866,
      "07": 3867,
      "Ġbrush": 3868,
      "Ġorgans": 3869,
      "Ġreported": 3870,
      "rig": 3871,
      "ĠMon": 3872,
      "Ġmic": 3873,
      "Ġresulting": 3874,
      "Ġclick": 3875,
      "ĠMuseum": 3876,
      "Ġdoor": 3877,
      "ĠFoundation": 3878,
      "lets": 3879,
      "ded": 3880,
      "Ġdiscover": 3881,
      "Ġsupplies": 3882,
      "clus": 3883,
      "Ġpool": 3884,
      "Ġpat": 3885,
      "uction": 3886,
      "izz": 3887,
      "Ġrules": 3888,
      "...Ċ": 3889,
      "Ġox": 3890,
      "Ġbegan": 3891,
      "Ġrub": 3892,
      "Ġvessels": 3893,
      "gl": 3894,
      "Ġpets": 3895,
      "ta": 3896,
      "Ġcatch": 3897,
      "Ġroots": 3898,
      "Ġchannel": 3899,
      "ĠMod": 3900,
      "Ġdeb": 3901,
      "ĠRo": 3902,
      "Ġresist": 3903,
      "new": 3904,
      "raz": 3905,
      "Ġwent": 3906,
      "aches": 3907,
      "ading": 3908,
      "ON": 3909,
      "Ġinterface": 3910,
      "iling": 3911,
      "Ġegg": 3912,
      "Ġfly": 3913,
      "Ġdate": 3914,
      "Ġsurpr": 3915,
      "AM": 3916,
      "ĠAlthough": 3917,
      "Ġchromos": 3918,
      "All": 3919,
      "29": 3920,
      "Ġrequ": 3921,
      "Ġlights": 3922,
      "ĠState": 3923,
      "ĠEd": 3924,
      "Ġmaintaining": 3925,
      "Ġvertical": 3926,
      "Ġserve": 3927,
      "Ġneutral": 3928,
      "Ġplanning": 3929,
      "Ġcivil": 3930,
      "However": 3931,
      "Sp": 3932,
      "Ġsessions": 3933,
      "ception": 3934,
      "Ã©": 3935,
      "Ġfinding": 3936,
      "idents": 3937,
      "Ġdistingu": 3938,
      "Ġautomatically": 3939,
      "ediatric": 3940,
      "apt": 3941,
      "iter": 3942,
      "Ġmale": 3943,
      "ares": 3944,
      "Ġrise": 3945,
      "Ġexisting": 3946,
      "Ġhighlight": 3947,
      "aks": 3948,
      "Ġappearance": 3949,
      "36": 3950,
      "ĠRead": 3951,
      "Ġpopulations": 3952,
      "Ġmatrix": 3953,
      "Ġpal": 3954,
      "Ġrates": 3955,
      "ĠBi": 3956,
      "Ġelectromagnetic": 3957,
      "Ġinfluence": 3958,
      "Ġsignificance": 3959,
      "Ġowners": 3960,
      "Ġvibrant": 3961,
      "inger": 3962,
      "izer": 3963,
      "Ġarm": 3964,
      "Ġwel": 3965,
      "Ġcontext": 3966,
      "Ġacknowled": 3967,
      "Ġcustomers": 3968,
      "Ġvital": 3969,
      "02": 3970,
      "Ġnoticed": 3971,
      "Ġequivalent": 3972,
      "Ġcovered": 3973,
      "Ġcollection": 3974,
      "75": 3975,
      "Ġregularly": 3976,
      "Ġspend": 3977,
      "yr": 3978,
      "Ġbabies": 3979,
      "ocal": 3980,
      "Ġplease": 3981,
      "Ġstroke": 3982,
      "Ġhelping": 3983,
      "ĠMin": 3984,
      "Ġhabitat": 3985,
      "Ġexecut": 3986,
      "Ġsplit": 3987,
      "key": 3988,
      "lex": 3989,
      "Ġfamilies": 3990,
      "ython": 3991,
      "Ġbeginning": 3992,
      "Ġwritten": 3993,
      "rec": 3994,
      "AD": 3995,
      "rows": 3996,
      "ipped": 3997,
      "Ġpig": 3998,
      "Ġallowed": 3999,
      "ux": 4000,
      "Ġsatellite": 4001,
      "Ġcore": 4002,
      "Ġaccurate": 4003,
      "Ġactual": 4004,
      "PS": 4005,
      "ĠDon": 4006,
      "ĠLab": 4007,
      "Ġhygiene": 4008,
      "Ġhour": 4009,
      "Ġpromote": 4010,
      "Ġversatile": 4011,
      "Ġkid": 4012,
      "ĠGod": 4013,
      "Ġdigestive": 4014,
      "Ġathlet": 4015,
      "Ġmiles": 4016,
      "Ġseparate": 4017,
      "Ġcomplic": 4018,
      "Ġnervous": 4019,
      "ĠSince": 4020,
      "Ġasked": 4021,
      "Ġbacterial": 4022,
      "uses": 4023,
      "can": 4024,
      "Ġnational": 4025,
      "orrect": 4026,
      "Ġconsult": 4027,
      "Ġphase": 4028,
      "Ġstaff": 4029,
      "Ġfill": 4030,
      "Ġqual": 4031,
      "Ġbath": 4032,
      "Ġcitizens": 4033,
      "Ġnearly": 4034,
      "Ġunexpected": 4035,
      "06": 4036,
      "Abstract": 4037,
      "Ġevolved": 4038,
      "ĠLondon": 4039,
      "Ġlighting": 4040,
      "Ġcentral": 4041,
      "EM": 4042,
      "Ġinstructions": 4043,
      "Ġcamp": 4044,
      "Ġtrust": 4045,
      "side": 4046,
      "Ġdrain": 4047,
      "wards": 4048,
      "ĠDis": 4049,
      "Ġgre": 4050,
      "inally": 4051,
      "lines": 4052,
      "etween": 4053,
      "ĠFood": 4054,
      "ĠUK": 4055,
      "Ġchemicals": 4056,
      "ĠHuman": 4057,
      "ĠAss": 4058,
      "ĠOther": 4059,
      "Ġregions": 4060,
      "ued": 4061,
      "Ġelectron": 4062,
      "Ġder": 4063,
      "Ġmolecules": 4064,
      "Ġec": 4065,
      "-like": 4066,
      "Ġstem": 4067,
      "Ġprint": 4068,
      "Ġadminist": 4069,
      "Ġpotatoes": 4070,
      "bl": 4071,
      "Ġbecoming": 4072,
      "Ġlarvae": 4073,
      "Ġadult": 4074,
      "Ġexchange": 4075,
      "uk": 4076,
      "otes": 4077,
      "Ġpen": 4078,
      "Ġcomparison": 4079,
      "04": 4080,
      "Ġtrip": 4081,
      "Ġancest": 4082,
      "ype": 4083,
      "Ġabsorb": 4084,
      "ĠSec": 4085,
      "Ġâ": 4086,
      "ĠInter": 4087,
      "Ġuncomfortable": 4088,
      "ET": 4089,
      "Ġsort": 4090,
      "Ġfrequently": 4091,
      "ements": 4092,
      "Ġmarine": 4093,
      "Ġmovie": 4094,
      "Ġtopic": 4095
    },
    "merges": [
      [
        "Ġ",
        "t",
        "h",
        "e"
      ],
      [
        "Ġ",
        "a"
      ],
      [
        "i",
        "n"
      ],
      [
        "e",
        "r"
      ],
      [
        "Ġ",
        "t"
      ],
      [
        "t",
        "i",
        "o",
        "n"
      ],
      [
        "r",
        "e"
      ],
      [
        "Ġ",
        "o"
      ],
      [
        "Ġa",
        "n",
        "d"
      ],
      [
        "Ġ",
        "s"
      ],
      [
        "Ġ",
        "c"
      ],
      [
        "e",
        "n"
      ],
      [
        "e",
        "s"
      ],
      [
        "a",
        "t"
      ],
      [
        "Ġ",
        "w"
      ],
      [
        "Ġ",
        "y",
        "o",
        "u"
      ],
      [
        "in",
        "g"
      ],
      [
        "a",
        "n"
      ],
      [
        "i",
        "s"
      ],
      [
        "Ġ",
        "p"
      ],
      [
        "i",
        "t"
      ],
      [
        "o",
        "r"
      ],
      [
        "Ġ",
        "b"
      ],
      [
        "Ġ",
        "f"
      ],
      [
        "a",
        "l"
      ],
      [
        "e",
        "d"
      ],
      [
        "Ġ",
        "m"
      ],
      [
        "Ġt",
        "o"
      ],
      [
        "o",
        "n"
      ],
      [
        "a",
        "r"
      ],
      [
        "Ġo",
        "f"
      ],
      [
        "Ġ",
        "in"
      ],
      [
        "Ġ",
        "d"
      ],
      [
        "r",
        "o"
      ],
      [
        "i",
        "c"
      ],
      [
        "Ġ",
        "h"
      ],
      [
        "l",
        "e"
      ],
      [
        "a",
        "s"
      ],
      [
        "Ġt",
        "h"
      ],
      [
        "o",
        "u"
      ],
      [
        "en",
        "t"
      ],
      [
        "Ġ",
        "e"
      ],
      [
        "Ġ",
        "l"
      ],
      [
        "Ġ",
        "T",
        "h"
      ],
      [
        "i",
        "l"
      ],
      [
        "e",
        "l"
      ],
      [
        "Ġ",
        "re"
      ],
      [
        "o",
        "m"
      ],
      [
        "u",
        "s"
      ],
      [
        "Ġ",
        "is"
      ],
      [
        "Ġw",
        "it",
        "h"
      ],
      [
        ".",
        "Ċ"
      ],
      [
        "e",
        "t"
      ],
      [
        "Ġ",
        "n"
      ],
      [
        "a",
        "c"
      ],
      [
        "e",
        "c"
      ],
      [
        "Ġ",
        "g"
      ],
      [
        "v",
        "e"
      ],
      [
        "i",
        "g",
        "h",
        "t"
      ],
      [
        "o",
        "w"
      ],
      [
        "l",
        "y"
      ],
      [
        "i",
        "m"
      ],
      [
        "i",
        "d"
      ],
      [
        "t",
        "h"
      ],
      [
        "o",
        "l"
      ],
      [
        "Ġ",
        "A",
        "n",
        "s",
        "w",
        "er"
      ],
      [
        "Ġf",
        "or"
      ],
      [
        "s",
        "t"
      ],
      [
        "u",
        "t"
      ],
      [
        "u",
        "r"
      ],
      [
        "Ġb",
        "e"
      ],
      [
        "a",
        "tion"
      ],
      [
        "Ġo",
        "n"
      ],
      [
        "Ġs",
        "t"
      ],
      [
        "u",
        "n"
      ],
      [
        "Ġ",
        "I"
      ],
      [
        "Ġth",
        "at"
      ],
      [
        "i",
        "r"
      ],
      [
        "Ġw",
        "h"
      ],
      [
        "o",
        "t"
      ],
      [
        "v",
        "er"
      ],
      [
        "a",
        "y"
      ],
      [
        "Ġ",
        "it"
      ],
      [
        "Ġa",
        "re"
      ],
      [
        "a",
        "m"
      ],
      [
        "u",
        "l"
      ],
      [
        "Ġh",
        "a",
        "ve"
      ],
      [
        "c",
        "e"
      ],
      [
        "Ġp",
        "ro"
      ],
      [
        "Ġ",
        "A"
      ],
      [
        "Ġf",
        "ro",
        "m"
      ],
      [
        "c",
        "h"
      ],
      [
        "a",
        "d"
      ],
      [
        "i",
        "f"
      ],
      [
        "Ġa",
        "n"
      ],
      [
        "t",
        "er"
      ],
      [
        "Ġ",
        "S"
      ],
      [
        "Ġo",
        "r"
      ],
      [
        "Ġa",
        "s"
      ],
      [
        "Ġc",
        "on"
      ],
      [
        ".Ċ",
        "Ċ"
      ],
      [
        "Ġa",
        "l"
      ],
      [
        "o",
        "d"
      ],
      [
        "s",
        "e"
      ],
      [
        "Q",
        "u",
        "es",
        "tion"
      ],
      [
        "Ġ",
        "C"
      ],
      [
        "i",
        "g"
      ],
      [
        "t",
        "s"
      ],
      [
        "Ċ",
        "Ċ"
      ],
      [
        "ou",
        "l",
        "d"
      ],
      [
        "Ġc",
        "an"
      ],
      [
        "er",
        "s"
      ],
      [
        "e",
        "m"
      ],
      [
        "k",
        "e"
      ],
      [
        "a",
        "b"
      ],
      [
        "a",
        "g"
      ],
      [
        "a",
        "in"
      ],
      [
        "es",
        "s"
      ],
      [
        "Ġw",
        "il",
        "l"
      ],
      [
        "Ġ",
        "W",
        "h"
      ],
      [
        "u",
        "re"
      ],
      [
        "Ġc",
        "om",
        "p"
      ],
      [
        "u",
        "m"
      ],
      [
        "Ġa",
        "b",
        "ou",
        "t"
      ],
      [
        "Ġe",
        "x"
      ],
      [
        "o",
        "re"
      ],
      [
        "Ġc",
        "h"
      ],
      [
        "q",
        "u"
      ],
      [
        "Ġ",
        "r"
      ],
      [
        "'",
        "s"
      ],
      [
        "at",
        "e"
      ],
      [
        "Ġyou",
        "r"
      ],
      [
        "Ġ",
        "v"
      ],
      [
        "o",
        "p"
      ],
      [
        "Ġ",
        "us"
      ],
      [
        "c",
        "t"
      ],
      [
        "i",
        "es"
      ],
      [
        "a",
        "p"
      ],
      [
        "it",
        "y"
      ],
      [
        "ĠTh",
        "e"
      ],
      [
        "T",
        "h",
        "e"
      ],
      [
        "Ġs",
        "h"
      ],
      [
        "o",
        "s"
      ],
      [
        "i",
        "ve"
      ],
      [
        "Ġ",
        "P"
      ],
      [
        "Ġ",
        "M"
      ],
      [
        "u",
        "p"
      ],
      [
        "an",
        "t"
      ],
      [
        "an",
        "d"
      ],
      [
        "Ġ",
        "im",
        "p"
      ],
      [
        "Ġ",
        "B"
      ],
      [
        "i",
        "v"
      ],
      [
        "Ġ",
        "en"
      ],
      [
        "Ġ",
        "("
      ],
      [
        "Ġth",
        "ro",
        "u",
        "g",
        "h"
      ],
      [
        "es",
        "t"
      ],
      [
        "Ġwh",
        "ic",
        "h"
      ],
      [
        "m",
        "ent"
      ],
      [
        "Ġin",
        "c",
        "l",
        "u",
        "d"
      ],
      [
        "Ġa",
        "t"
      ],
      [
        "Ġs",
        "p"
      ],
      [
        "Ġ",
        "k",
        "n",
        "ow"
      ],
      [
        "Ġn",
        "e"
      ],
      [
        "i",
        "al"
      ],
      [
        "Ġal",
        "s",
        "o"
      ],
      [
        "i",
        "on"
      ],
      [
        "is",
        "t"
      ],
      [
        "Ġ",
        "le"
      ],
      [
        "Ġd",
        "o"
      ],
      [
        "er",
        "e"
      ],
      [
        "ec",
        "t"
      ],
      [
        "Ġd",
        "if",
        "f",
        "er"
      ],
      [
        "o",
        "o",
        "k"
      ],
      [
        "om",
        "e"
      ],
      [
        "Ġa",
        "p",
        "p"
      ],
      [
        "Ġd",
        "e"
      ],
      [
        "Ġ",
        "y",
        "e",
        "ar"
      ],
      [
        "Ġ",
        "D"
      ],
      [
        "Ġt",
        "r"
      ],
      [
        "Ġp",
        "l"
      ],
      [
        "Ġw",
        "e"
      ],
      [
        "Ġb",
        "y"
      ],
      [
        "re",
        "s"
      ],
      [
        "Ġ",
        "H"
      ],
      [
        "Ġs",
        "e"
      ],
      [
        "u",
        "c"
      ],
      [
        "Ġ",
        "un",
        "d",
        "er"
      ],
      [
        "o",
        "c"
      ],
      [
        "Ġo",
        "th",
        "er"
      ],
      [
        "al",
        "l"
      ],
      [
        "Ġn",
        "ot"
      ],
      [
        "i",
        "p"
      ],
      [
        "us",
        "t"
      ],
      [
        "Ġ",
        "F"
      ],
      [
        "Ġh",
        "e"
      ],
      [
        "Ġb",
        "et",
        "w",
        "e",
        "en"
      ],
      [
        "el",
        "l"
      ],
      [
        "Ġth",
        "is"
      ],
      [
        "ic",
        "al"
      ],
      [
        "Ġp",
        "e",
        "op",
        "le"
      ],
      [
        "or",
        "t"
      ],
      [
        "Ġw",
        "or",
        "k"
      ],
      [
        "Ġb",
        "ec",
        "a",
        "us",
        "e"
      ],
      [
        "Ġ",
        "T"
      ],
      [
        "i",
        "b"
      ],
      [
        "ar",
        "t"
      ],
      [
        "Ġs",
        "y",
        "st",
        "em"
      ],
      [
        "ou",
        "n"
      ],
      [
        "Ġin",
        "t",
        "o"
      ],
      [
        "Ġ",
        "E"
      ],
      [
        "in",
        "e"
      ],
      [
        "o",
        "st"
      ],
      [
        "o",
        "g"
      ],
      [
        "p",
        "er"
      ],
      [
        "ar",
        "d"
      ],
      [
        "Ġl",
        "i",
        "ke"
      ],
      [
        "a",
        "k"
      ],
      [
        "Ġt",
        "im",
        "e"
      ],
      [
        "id",
        "e"
      ],
      [
        "ou",
        "r"
      ],
      [
        "g",
        "e"
      ],
      [
        "f",
        "or",
        "m"
      ],
      [
        "Ġ",
        "R"
      ],
      [
        "Ġh",
        "el",
        "p"
      ],
      [
        "ac",
        "t"
      ],
      [
        "â",
        "Ģ"
      ],
      [
        "Ġthe",
        "y"
      ],
      [
        "Ġthe",
        "ir"
      ],
      [
        "f",
        "f"
      ],
      [
        "o",
        "od"
      ],
      [
        "i",
        "z"
      ],
      [
        "Ġc",
        "om",
        "m"
      ],
      [
        "il",
        "l"
      ],
      [
        "Ġs",
        "u"
      ],
      [
        "as",
        "t"
      ],
      [
        "a",
        "re"
      ],
      [
        "a",
        "v"
      ],
      [
        "at",
        "er"
      ],
      [
        "ac",
        "h"
      ],
      [
        "Ġ",
        "W"
      ],
      [
        "Ġa",
        "d"
      ],
      [
        "Ġ",
        "N"
      ],
      [
        "ro",
        "un",
        "d"
      ],
      [
        "Ġst",
        "u",
        "d"
      ],
      [
        "Ġde",
        "v",
        "el",
        "op"
      ],
      [
        "Ġh",
        "ig",
        "h"
      ],
      [
        "ab",
        "le"
      ],
      [
        "Ġal",
        "l"
      ],
      [
        "Ġ",
        "L"
      ],
      [
        "e",
        "p"
      ],
      [
        "a",
        "ke"
      ],
      [
        "ag",
        "e"
      ],
      [
        "Ġm",
        "ore"
      ],
      [
        "Ġw",
        "as"
      ],
      [
        "at",
        "ed"
      ],
      [
        "en",
        "d"
      ],
      [
        "ou",
        "g",
        "h"
      ],
      [
        "Ġa",
        "c",
        "c"
      ],
      [
        "Ġen",
        "v",
        "ir",
        "on",
        "ment"
      ],
      [
        "Ġ",
        "G"
      ],
      [
        "Ġcon",
        "t"
      ],
      [
        "Ġt",
        "ec",
        "h",
        "n"
      ],
      [
        "Ġb",
        "ut"
      ],
      [
        "p",
        "l"
      ],
      [
        "ac",
        "k"
      ],
      [
        "al",
        "ly"
      ],
      [
        "Ġs",
        "o"
      ],
      [
        "i",
        "ou",
        "s"
      ],
      [
        "an",
        "s"
      ],
      [
        "in",
        "d"
      ],
      [
        "en",
        "ce"
      ],
      [
        "Ġ",
        "O"
      ],
      [
        "i",
        "tion"
      ],
      [
        "ĠI",
        "n"
      ],
      [
        "Ġ",
        "j"
      ],
      [
        "Ġc",
        "l"
      ],
      [
        "on",
        "g"
      ],
      [
        "Ġre",
        "s"
      ],
      [
        "Ġd",
        "es",
        "ig",
        "n"
      ],
      [
        "an",
        "ce"
      ],
      [
        "Ġd",
        "is"
      ],
      [
        "Ġh",
        "as"
      ],
      [
        "Ġre",
        "se",
        "ar",
        "ch"
      ],
      [
        "Ġ",
        "un"
      ],
      [
        "i",
        "re"
      ],
      [
        "Ġo",
        "ut"
      ],
      [
        "Ġ",
        "\""
      ],
      [
        "Ġt",
        "y",
        "p"
      ],
      [
        "Ġm",
        "e"
      ],
      [
        "ation",
        "s"
      ],
      [
        "en",
        "s"
      ],
      [
        "o",
        "th"
      ],
      [
        "ent",
        "s"
      ],
      [
        "Ġm",
        "an",
        "y"
      ],
      [
        "Ġin",
        "c",
        "re",
        "as"
      ],
      [
        "Ġ",
        "ro"
      ],
      [
        "Ġp",
        "re"
      ],
      [
        "'",
        "t"
      ],
      [
        "Ġhe",
        "al",
        "th"
      ],
      [
        "ul",
        "t"
      ],
      [
        "on",
        "e"
      ],
      [
        "h",
        "er"
      ],
      [
        "re",
        "at"
      ],
      [
        "Ġon",
        "e"
      ],
      [
        "Ġf",
        "e"
      ],
      [
        "Ġw",
        "or",
        "l",
        "d"
      ],
      [
        "el",
        "y"
      ],
      [
        "ver",
        "y"
      ],
      [
        "ac",
        "e"
      ],
      [
        "u",
        "e"
      ],
      [
        "Ġin",
        "d",
        "iv",
        "id",
        "u",
        "al"
      ],
      [
        "Ġ",
        "up"
      ],
      [
        "r",
        "y"
      ],
      [
        "Ġt",
        "w",
        "o"
      ],
      [
        "2",
        "0"
      ],
      [
        "Ġthe",
        "m"
      ],
      [
        "ic",
        "e"
      ],
      [
        "as",
        "s"
      ],
      [
        "Ġf",
        "ol",
        "l",
        "ow"
      ],
      [
        "i",
        "e"
      ],
      [
        "Ġ",
        "U"
      ],
      [
        "or",
        "s"
      ],
      [
        "Ġpro",
        "b",
        "le",
        "m"
      ],
      [
        "Ġp",
        "er"
      ],
      [
        "Ġt",
        "em",
        "per",
        "at",
        "ure"
      ],
      [
        "Ġf",
        "ir",
        "st"
      ],
      [
        "ar",
        "y"
      ],
      [
        "o",
        "se"
      ],
      [
        "is",
        "h"
      ],
      [
        "res",
        "s"
      ],
      [
        "Ġen",
        "er",
        "g",
        "y"
      ],
      [
        "Ġp",
        "r"
      ],
      [
        "il",
        "d"
      ],
      [
        "Ġwh",
        "en"
      ],
      [
        "Ġ",
        "qu"
      ],
      [
        "ĠI",
        "t"
      ],
      [
        "Ġs",
        "ome"
      ],
      [
        "Ġf",
        "l"
      ],
      [
        "i",
        "le"
      ],
      [
        "tion",
        "s"
      ],
      [
        "Ġpro",
        "c",
        "ess"
      ],
      [
        "Ġc",
        "a",
        "us"
      ],
      [
        "Ġe",
        "v"
      ],
      [
        "Ġe",
        "le",
        "ct",
        "r"
      ],
      [
        "Ġ",
        "if"
      ],
      [
        "i",
        "a"
      ],
      [
        "Ġs",
        "ig",
        "n"
      ],
      [
        "Ġs",
        "c"
      ],
      [
        "a",
        "il"
      ],
      [
        "am",
        "e"
      ],
      [
        "Ġg",
        "ro",
        "w"
      ],
      [
        "or",
        "d"
      ],
      [
        "Ġcon",
        "s",
        "id",
        "er"
      ],
      [
        "Ġne",
        "ed"
      ],
      [
        "d",
        "uc"
      ],
      [
        "ay",
        "s"
      ],
      [
        "t",
        "ing"
      ],
      [
        "as",
        "e"
      ],
      [
        "ĠWh",
        "at"
      ],
      [
        "Ġus",
        "e"
      ],
      [
        "it",
        "e"
      ],
      [
        "Ġc",
        "ol"
      ],
      [
        "Ġh",
        "ow"
      ],
      [
        "ĠTh",
        "is"
      ],
      [
        "re",
        "n"
      ],
      [
        "Ġ",
        "Y"
      ],
      [
        "Ġle",
        "ar",
        "n"
      ],
      [
        "Ġs",
        "up",
        "p"
      ],
      [
        "oun",
        "d"
      ],
      [
        "Ġm",
        "ay"
      ],
      [
        "ic",
        "k"
      ],
      [
        "Ġt",
        "e"
      ],
      [
        "Ġm",
        "u",
        "ch"
      ],
      [
        "Ġs",
        "om",
        "et",
        "h",
        "ing"
      ],
      [
        "Ġth",
        "an"
      ],
      [
        "Ġit",
        "s"
      ],
      [
        "Ġb",
        "l"
      ],
      [
        "Ġ",
        "k"
      ],
      [
        "an",
        "g"
      ],
      [
        "b",
        "er"
      ],
      [
        "Ġa",
        "r"
      ],
      [
        "Ġthe",
        "re"
      ],
      [
        "r",
        "a"
      ],
      [
        "ol",
        "og",
        "y"
      ],
      [
        "Ġo",
        "ver"
      ],
      [
        "Ġp",
        "os",
        "s",
        "ib"
      ],
      [
        "Ġb",
        "en",
        "e",
        "f",
        "it"
      ],
      [
        "Ġimp",
        "ort",
        "ant"
      ],
      [
        "Ġ",
        "âĢ",
        "ĵ"
      ],
      [
        "r",
        "i"
      ],
      [
        "Ġan",
        "y"
      ],
      [
        "Ġre",
        "c"
      ],
      [
        "at",
        "ing"
      ],
      [
        "Ġpro",
        "g",
        "r",
        "am"
      ],
      [
        "u",
        "b"
      ],
      [
        "l",
        "es"
      ],
      [
        "re",
        "e"
      ],
      [
        "Ġg",
        "en",
        "er"
      ],
      [
        "Ġs",
        "m",
        "all"
      ],
      [
        "if",
        "ic"
      ],
      [
        "k",
        "s"
      ],
      [
        "Ġsp",
        "ec"
      ],
      [
        "Ġg",
        "o"
      ],
      [
        "Ġa",
        "b"
      ],
      [
        "Ġthe",
        "se"
      ],
      [
        "en",
        "c"
      ],
      [
        "Ġg",
        "et"
      ],
      [
        "Ġm",
        "et",
        "h",
        "od"
      ],
      [
        "Ġa",
        "f",
        "ter"
      ],
      [
        "Ġp",
        "art"
      ],
      [
        "ing",
        "s"
      ],
      [
        "on",
        "d"
      ],
      [
        "Ġs",
        "a"
      ],
      [
        "Ġo",
        "p"
      ],
      [
        "Ġc",
        "o"
      ],
      [
        "Ġw",
        "ater"
      ],
      [
        "ĠU",
        "n",
        "i",
        "ver",
        "s",
        "ity"
      ],
      [
        "r",
        "u"
      ],
      [
        "t",
        "e"
      ],
      [
        "Ġp",
        "h"
      ],
      [
        "Ġd",
        "ow",
        "n"
      ],
      [
        "Ġin",
        "ter"
      ],
      [
        "Ġus",
        "ed"
      ],
      [
        "Ġo",
        "ur"
      ],
      [
        "W",
        "h"
      ],
      [
        "t",
        "en"
      ],
      [
        "Ġwh",
        "at"
      ],
      [
        "Ġex",
        "am",
        "p",
        "le"
      ],
      [
        "on",
        "s"
      ],
      [
        "ow",
        "er"
      ],
      [
        "Ġbe",
        "f",
        "ore"
      ],
      [
        "al",
        "s"
      ],
      [
        "Ġe",
        "ff"
      ],
      [
        "Ġo",
        "w",
        "n"
      ],
      [
        "Ġd",
        "ur",
        "ing"
      ],
      [
        "Ġs",
        "ch",
        "o",
        "ol"
      ],
      [
        "or",
        "y"
      ],
      [
        "Ġle",
        "v",
        "el"
      ],
      [
        "ul",
        "ar"
      ],
      [
        "Ġ",
        "es",
        "p",
        "ec",
        "ial",
        "ly"
      ],
      [
        "Ġm",
        "ost"
      ],
      [
        "Ġm",
        "o"
      ],
      [
        "Ġof",
        "f"
      ],
      [
        "er",
        "v"
      ],
      [
        "Ġs",
        "y",
        "m",
        "p",
        "t",
        "om",
        "s"
      ],
      [
        "Ġ",
        "J"
      ],
      [
        "l",
        "l"
      ],
      [
        "Ġb",
        "r"
      ],
      [
        "Ġm",
        "ake"
      ],
      [
        "ĠH",
        "ow",
        "e",
        "ver"
      ],
      [
        "Ġp",
        "ot",
        "ent",
        "ial"
      ],
      [
        "Ġ",
        "ke",
        "ep"
      ],
      [
        "Ġwh",
        "o"
      ],
      [
        "Ġex",
        "per",
        "i"
      ],
      [
        "Ġl",
        "if",
        "e"
      ],
      [
        "Ġne",
        "w"
      ],
      [
        "Ġsu",
        "ch"
      ],
      [
        "Ġpro",
        "v"
      ],
      [
        "Ġa",
        "m"
      ],
      [
        "Ġm",
        "ater",
        "ial"
      ],
      [
        "i",
        "ent"
      ],
      [
        "Ġb",
        "od",
        "y"
      ],
      [
        "ou",
        "s"
      ],
      [
        "Ġsh",
        "ould"
      ],
      [
        "u",
        "d"
      ],
      [
        "Ġad",
        "d"
      ],
      [
        "Ġg",
        "r"
      ],
      [
        "Ġa",
        "g"
      ],
      [
        "T",
        "h"
      ],
      [
        "Ġc",
        "ar"
      ],
      [
        "e",
        "ar"
      ],
      [
        "r",
        "ic"
      ],
      [
        "in",
        "k"
      ],
      [
        "Ġm",
        "ad",
        "e"
      ],
      [
        "o",
        "in",
        "t"
      ],
      [
        "y",
        "s"
      ],
      [
        "d",
        "u",
        "ce"
      ],
      [
        "f",
        "ul"
      ],
      [
        "er",
        "m"
      ],
      [
        "at",
        "es"
      ],
      [
        "Ġp",
        "ers",
        "on"
      ],
      [
        "Ġa",
        "c"
      ],
      [
        "Ġw",
        "ere"
      ],
      [
        "x",
        "t"
      ],
      [
        "ĠS",
        "t"
      ],
      [
        "il",
        "ity"
      ],
      [
        "n",
        "e"
      ],
      [
        "Ġn",
        "at",
        "ur",
        "al"
      ],
      [
        "Ġc",
        "ur",
        "ren",
        "t"
      ],
      [
        "Ġbe",
        "en"
      ],
      [
        "Ġe",
        "m"
      ],
      [
        "Ġw",
        "ould"
      ],
      [
        "Ġa",
        "ct"
      ],
      [
        "oun",
        "t"
      ],
      [
        "Ġd",
        "at",
        "a"
      ],
      [
        "ar",
        "k"
      ],
      [
        "Ġunder",
        "st",
        "and"
      ],
      [
        "an",
        "c"
      ],
      [
        "Ġf",
        "un",
        "c",
        "tion"
      ],
      [
        "Ġcon",
        "d",
        "ition"
      ],
      [
        "Ġj",
        "ust"
      ],
      [
        "ĠA",
        "m",
        "er",
        "ic"
      ],
      [
        "Ġn",
        "o"
      ],
      [
        "u",
        "g"
      ],
      [
        "Ġre",
        "qu",
        "ire"
      ],
      [
        "Ġl",
        "it",
        "t",
        "le"
      ],
      [
        "Ġd",
        "i"
      ],
      [
        "ic",
        "s"
      ],
      [
        "Ġon",
        "ly"
      ],
      [
        "ĠA",
        "n"
      ],
      [
        "1",
        "0"
      ],
      [
        "Ġin",
        "form",
        "ation"
      ],
      [
        "ro",
        "p"
      ],
      [
        "it",
        "ies"
      ],
      [
        "ĠC",
        "h"
      ],
      [
        "d",
        "u",
        "ct"
      ],
      [
        "an",
        "ge"
      ],
      [
        "Ġ",
        "K"
      ],
      [
        "Ġor",
        "g",
        "an"
      ],
      [
        "ou",
        "t"
      ],
      [
        "Ġc",
        "om"
      ],
      [
        "ak",
        "ing"
      ],
      [
        "Ġs",
        "ur"
      ],
      [
        "og",
        "r",
        "ap",
        "h"
      ],
      [
        "i",
        "el",
        "d"
      ],
      [
        "I",
        "n"
      ],
      [
        "Ġ",
        "V"
      ],
      [
        "Ġw",
        "ell"
      ],
      [
        "ure",
        "s"
      ],
      [
        "Ġa",
        "v",
        "ail",
        "able"
      ],
      [
        "Ġv",
        "ar",
        "i"
      ],
      [
        "is",
        "e"
      ],
      [
        "Ġn",
        "um",
        "ber"
      ],
      [
        "ĠTh",
        "es",
        "e"
      ],
      [
        "Ġdo",
        "es"
      ],
      [
        "an",
        "ts"
      ],
      [
        "Ġm",
        "y"
      ],
      [
        "ol",
        "d"
      ],
      [
        "Ġb",
        "et",
        "ter"
      ],
      [
        "Ġre",
        "g"
      ],
      [
        "l",
        "ic"
      ],
      [
        "Ġre",
        "p"
      ],
      [
        "Ġre",
        "l"
      ],
      [
        "Ġ",
        "ess",
        "ent",
        "ial"
      ],
      [
        "Ġm",
        "an"
      ],
      [
        "Ġd",
        "if",
        "f",
        "ic",
        "ult"
      ],
      [
        ".",
        ".",
        "."
      ],
      [
        "t",
        "ain"
      ],
      [
        "ver",
        "s"
      ],
      [
        "Ġdiffer",
        "ent"
      ],
      [
        "ment",
        "s"
      ],
      [
        "Ġb",
        "u",
        "ild"
      ],
      [
        "Ġex",
        "p"
      ],
      [
        "Ġre",
        "m"
      ],
      [
        "ar",
        "m"
      ],
      [
        "o",
        "b"
      ],
      [
        "at",
        "h"
      ],
      [
        "ol",
        "u",
        "tion"
      ],
      [
        "Ġc",
        "re"
      ],
      [
        "Ġwh",
        "ere"
      ],
      [
        "?",
        "Ċ"
      ],
      [
        "Ġo",
        "c",
        "c",
        "ur"
      ],
      [
        "ur",
        "n"
      ],
      [
        "Ġl",
        "ong"
      ],
      [
        "1",
        "9"
      ],
      [
        "u",
        "ally"
      ],
      [
        "Ġin",
        "d"
      ],
      [
        "Ġ",
        "-"
      ],
      [
        "ec",
        "ts"
      ],
      [
        "g",
        "et"
      ],
      [
        "Ġfor",
        "m"
      ],
      [
        "Ġw",
        "ay"
      ],
      [
        "iz",
        "e"
      ],
      [
        "Ġin",
        "s"
      ],
      [
        "Ġd",
        "ec"
      ],
      [
        "Ġc",
        "r"
      ],
      [
        "Ġm",
        "od"
      ],
      [
        "Ġh",
        "ap",
        "p"
      ],
      [
        "Ġ",
        "im"
      ],
      [
        "d",
        "er"
      ],
      [
        "Ġch",
        "ar",
        "ac",
        "ter"
      ],
      [
        "Ġcon",
        "s"
      ],
      [
        "p",
        "t"
      ],
      [
        "ro",
        "s",
        "s"
      ],
      [
        "Ġrec",
        "om",
        "m",
        "end"
      ],
      [
        "Ġtr",
        "ans"
      ],
      [
        "Ġf",
        "ood"
      ],
      [
        "Ġs",
        "im"
      ],
      [
        "f",
        "t"
      ],
      [
        "at",
        "ive"
      ],
      [
        "Ġbe",
        "h",
        "av",
        "i"
      ],
      [
        "Ġh",
        "um",
        "an"
      ],
      [
        "Ġus",
        "ing"
      ],
      [
        "ĠI",
        "f"
      ],
      [
        "Ġf",
        "am",
        "il",
        "y"
      ],
      [
        "Ġc",
        "ould"
      ],
      [
        "Ġo",
        "b"
      ],
      [
        "Ġg",
        "ro",
        "up"
      ],
      [
        "Ġcont",
        "ro",
        "l"
      ],
      [
        "Ġs",
        "uc",
        "c",
        "ess"
      ],
      [
        "p",
        "h"
      ],
      [
        "Ġthe",
        "n"
      ],
      [
        "f",
        "er"
      ],
      [
        "Ġin",
        "v",
        "ol",
        "v"
      ],
      [
        "Ġch",
        "ild",
        "ren"
      ],
      [
        "Ġl",
        "ar",
        "ge"
      ],
      [
        "Ġe",
        "very"
      ],
      [
        "Ġev",
        "en"
      ],
      [
        "Ġin",
        "st"
      ],
      [
        "Ġl",
        "ook"
      ],
      [
        "ion",
        "s"
      ],
      [
        "Ġd",
        "r"
      ],
      [
        "Ġst",
        "r"
      ],
      [
        "le",
        "ct"
      ],
      [
        "at",
        "ter"
      ],
      [
        "Ġd",
        "et"
      ],
      [
        "Ġm",
        "ain"
      ],
      [
        "ĠThe",
        "y"
      ],
      [
        "Ġas",
        "s"
      ],
      [
        "Ġpro",
        "duc"
      ],
      [
        "Ġd",
        "es",
        "c",
        "r",
        "ib"
      ],
      [
        "o",
        "v"
      ],
      [
        "i",
        "qu",
        "e"
      ],
      [
        "u",
        "al"
      ],
      [
        "Ġc",
        "all",
        "ed"
      ],
      [
        "is",
        "s"
      ],
      [
        "Ġl",
        "i",
        "k",
        "ely"
      ],
      [
        "ical",
        "ly"
      ],
      [
        "it",
        "s"
      ],
      [
        "Ġin",
        "f"
      ],
      [
        "Ġc",
        "le",
        "an"
      ],
      [
        "Ġ",
        "very"
      ],
      [
        "'",
        "re"
      ],
      [
        "Ġse",
        "e"
      ],
      [
        "Ġb",
        "us",
        "in",
        "ess"
      ],
      [
        "ic",
        "h"
      ],
      [
        "i",
        "an"
      ],
      [
        "Ġpro",
        "f",
        "ess",
        "ion"
      ],
      [
        "Ġ",
        "id",
        "ent",
        "if"
      ],
      [
        "a",
        "w"
      ],
      [
        "Ġl",
        "ight"
      ],
      [
        "in",
        "es"
      ],
      [
        "n",
        "ing"
      ],
      [
        "Ġis",
        "s",
        "u",
        "es"
      ],
      [
        "o",
        "ve"
      ],
      [
        "Ġs",
        "k"
      ],
      [
        "ĠY",
        "ou"
      ],
      [
        "Ġa",
        "v",
        "o",
        "id"
      ],
      [
        "Ġs",
        "ec"
      ],
      [
        "c",
        "l"
      ],
      [
        "Ġb",
        "ack"
      ],
      [
        "Ġsu",
        "b"
      ],
      [
        "Ġm",
        "a",
        "j",
        "or"
      ],
      [
        "a",
        "ir"
      ],
      [
        "j",
        "ect"
      ],
      [
        "Ġb",
        "as"
      ],
      [
        "Ġex",
        "t"
      ],
      [
        "it",
        "h"
      ],
      [
        "n",
        "ess"
      ],
      [
        "Ġin",
        "t"
      ],
      [
        "?",
        "ĊĊ"
      ],
      [
        "Ġm",
        "in"
      ],
      [
        "Ġd",
        "on"
      ],
      [
        "Ġg",
        "ood"
      ],
      [
        "or",
        "m"
      ],
      [
        "Ġe",
        "ach"
      ],
      [
        "p",
        "le"
      ],
      [
        "0",
        "0"
      ],
      [
        "oc",
        "k"
      ],
      [
        "Ġpre",
        "v",
        "ent"
      ],
      [
        "Ġan",
        "oth",
        "er"
      ],
      [
        "Ġb",
        "ec",
        "ome"
      ],
      [
        "Ġyear",
        "s"
      ],
      [
        "el",
        "f"
      ],
      [
        "Ġsh",
        "ow"
      ],
      [
        "Ġdo",
        "g"
      ],
      [
        "Ġf",
        "ind"
      ],
      [
        "ic",
        "es"
      ],
      [
        "Ġv",
        "ar",
        "ious"
      ],
      [
        "Ġs",
        "et"
      ],
      [
        "o",
        "y"
      ],
      [
        "i",
        "ed"
      ],
      [
        "Ġal",
        "w",
        "ays"
      ],
      [
        "Ġc",
        "ell",
        "s"
      ],
      [
        "et",
        "y"
      ],
      [
        "our",
        "c",
        "es"
      ],
      [
        "Ġwh",
        "ile"
      ],
      [
        "Ġh",
        "ad"
      ],
      [
        "ak",
        "es"
      ],
      [
        "re",
        "d"
      ],
      [
        "h",
        "e"
      ],
      [
        "Ġdis",
        "c"
      ],
      [
        "Ġe",
        "ar"
      ],
      [
        "Ġg",
        "l"
      ],
      [
        ")",
        "."
      ],
      [
        "ro",
        "w"
      ],
      [
        "on",
        "t"
      ],
      [
        "w",
        "or",
        "k"
      ],
      [
        "and",
        "s"
      ],
      [
        "Ġt",
        "ake"
      ],
      [
        "Ġa",
        "ir"
      ],
      [
        "v",
        "en"
      ],
      [
        "Ġm",
        "ed"
      ],
      [
        "Ġst",
        "ru",
        "ct"
      ],
      [
        "Ġh",
        "is"
      ],
      [
        "Ġ",
        "ed",
        "uc",
        "ation"
      ],
      [
        "Ġw",
        "ant"
      ],
      [
        "Ġf",
        "ound"
      ],
      [
        "Ġf",
        "oc",
        "us"
      ],
      [
        "om",
        "et",
        "im",
        "es"
      ],
      [
        "Ġp",
        "res"
      ],
      [
        "Ġa",
        "u",
        "th",
        "or"
      ],
      [
        "Ġar",
        "t"
      ],
      [
        "is",
        "ts"
      ],
      [
        "ag",
        "es"
      ],
      [
        "g",
        "g"
      ],
      [
        "al",
        "ity"
      ],
      [
        "ĠA",
        "s"
      ],
      [
        "er",
        "n"
      ],
      [
        "el",
        "s"
      ],
      [
        "Ġsign",
        "ific",
        "ant"
      ],
      [
        "Ġp",
        "o"
      ],
      [
        "Ġ",
        "y"
      ],
      [
        "Ġbe",
        "ing"
      ],
      [
        "Ġb",
        "re"
      ],
      [
        "Ġen",
        "s",
        "ure"
      ],
      [
        "Ġe",
        "as"
      ],
      [
        "Ġ",
        "ve",
        "h",
        "ic"
      ],
      [
        "Ġse",
        "ver",
        "al"
      ],
      [
        "Ġat",
        "t"
      ],
      [
        "Ġc",
        "ir",
        "c"
      ],
      [
        "Ġdis",
        "e",
        "ase"
      ],
      [
        "Ġa",
        "round"
      ],
      [
        "Ġd",
        "ire",
        "ct"
      ],
      [
        "i",
        "x"
      ],
      [
        "in",
        "s"
      ],
      [
        ")",
        ","
      ],
      [
        "Ġan",
        "im",
        "als"
      ],
      [
        "Ġh",
        "er"
      ],
      [
        "ib",
        "le"
      ],
      [
        "Ġt",
        "im",
        "es"
      ],
      [
        "Ġr",
        "is",
        "k"
      ],
      [
        "i",
        "o"
      ],
      [
        "Ġ",
        "ke",
        "y"
      ],
      [
        "Ġres",
        "p"
      ],
      [
        "ĠW",
        "e"
      ],
      [
        "Ġs",
        "l"
      ],
      [
        "em",
        "ent"
      ],
      [
        "Ġall",
        "ow"
      ],
      [
        "Ġn",
        "ec",
        "ess",
        "ary"
      ],
      [
        "Ġf",
        "ur",
        "th",
        "er"
      ],
      [
        "at",
        "ch"
      ],
      [
        "r",
        "ib",
        "ut"
      ],
      [
        "Ġm",
        "on",
        "th"
      ],
      [
        "r",
        "it"
      ],
      [
        "Ġb",
        "o"
      ],
      [
        "Ġman",
        "u",
        "f",
        "act",
        "ur"
      ],
      [
        "Ġcomp",
        "le"
      ],
      [
        "t",
        "ed"
      ],
      [
        "e",
        "w"
      ],
      [
        "Ġb",
        "el"
      ],
      [
        "Ġl",
        "oc"
      ],
      [
        "Ġen",
        "g",
        "ine"
      ],
      [
        "Ġst",
        "art"
      ],
      [
        "i",
        "um"
      ],
      [
        "iv",
        "es"
      ],
      [
        "Ġde",
        "p"
      ],
      [
        "Ġc",
        "or"
      ],
      [
        "Ġal",
        "re",
        "ad",
        "y"
      ],
      [
        "Ġs",
        "ame"
      ],
      [
        "Ġ",
        "est",
        "ab",
        "l",
        "ish"
      ],
      [
        "Ġm",
        "ec",
        "h",
        "an"
      ],
      [
        "Ġd",
        "ist"
      ],
      [
        "Ġex",
        "pl"
      ],
      [
        "Ġpro",
        "t",
        "ect"
      ],
      [
        "iz",
        "ed"
      ],
      [
        "et",
        "s"
      ],
      [
        "ol",
        "og"
      ],
      [
        "Ġsur",
        "f",
        "ace"
      ],
      [
        "Ġof",
        "ten"
      ],
      [
        "v",
        "ie",
        "w"
      ],
      [
        "ec",
        "tion"
      ],
      [
        "Ġv",
        "al"
      ],
      [
        "Ġc",
        "er",
        "tain"
      ],
      [
        "g",
        "er"
      ],
      [
        "Ġb",
        "oth"
      ],
      [
        "Ġth",
        "ose"
      ],
      [
        "Ġle",
        "ad"
      ],
      [
        "Ġp",
        "ower"
      ],
      [
        "ation",
        "al"
      ],
      [
        "Ġknow",
        "l",
        "ed",
        "ge"
      ],
      [
        "Ġb",
        "ir",
        "d"
      ],
      [
        "Ġad",
        "v"
      ],
      [
        "Ġ",
        "âĢ"
      ],
      [
        ".",
        "\""
      ],
      [
        "Ġpart",
        "ic"
      ],
      [
        "Ġch",
        "all",
        "en",
        "g"
      ],
      [
        "Ġimp",
        "ro",
        "ve"
      ],
      [
        "Ġen",
        "d"
      ],
      [
        "w",
        "ard"
      ],
      [
        "Ġan",
        "s",
        "w",
        "er"
      ],
      [
        "Ġthem",
        "s",
        "el",
        "v",
        "es"
      ],
      [
        "Ġ",
        "ent"
      ],
      [
        "Ġp",
        "ress",
        "ure"
      ],
      [
        "Ġb",
        "est"
      ],
      [
        "ro",
        "m"
      ],
      [
        ":",
        "Ċ"
      ],
      [
        "Ġto",
        "get",
        "her"
      ],
      [
        "Ġf",
        "act"
      ],
      [
        "at",
        "her"
      ],
      [
        "Ġr",
        "ight"
      ],
      [
        "os",
        "s"
      ],
      [
        "Ġun",
        "t",
        "il"
      ],
      [
        "Ġto",
        "o"
      ],
      [
        "Ġop",
        "p",
        "ort",
        "un"
      ],
      [
        "Ġp",
        "ar"
      ],
      [
        "Ġv",
        "is"
      ],
      [
        "Ġre",
        "ad"
      ],
      [
        "Ġs",
        "in",
        "ce"
      ],
      [
        "is",
        "m"
      ],
      [
        "al",
        "e"
      ],
      [
        "Ġprov",
        "id"
      ],
      [
        "Ġs",
        "w"
      ],
      [
        "Ġa",
        "w",
        "ay"
      ],
      [
        "Wh",
        "at"
      ],
      [
        "Ġm",
        "et"
      ],
      [
        "ter",
        "n"
      ],
      [
        "Ġpl",
        "ant"
      ],
      [
        "ul",
        "l"
      ],
      [
        "Ġg",
        "u"
      ],
      [
        "at",
        "s"
      ],
      [
        "at",
        "ure"
      ],
      [
        "Ġcomm",
        "on"
      ],
      [
        "t",
        "y"
      ],
      [
        "Ġl",
        "ess"
      ],
      [
        "Ġc",
        "are"
      ],
      [
        "Ġch",
        "ec",
        "k"
      ],
      [
        "Ġp",
        "op"
      ],
      [
        "Ġeff",
        "ect"
      ],
      [
        "Ġc",
        "ap"
      ],
      [
        "i",
        "ence"
      ],
      [
        "re",
        "en"
      ],
      [
        "Ġtechn",
        "i",
        "qu",
        "es"
      ],
      [
        "Ġpl",
        "ay"
      ],
      [
        "ĠP",
        "ro"
      ],
      [
        "Ġf",
        "r"
      ],
      [
        "ig",
        "n"
      ],
      [
        "ĠF",
        "or"
      ],
      [
        "ic",
        "i",
        "enc",
        "y"
      ],
      [
        "iv",
        "ing"
      ],
      [
        "Ġa",
        "ff",
        "ect"
      ],
      [
        "st",
        "r"
      ],
      [
        "Ġh",
        "av",
        "ing"
      ],
      [
        "Ġres",
        "ul",
        "ts"
      ],
      [
        "Ġth",
        "ink"
      ],
      [
        "as",
        "h"
      ],
      [
        "Ġh",
        "ome"
      ],
      [
        "a",
        "x"
      ],
      [
        "Ġd",
        "ay"
      ],
      [
        "Ġg",
        "ard",
        "en"
      ],
      [
        "Ġs",
        "ol"
      ],
      [
        "i",
        "er"
      ],
      [
        "l",
        "d"
      ],
      [
        "a",
        "ve"
      ],
      [
        "Ġper",
        "i",
        "od"
      ],
      [
        "Ġo",
        "th",
        "ers"
      ],
      [
        "Ġc",
        "our",
        "se"
      ],
      [
        "e",
        "f"
      ],
      [
        "-",
        "b"
      ],
      [
        "ain",
        "s"
      ],
      [
        "g",
        "r"
      ],
      [
        "Ġsa",
        "id"
      ],
      [
        "ĠH",
        "e"
      ],
      [
        "Ġ",
        "'"
      ],
      [
        "Ġt",
        "reat",
        "ment"
      ],
      [
        "Ġch",
        "ang",
        "es"
      ],
      [
        "as",
        "es"
      ],
      [
        "H",
        "ow"
      ],
      [
        "Ġp",
        "at",
        "i",
        "ents"
      ],
      [
        "Ġs",
        "oc",
        "ial"
      ],
      [
        "Ġass",
        "oc",
        "i",
        "ated"
      ],
      [
        "e",
        "ed"
      ],
      [
        "ĠE",
        "n"
      ],
      [
        "Ġst",
        "ren",
        "g",
        "th"
      ],
      [
        "Ġin",
        "v"
      ],
      [
        "Ġde",
        "f"
      ],
      [
        "it",
        "ed"
      ],
      [
        "ug",
        "h"
      ],
      [
        "Ġc",
        "ust",
        "om"
      ],
      [
        "Ġapp",
        "ro",
        "ach"
      ],
      [
        "ĠT",
        "o"
      ],
      [
        "as",
        "on"
      ],
      [
        "Ġme",
        "as",
        "ure"
      ],
      [
        "Ġh",
        "and"
      ],
      [
        "Ġsim",
        "il",
        "ar"
      ],
      [
        "Ġcomm",
        "un"
      ],
      [
        "Ġg",
        "en"
      ],
      [
        "le",
        "c"
      ],
      [
        "Ġpro",
        "per"
      ],
      [
        "Ġspec",
        "ies"
      ],
      [
        "-",
        "s"
      ],
      [
        "âĢ",
        "Ļ",
        "s"
      ],
      [
        "il",
        "y"
      ],
      [
        "ĠA",
        "l"
      ],
      [
        "Ġf",
        "un"
      ],
      [
        "o",
        "ver"
      ],
      [
        "Ġe",
        "c",
        "on",
        "om"
      ],
      [
        "Ġrel",
        "ations",
        "h",
        "ip"
      ],
      [
        "Ġp",
        "os",
        "it",
        "ive"
      ],
      [
        "id",
        "s"
      ],
      [
        "Ġe",
        "y",
        "e"
      ],
      [
        "Ġc",
        "le",
        "ar"
      ],
      [
        "an",
        "y"
      ],
      [
        "Ġm",
        "ight"
      ],
      [
        "Ġd",
        "ra",
        "w"
      ],
      [
        "Ġpro",
        "b",
        "ab",
        "ly"
      ],
      [
        "us",
        "h"
      ],
      [
        "Ġf",
        "ri",
        "end"
      ],
      [
        "1",
        "2"
      ],
      [
        "Ġm",
        "ult",
        "ip",
        "le"
      ],
      [
        "Ġe",
        "qu"
      ],
      [
        "k",
        "ing"
      ],
      [
        "Ġf",
        "ut",
        "ure"
      ],
      [
        "ot",
        "s"
      ],
      [
        "c",
        "ent"
      ],
      [
        "Ġn",
        "ow"
      ],
      [
        "Ġprov",
        "ide"
      ],
      [
        "Ġpl",
        "an"
      ],
      [
        "er",
        "g"
      ],
      [
        "ad",
        "e"
      ],
      [
        ",",
        "\""
      ],
      [
        "Ġstud",
        "y"
      ],
      [
        "Ġsa",
        "f"
      ],
      [
        "Ġs",
        "erv"
      ],
      [
        "Ġact",
        "iv"
      ],
      [
        "Ġtr",
        "ad",
        "ition",
        "al"
      ],
      [
        "Ġd",
        "am",
        "age"
      ],
      [
        "Ġfe",
        "w"
      ],
      [
        "Ġf",
        "re",
        "qu"
      ],
      [
        "Th",
        "is"
      ],
      [
        "Ġm",
        "ark",
        "et"
      ],
      [
        "d",
        "ay"
      ],
      [
        "Ġp",
        "ap",
        "er"
      ],
      [
        "ab",
        "ility"
      ],
      [
        "Ġacc",
        "ord",
        "ing"
      ],
      [
        "enc",
        "es"
      ],
      [
        "Ġp",
        "ol"
      ],
      [
        "Ġh",
        "ou",
        "se"
      ],
      [
        "y",
        "m"
      ],
      [
        "Ġch",
        "o"
      ],
      [
        "Ġbe",
        "g",
        "in"
      ],
      [
        "Ġto",
        "p"
      ],
      [
        "Ġl",
        "en",
        "g",
        "th"
      ],
      [
        "Ġag",
        "ain",
        "st"
      ],
      [
        "Ġp",
        "ur"
      ],
      [
        "Ġstud",
        "ents"
      ],
      [
        "e",
        "ad"
      ],
      [
        "Ġc",
        "ent"
      ],
      [
        "Ġg",
        "reat"
      ],
      [
        "Ġwith",
        "out"
      ],
      [
        "y",
        "n"
      ],
      [
        "um",
        "p"
      ],
      [
        "Ġd",
        "id"
      ],
      [
        "Ġcl",
        "ass"
      ],
      [
        "ĠU",
        "n"
      ],
      [
        "Ġc",
        "reat"
      ],
      [
        "Ġp",
        "ub",
        "l",
        "ish",
        "ed"
      ],
      [
        "Ġp",
        "ub",
        "lic"
      ],
      [
        "Ġp",
        "i",
        "ec"
      ],
      [
        "Ġg",
        "iv",
        "en"
      ],
      [
        "Ġst",
        "ill"
      ],
      [
        "A",
        "n"
      ],
      [
        "Ġch",
        "em",
        "ical"
      ],
      [
        "Ġpl",
        "ants"
      ],
      [
        "b",
        "r"
      ],
      [
        "ar",
        "s"
      ],
      [
        "Ġcon",
        "n",
        "ect"
      ],
      [
        "Ġb",
        "ac",
        "ter",
        "ia"
      ],
      [
        "Ġv",
        "ie",
        "w"
      ],
      [
        "Ġph",
        "ys",
        "ical"
      ],
      [
        "Ġm",
        "aking"
      ],
      [
        "-",
        "-",
        "-",
        "-",
        "-",
        "-",
        "-",
        "-",
        "-"
      ],
      [
        "Ġe",
        "c",
        "os",
        "y",
        "st",
        "em"
      ],
      [
        "Ġa",
        "ch",
        "ie"
      ],
      [
        "Ġs",
        "ing",
        "le"
      ],
      [
        "Ġinclud",
        "ing"
      ],
      [
        "Ġsh",
        "e"
      ],
      [
        "Ġs",
        "m"
      ],
      [
        "in",
        "al"
      ],
      [
        "Ġdisc",
        "us",
        "s"
      ],
      [
        "Ġm",
        "en",
        "tion",
        "ed"
      ],
      [
        "I",
        "f"
      ],
      [
        "Ġch",
        "ange"
      ],
      [
        "Ġb",
        "i"
      ],
      [
        "ĠE",
        "u",
        "rop",
        "e"
      ],
      [
        "l",
        "ine"
      ],
      [
        "Ġm",
        "ic",
        "ro"
      ],
      [
        "Ġst",
        "and",
        "ard"
      ],
      [
        "Ġwe",
        "e",
        "k"
      ],
      [
        "ain",
        "ing"
      ],
      [
        ":",
        "ĊĊ"
      ],
      [
        "Ġp",
        "ain"
      ],
      [
        "Ġte",
        "xt"
      ],
      [
        "Ġs",
        "our",
        "ce"
      ],
      [
        "Ġs",
        "um",
        "m",
        "er"
      ],
      [
        "ĠB",
        "ut"
      ],
      [
        "Ġt",
        "est"
      ],
      [
        "Ġcl",
        "im",
        "ate"
      ],
      [
        "ĠTh",
        "ere"
      ],
      [
        "or",
        "th"
      ],
      [
        "Ġcre",
        "ate"
      ],
      [
        "ul",
        "ation"
      ],
      [
        "are",
        "d"
      ],
      [
        "Ġan",
        "im",
        "al"
      ],
      [
        "Ġl",
        "ang",
        "u",
        "age"
      ],
      [
        "Ġsk",
        "ill",
        "s"
      ],
      [
        "Ġo",
        "x",
        "y",
        "g",
        "en"
      ],
      [
        "Ġso",
        "ft",
        "w",
        "are"
      ],
      [
        "et",
        "ic"
      ],
      [
        "Ġtyp",
        "e"
      ],
      [
        "ĠAn",
        "d"
      ],
      [
        "I",
        "t"
      ],
      [
        "Ġp",
        "atter",
        "n"
      ],
      [
        "Ġre",
        "f"
      ],
      [
        "Ġknow",
        "n"
      ],
      [
        "er",
        "ing"
      ],
      [
        "Ġd",
        "ig",
        "it",
        "al"
      ],
      [
        "c",
        "r",
        "ip"
      ],
      [
        "Ġs",
        "er"
      ],
      [
        "Ġp",
        "are",
        "n"
      ],
      [
        "Ġe",
        "it",
        "her"
      ],
      [
        "l",
        "ess"
      ],
      [
        "c",
        "om"
      ],
      [
        "ag",
        "n"
      ],
      [
        "ec",
        "a",
        "us",
        "e"
      ],
      [
        "Ġh",
        "y"
      ],
      [
        "Ġ",
        "ide"
      ],
      [
        "Ġre",
        "qu",
        "i",
        "res"
      ],
      [
        "Ġ",
        "ing",
        "red",
        "i",
        "ents"
      ],
      [
        "-",
        "f"
      ],
      [
        "c",
        "c",
        "ord",
        "ing"
      ],
      [
        "Ġqu",
        "es",
        "tion"
      ],
      [
        "Ġm",
        "em"
      ],
      [
        "y",
        "ing"
      ],
      [
        "at",
        "ely"
      ],
      [
        "Ġcar",
        "b",
        "on"
      ],
      [
        "b",
        "s"
      ],
      [
        "Ġpr",
        "act"
      ],
      [
        "t",
        "o"
      ],
      [
        "1",
        "5"
      ],
      [
        "Ġsupp",
        "ort"
      ],
      [
        "ip",
        "s"
      ],
      [
        "ap",
        "e"
      ],
      [
        "Ġbe",
        "a",
        "ut",
        "if",
        "ul"
      ],
      [
        "e",
        "x"
      ],
      [
        "n",
        "er"
      ],
      [
        "ĠC",
        "al",
        "if",
        "or",
        "n",
        "ia"
      ],
      [
        "ĠC",
        "om"
      ],
      [
        "Ġwh",
        "et",
        "her"
      ],
      [
        "Ġen",
        "j",
        "oy"
      ],
      [
        "Ġcaus",
        "e"
      ],
      [
        "Ġr",
        "un"
      ],
      [
        "Ġan",
        "al",
        "ys",
        "is"
      ],
      [
        "ĠS",
        "p"
      ],
      [
        "Ġ",
        "ve",
        "get"
      ],
      [
        "Ġh",
        "our",
        "s"
      ],
      [
        "ur",
        "ing"
      ],
      [
        "Ġcomp",
        "ut",
        "er"
      ],
      [
        "ter",
        "s"
      ],
      [
        "Ġth",
        "ough"
      ],
      [
        "u",
        "es"
      ],
      [
        "Ġfe",
        "el"
      ],
      [
        "Ġth",
        "ree"
      ],
      [
        "ĠR",
        "es",
        "ear",
        "ch"
      ],
      [
        "as",
        "ed"
      ],
      [
        "'",
        "ll"
      ],
      [
        "Ġp",
        "os",
        "ition"
      ],
      [
        "Ġs",
        "ure"
      ],
      [
        "er",
        "t"
      ],
      [
        "e",
        "g"
      ],
      [
        "w",
        "h"
      ],
      [
        "iv",
        "ely"
      ],
      [
        "Ġper",
        "form"
      ],
      [
        "am",
        "p"
      ],
      [
        "ĠH",
        "ow"
      ],
      [
        "at",
        "or"
      ],
      [
        "e",
        "ver"
      ],
      [
        "Ġth",
        "ings"
      ],
      [
        "ou",
        "th"
      ],
      [
        "3",
        "0"
      ],
      [
        "v",
        "ed"
      ],
      [
        "Ġc",
        "al"
      ],
      [
        "Ġh",
        "ist",
        "ory"
      ],
      [
        "Ġind",
        "ust",
        "ry"
      ],
      [
        "1",
        "8"
      ],
      [
        "Ġcom",
        "b",
        "in"
      ],
      [
        "er",
        "c"
      ],
      [
        "ĠA",
        "d"
      ],
      [
        "Ġm",
        "ust"
      ],
      [
        "Ġd",
        "el"
      ],
      [
        "ust",
        "r"
      ],
      [
        "t",
        "im"
      ],
      [
        "Ġfe",
        "at",
        "ures"
      ],
      [
        "Ġh",
        "ard"
      ],
      [
        "ĠWh",
        "en"
      ],
      [
        "Ġare",
        "a"
      ],
      [
        "Ġpl",
        "ace"
      ],
      [
        "ĠS",
        "ch",
        "o",
        "ol"
      ],
      [
        "i",
        "ver"
      ],
      [
        "Ġc",
        "ost"
      ],
      [
        "Ġl",
        "ow"
      ],
      [
        "Ġe",
        "le"
      ],
      [
        "Ġex",
        "c"
      ],
      [
        "Ġin",
        "c",
        "or",
        "p",
        "or"
      ],
      [
        "Ġto",
        "ol",
        "s"
      ],
      [
        "ĠA",
        "r"
      ],
      [
        "ur",
        "al"
      ],
      [
        "ĠS",
        "o"
      ],
      [
        "Ġb",
        "u"
      ],
      [
        "Ġle",
        "av",
        "es"
      ],
      [
        "Ġs",
        "ust",
        "ain"
      ],
      [
        "Ġph",
        "ot"
      ],
      [
        "a",
        "z"
      ],
      [
        "ent",
        "al"
      ],
      [
        "Ġde",
        "v"
      ],
      [
        "Ġart",
        "ic",
        "le"
      ],
      [
        "ent",
        "ly"
      ],
      [
        "Ġcont",
        "in"
      ],
      [
        "Ġc",
        "ount",
        "r",
        "ies"
      ],
      [
        "Ġwith",
        "in"
      ],
      [
        "p",
        "os"
      ],
      [
        "Ġwh",
        "y"
      ],
      [
        "Ġd",
        "es"
      ],
      [
        "Ġh",
        "um",
        "ans"
      ],
      [
        "Ġqu",
        "es",
        "tions"
      ],
      [
        "Ġstr",
        "ate",
        "g"
      ],
      [
        "Ġm",
        "us",
        "c"
      ],
      [
        "Ġst",
        "ep"
      ],
      [
        "Ġres",
        "ult"
      ],
      [
        "Ġt",
        "urn"
      ],
      [
        "'",
        "ve"
      ],
      [
        "l",
        "i",
        "ke"
      ],
      [
        "Ġper",
        "f",
        "ect"
      ],
      [
        "Ġb",
        "ec",
        "om"
      ],
      [
        "Ġexperi",
        "ence"
      ],
      [
        "Ġre",
        "al"
      ],
      [
        "Ġmo",
        "ve"
      ],
      [
        "-",
        "c"
      ],
      [
        "Ġn",
        "um",
        "b",
        "ers"
      ],
      [
        "Ġc",
        "am",
        "er",
        "a"
      ],
      [
        "it",
        "ch"
      ],
      [
        "e",
        "e"
      ],
      [
        "o",
        "f"
      ],
      [
        "ce",
        "pt"
      ],
      [
        "am",
        "pl",
        "es"
      ],
      [
        "ut",
        "e"
      ],
      [
        "Ġm",
        "on",
        "it",
        "or"
      ],
      [
        "Ġinclud",
        "e"
      ],
      [
        "p",
        "ar"
      ],
      [
        "Ġb",
        "ot",
        "t"
      ],
      [
        "Ġt",
        "re",
        "es"
      ],
      [
        "Ġab",
        "le"
      ],
      [
        "Ġcan",
        "c",
        "er"
      ],
      [
        "Ġs",
        "it"
      ],
      [
        "Ġyou",
        "n",
        "g"
      ],
      [
        "Ġspec",
        "ific"
      ],
      [
        "an",
        "k"
      ],
      [
        "Ġcor",
        "re",
        "ct"
      ],
      [
        "Ġf",
        "ish"
      ],
      [
        "Ġre",
        "ally"
      ],
      [
        "Ġd",
        "ue"
      ],
      [
        "ar",
        "g"
      ],
      [
        "i",
        "or"
      ],
      [
        "Ġim",
        "m"
      ],
      [
        "r",
        "act"
      ],
      [
        "Ġfollow",
        "ing"
      ],
      [
        "Ġre",
        "st"
      ],
      [
        "Ġt",
        "erm"
      ],
      [
        "ĠS",
        "h"
      ],
      [
        "Ġmin",
        "ut",
        "es"
      ],
      [
        "or",
        "ts"
      ],
      [
        "ĠS",
        "c"
      ],
      [
        "y",
        "c",
        "le"
      ],
      [
        "Ġpr",
        "in"
      ],
      [
        "Ġpossib",
        "le"
      ],
      [
        "th",
        "e"
      ],
      [
        "Ġm",
        "ill",
        "ion"
      ],
      [
        "Ġv",
        "ide",
        "o"
      ],
      [
        "Ġp",
        "oint"
      ],
      [
        "Ġadd",
        "ition"
      ],
      [
        "l",
        "u"
      ],
      [
        "l",
        "ing"
      ],
      [
        "Ġcol",
        "or"
      ],
      [
        "Ġcr",
        "uc",
        "ial"
      ],
      [
        "ac",
        "es"
      ],
      [
        "5",
        "0"
      ],
      [
        "Ġm",
        "one",
        "y"
      ],
      [
        "Ġe",
        "l"
      ],
      [
        "Ġpr",
        "im",
        "ary"
      ],
      [
        "Ġgo",
        "ing"
      ],
      [
        "Ġhe",
        "ad"
      ],
      [
        "ĠP",
        "l"
      ],
      [
        "Ġcon",
        "f"
      ],
      [
        "Ġc",
        "ome"
      ],
      [
        "p",
        "r"
      ],
      [
        "Ġp",
        "ut"
      ],
      [
        "re",
        "ad"
      ],
      [
        "em",
        "s"
      ],
      [
        "iz",
        "ation"
      ],
      [
        "r",
        "ap"
      ],
      [
        "Ġso",
        "il"
      ],
      [
        "Ġo",
        "per"
      ],
      [
        "es",
        "ts"
      ],
      [
        "Ġl",
        "ot"
      ],
      [
        "v",
        "ing"
      ],
      [
        "Ġl",
        "im"
      ],
      [
        "Ġs",
        "le",
        "ep"
      ],
      [
        "Ġh",
        "ere"
      ],
      [
        "Ġe",
        "t",
        "c"
      ],
      [
        "Ġqu",
        "ick",
        "ly"
      ],
      [
        "id",
        "es"
      ],
      [
        "Ġbl",
        "ood"
      ],
      [
        "S",
        "t"
      ],
      [
        "Ġman",
        "ag",
        "ement"
      ],
      [
        "1",
        "1"
      ],
      [
        "Ġex",
        "per",
        "im"
      ],
      [
        "ild",
        "l",
        "if",
        "e"
      ],
      [
        "Ġrec",
        "og",
        "n"
      ],
      [
        "Ġd",
        "em",
        "on",
        "str"
      ],
      [
        "Ġgo",
        "ver",
        "n",
        "ment"
      ],
      [
        "Ġyour",
        "s",
        "elf"
      ],
      [
        "Ġf",
        "il"
      ],
      [
        "ec",
        "h"
      ],
      [
        "Ġcom",
        "f",
        "ort"
      ],
      [
        "Ġop",
        "en"
      ],
      [
        "Ġme",
        "ans"
      ],
      [
        "th",
        "ing"
      ],
      [
        "o",
        "ot"
      ],
      [
        "anc",
        "es"
      ],
      [
        "Ġcon",
        "c",
        "ern"
      ],
      [
        "Ġneed",
        "s"
      ],
      [
        "Ġle",
        "t"
      ],
      [
        "Ġe",
        "y",
        "es"
      ],
      [
        "l",
        "and"
      ],
      [
        "Ġsec",
        "ond"
      ],
      [
        "on",
        "es"
      ],
      [
        "ĠWh",
        "ich"
      ],
      [
        "Ġn",
        "ut"
      ],
      [
        "ic",
        "t"
      ],
      [
        "Ġapp",
        "rop",
        "ri",
        "ate"
      ],
      [
        "p",
        "ut"
      ],
      [
        "Ġ",
        "ed"
      ],
      [
        "Ġext",
        "re",
        "m"
      ],
      [
        "Ġf",
        "ree"
      ],
      [
        "Ġte",
        "ach"
      ],
      [
        "ast",
        "e"
      ],
      [
        "Ġp",
        "ass"
      ],
      [
        "Ġa",
        "ver",
        "age"
      ],
      [
        "Ġw",
        "om",
        "en"
      ],
      [
        "Ġhe",
        "at"
      ],
      [
        "ĠI",
        "s"
      ],
      [
        "Ġl",
        "o"
      ],
      [
        "Ġout",
        "s",
        "ide"
      ],
      [
        "Ġan",
        "t"
      ],
      [
        "t",
        "on"
      ],
      [
        "an",
        "e"
      ],
      [
        "Ġb",
        "ook"
      ],
      [
        "Ġs",
        "en",
        "se"
      ],
      [
        "Ġfl",
        "ow"
      ],
      [
        "Ġs",
        "ay"
      ],
      [
        "Ġpro",
        "te",
        "in"
      ],
      [
        "Ġal",
        "g",
        "or",
        "ith",
        "m"
      ],
      [
        "ac",
        "tion"
      ],
      [
        "Ġtyp",
        "es"
      ],
      [
        "em",
        "ber"
      ],
      [
        "Ġc",
        "ut"
      ],
      [
        "Ġis",
        "s",
        "ue"
      ],
      [
        "Ġsim",
        "p",
        "ly"
      ],
      [
        "Ġf",
        "in"
      ],
      [
        "Ġs",
        "ize"
      ],
      [
        "Ġd",
        "ire",
        "c",
        "tion"
      ],
      [
        "Ġh",
        "al",
        "f"
      ],
      [
        "Ġn",
        "orm",
        "al"
      ],
      [
        "a",
        "f"
      ],
      [
        "ĠT",
        "r"
      ],
      [
        "Ġrep",
        "res",
        "ent"
      ],
      [
        "Ġt",
        "ar",
        "get"
      ],
      [
        "ĠO",
        "n"
      ],
      [
        "o",
        "es"
      ],
      [
        "Ġm",
        "ach",
        "ine"
      ],
      [
        "Ġc",
        "at"
      ],
      [
        "-",
        "d"
      ],
      [
        "r",
        "ib",
        "u",
        "tion"
      ],
      [
        "Ġl",
        "ast"
      ],
      [
        "Ġre",
        "duc"
      ],
      [
        "Ġare",
        "as"
      ],
      [
        "Ġsc",
        "ient",
        "ists"
      ],
      [
        "enc",
        "y"
      ],
      [
        "ow",
        "n"
      ],
      [
        "id",
        "ent"
      ],
      [
        "Ġv",
        "ol"
      ],
      [
        "Ġcan",
        "n",
        "ot"
      ],
      [
        "Ġal",
        "c",
        "o",
        "h",
        "ol"
      ],
      [
        "Ġlearn",
        "ing"
      ],
      [
        "Ġal",
        "m",
        "ost"
      ],
      [
        "od",
        "e"
      ],
      [
        "Ġre",
        "t"
      ],
      [
        "Ġl",
        "ay"
      ],
      [
        "Ġw",
        "in",
        "ter"
      ],
      [
        "Ġme",
        "an"
      ],
      [
        "o",
        "x"
      ],
      [
        "Ġsp",
        "ace"
      ],
      [
        "Ġdevelop",
        "ment"
      ],
      [
        "Ġr",
        "ange"
      ],
      [
        "Ġf",
        "res",
        "h"
      ],
      [
        "Ġat",
        "ten",
        "tion"
      ],
      [
        "Ġpro",
        "m"
      ],
      [
        "Ġpres",
        "ent"
      ],
      [
        "Ġte",
        "am"
      ],
      [
        "in",
        "ed"
      ],
      [
        "ĠE",
        "x"
      ],
      [
        "end",
        "ing"
      ],
      [
        "Ġb",
        "atter",
        "y"
      ],
      [
        "A",
        "s"
      ],
      [
        "Ġgl",
        "ob",
        "al"
      ],
      [
        "ar",
        "ing"
      ],
      [
        "Ġo",
        "il"
      ],
      [
        "et",
        "er"
      ],
      [
        "Ġem",
        "pl",
        "oy"
      ],
      [
        "Ġm",
        "akes"
      ],
      [
        "Ġob",
        "s",
        "erv"
      ],
      [
        "Ġf",
        "u",
        "el"
      ],
      [
        "Ġin",
        "te",
        "gr"
      ],
      [
        "Ġen",
        "ough"
      ],
      [
        "Ġapp",
        "lic",
        "ations"
      ],
      [
        "Ġus",
        "ually"
      ],
      [
        "Ġl",
        "ar",
        "ger"
      ],
      [
        "Ġg",
        "ive"
      ],
      [
        "Ġsu",
        "gg",
        "est"
      ],
      [
        "Ġa",
        "ut",
        "om"
      ],
      [
        "Ġc",
        "ount",
        "ry"
      ],
      [
        "p",
        "ort"
      ],
      [
        "et",
        "h"
      ],
      [
        "e",
        "v"
      ],
      [
        "Ġqu",
        "ality"
      ],
      [
        "am",
        "m"
      ],
      [
        "Ġb",
        "ig"
      ],
      [
        "Ġf",
        "ield"
      ],
      [
        "Ġeff",
        "ic",
        "ient"
      ],
      [
        "Ġcon",
        "str",
        "uc",
        "tion"
      ],
      [
        "Ġh",
        "ab",
        "it"
      ],
      [
        "p",
        "ing"
      ],
      [
        "Ġb",
        "ro"
      ],
      [
        "âĢ",
        "Ķ"
      ],
      [
        "Ġor",
        "der"
      ],
      [
        "Ġacc",
        "ess"
      ],
      [
        "Ġs",
        "al"
      ],
      [
        "Ġdet",
        "erm",
        "ine"
      ],
      [
        "Ġspec",
        "ial"
      ],
      [
        "Ġbas",
        "ed"
      ],
      [
        "Ġsystem",
        "s"
      ],
      [
        "W",
        "e"
      ],
      [
        "oc",
        "i"
      ],
      [
        "Ġs",
        "ens"
      ],
      [
        "Ġcondition",
        "s"
      ],
      [
        "is",
        "ion"
      ],
      [
        "Ġtechn",
        "ology"
      ],
      [
        "Ġch",
        "ild"
      ],
      [
        "at",
        "ic"
      ],
      [
        "es",
        "e"
      ],
      [
        "-",
        "p"
      ],
      [
        "ĠC",
        "l"
      ],
      [
        "ar",
        "ch"
      ],
      [
        "Ġmaterial",
        "s"
      ],
      [
        "Ġf",
        "ac"
      ],
      [
        "'",
        "m"
      ],
      [
        "Ġat",
        "m",
        "os",
        "ph",
        "ere"
      ],
      [
        "Ġto",
        "t",
        "al"
      ],
      [
        "Ġp",
        "ost"
      ],
      [
        "Ġl",
        "i",
        "qu",
        "id"
      ],
      [
        "r",
        "ing"
      ],
      [
        "Ġequ",
        "ip",
        "ment"
      ],
      [
        "ro",
        "g",
        "en"
      ],
      [
        "Ġtr",
        "av",
        "el"
      ],
      [
        "ĠE",
        "ar",
        "th"
      ],
      [
        "Ġ",
        "$"
      ],
      [
        "p",
        "ect"
      ],
      [
        "al",
        "k"
      ],
      [
        "1",
        "6"
      ],
      [
        "Ġl",
        "ist"
      ],
      [
        "Ġc",
        "ook"
      ],
      [
        "j",
        "ects"
      ],
      [
        "Ġcomp",
        "on",
        "ents"
      ],
      [
        "Ġs",
        "ide"
      ],
      [
        "ig",
        "h"
      ],
      [
        "Ġt",
        "ak",
        "en"
      ],
      [
        "Ġs",
        "up"
      ],
      [
        "or",
        "ies"
      ],
      [
        "un",
        "d"
      ],
      [
        "Ġfe",
        "ed"
      ],
      [
        "uc",
        "k"
      ],
      [
        "Ġs",
        "n"
      ],
      [
        "Ġpartic",
        "ular"
      ],
      [
        "a",
        "h"
      ],
      [
        "Ġpur",
        "p",
        "ose"
      ],
      [
        "olog",
        "ical"
      ],
      [
        "as",
        "ter"
      ],
      [
        "1",
        "4"
      ],
      [
        "ro",
        "duc"
      ],
      [
        "Ġdo",
        "c",
        "um",
        "ent"
      ],
      [
        "ĠA",
        "f"
      ],
      [
        "Ġm",
        "il"
      ],
      [
        "Ġad",
        "j",
        "ust"
      ],
      [
        "Ġn",
        "on"
      ],
      [
        "Ġs",
        "ound"
      ],
      [
        "y",
        "l"
      ],
      [
        "ĠIn",
        "d"
      ],
      [
        "Wh",
        "en"
      ],
      [
        "ĠAd",
        "d",
        "ition",
        "ally"
      ],
      [
        "Ġw",
        "ind"
      ],
      [
        "Ġd",
        "ail",
        "y"
      ],
      [
        "ĠP",
        "h"
      ],
      [
        "ĠW",
        "ith"
      ],
      [
        "Ġpl",
        "ast",
        "ic"
      ],
      [
        "Ġj",
        "our",
        "ne",
        "y"
      ],
      [
        "or",
        "n"
      ],
      [
        "Ġen",
        "c",
        "our"
      ],
      [
        "ĠHe",
        "al",
        "th"
      ],
      [
        "Ġpre",
        "v",
        "ious"
      ],
      [
        "cl",
        "us",
        "ion"
      ],
      [
        "Ġcomp",
        "re",
        "h",
        "ens",
        "ive"
      ],
      [
        "Ġcol",
        "l",
        "ab",
        "or"
      ],
      [
        "Ġw",
        "ord",
        "s"
      ],
      [
        "Ġ",
        "z"
      ],
      [
        "Ġimp",
        "act"
      ],
      [
        "Ġbe",
        "h",
        "ind"
      ],
      [
        ")",
        "Ċ"
      ],
      [
        "Ġco",
        "ver"
      ],
      [
        "Ġproblem",
        "s"
      ],
      [
        "ab",
        "les"
      ],
      [
        "Ġproper",
        "t",
        "ies"
      ],
      [
        "Ġbel",
        "ie",
        "ve"
      ],
      [
        "s",
        "h"
      ],
      [
        "Ġd",
        "ru",
        "g"
      ],
      [
        "le",
        "t"
      ],
      [
        "_",
        "_",
        "_",
        "_",
        "_"
      ],
      [
        "Ġwe",
        "ight"
      ],
      [
        "v",
        "es"
      ],
      [
        ".",
        "."
      ],
      [
        "Ġp",
        "s",
        "y",
        "ch"
      ],
      [
        "ag",
        "ing"
      ],
      [
        "Ġinter",
        "est"
      ],
      [
        "Ġlevel",
        "s"
      ],
      [
        "l",
        "ed"
      ],
      [
        "Ġs",
        "ym",
        "b",
        "ol"
      ],
      [
        "ĠB",
        "y"
      ],
      [
        "Ġl",
        "ine"
      ],
      [
        "b",
        "e"
      ],
      [
        "Ġc",
        "ur"
      ],
      [
        "o",
        "or"
      ],
      [
        "Ġf",
        "am",
        "il"
      ],
      [
        "l",
        "o",
        "ad"
      ],
      [
        "Ġdis",
        "e",
        "ases"
      ],
      [
        "it",
        "ing"
      ],
      [
        "Ġne",
        "ar"
      ],
      [
        "Ġapp",
        "ro",
        "x",
        "im",
        "ately"
      ],
      [
        "ic",
        "ation"
      ],
      [
        "Ġs",
        "un"
      ],
      [
        "i",
        "k"
      ],
      [
        "Ġb",
        "en",
        "ef",
        "ic",
        "ial"
      ],
      [
        "ĠC",
        "an"
      ],
      [
        "us",
        "e"
      ],
      [
        "ed",
        "s"
      ],
      [
        "Ġ",
        "&"
      ],
      [
        "Ġam",
        "ount"
      ],
      [
        "Ġsp",
        "e",
        "ak"
      ],
      [
        "op",
        "e"
      ],
      [
        "am",
        "in"
      ],
      [
        "Ġpro",
        "ject"
      ],
      [
        "ĠN",
        "ew"
      ],
      [
        "r",
        "on"
      ],
      [
        "Ġproduc",
        "ts"
      ],
      [
        "Ġ",
        "="
      ],
      [
        "Ġde",
        "g",
        "re",
        "es"
      ],
      [
        "1",
        "3"
      ],
      [
        "ĠD",
        "N",
        "A"
      ],
      [
        "Ġto",
        "ward",
        "s"
      ],
      [
        "ol",
        "l"
      ],
      [
        "Ġwork",
        "ing"
      ],
      [
        "it",
        "al"
      ],
      [
        "Ġin",
        "c"
      ],
      [
        "Ġc",
        "ell"
      ],
      [
        "Ġmain",
        "tain"
      ],
      [
        "ot",
        "e"
      ],
      [
        "oth",
        "er"
      ],
      [
        "Ġe",
        "gg",
        "s"
      ],
      [
        "Ġd",
        "ays"
      ],
      [
        "Ġm",
        "id",
        "d",
        "le"
      ],
      [
        "Y",
        "ou"
      ],
      [
        "ur",
        "y"
      ],
      [
        "Ġf",
        "ore"
      ],
      [
        "Ġre",
        "pl"
      ],
      [
        "Ġcom",
        "es"
      ],
      [
        "Ġsu",
        "g",
        "ar"
      ],
      [
        "b",
        "o",
        "ard"
      ],
      [
        "Ġst",
        "ate"
      ],
      [
        "Ġne",
        "xt"
      ],
      [
        "Ġpro",
        "duct"
      ],
      [
        "Ġc",
        "ult"
      ],
      [
        "Ġwe",
        "e",
        "ks"
      ],
      [
        "Ġle",
        "g"
      ],
      [
        "ĠEn",
        "v",
        "ir",
        "on",
        "ment"
      ],
      [
        "Ġa",
        "w",
        "are"
      ],
      [
        "tion",
        "al"
      ],
      [
        "Ġal",
        "ong"
      ],
      [
        "ore",
        "d"
      ],
      [
        "Ġk",
        "ind"
      ],
      [
        "Ġincreas",
        "e"
      ],
      [
        "Ġoff",
        "er"
      ],
      [
        "Ġsh",
        "ort"
      ],
      [
        "ire",
        "d"
      ],
      [
        "Ġeas",
        "y"
      ],
      [
        "b",
        "le"
      ],
      [
        "ĠEn",
        "g",
        "l",
        "ish"
      ],
      [
        "Ġre",
        "le"
      ],
      [
        "Ġresp",
        "on",
        "se"
      ],
      [
        "Ġear",
        "ly"
      ],
      [
        "Ġpo",
        "in",
        "ts"
      ],
      [
        "os",
        "ed"
      ],
      [
        "-",
        "m"
      ],
      [
        "Ġn",
        "ame"
      ],
      [
        "am",
        "es"
      ],
      [
        "Ġm",
        "ax",
        "im"
      ],
      [
        "Ġc",
        "ase"
      ],
      [
        "Ġre",
        "duce"
      ],
      [
        "un",
        "e"
      ],
      [
        "Ġhealth",
        "y"
      ],
      [
        "1",
        "7"
      ],
      [
        "ĠTh",
        "at"
      ],
      [
        "Ġloc",
        "al"
      ],
      [
        "Th",
        "ere"
      ],
      [
        "Ġstr",
        "ong"
      ],
      [
        "m",
        "iss",
        "ion"
      ],
      [
        "c",
        "ed"
      ],
      [
        "Ġr",
        "ad"
      ],
      [
        "Ġf",
        "ull"
      ],
      [
        "Ġdoes",
        "n"
      ],
      [
        "l",
        "ight"
      ],
      [
        "Ġre",
        "d"
      ],
      [
        "u",
        "ch"
      ],
      [
        "Ġhigh",
        "er"
      ],
      [
        "Ġgrow",
        "th"
      ],
      [
        "ĠA",
        "t"
      ],
      [
        "Ġo",
        "ld"
      ],
      [
        "âĢ",
        "¦"
      ],
      [
        "Ġl",
        "ower"
      ],
      [
        "Ġmem",
        "b",
        "ers"
      ],
      [
        "Ġdog",
        "s"
      ],
      [
        "Ġw",
        "arm"
      ],
      [
        "r",
        "ation"
      ],
      [
        "Ġl",
        "ab"
      ],
      [
        "C",
        "h"
      ],
      [
        "Ġg",
        "reen"
      ],
      [
        "Ġapp",
        "lic",
        "ation"
      ],
      [
        "Ġ",
        "est",
        "im"
      ],
      [
        "p",
        "ed"
      ],
      [
        "at",
        "ors"
      ],
      [
        "Ġg",
        "round"
      ],
      [
        "Ġev",
        "id",
        "ence"
      ],
      [
        "Ġapp",
        "ear"
      ],
      [
        "ir",
        "d"
      ],
      [
        "Ġd",
        "ry"
      ],
      [
        "Ġex",
        "erc",
        "ise"
      ],
      [
        "Ġact",
        "ually"
      ],
      [
        "i",
        "vers"
      ],
      [
        "Ġimp",
        "le",
        "ment"
      ],
      [
        "Ġdi",
        "ab",
        "et",
        "es"
      ],
      [
        "it",
        "ive"
      ],
      [
        "Ġwe",
        "bs",
        "ite"
      ],
      [
        "Ġinst",
        "r",
        "uc"
      ],
      [
        "Ġro",
        "le"
      ],
      [
        "Ġsim",
        "ple"
      ],
      [
        "Ġ",
        "i"
      ],
      [
        "Ġcomple",
        "t",
        "ely"
      ],
      [
        "am",
        "s"
      ],
      [
        "is",
        "ing"
      ],
      [
        "g",
        "an"
      ],
      [
        "Ġle",
        "ast"
      ],
      [
        "ĠIn",
        "st",
        "it",
        "ute"
      ],
      [
        "is",
        "ed"
      ],
      [
        "Ġcon",
        "st"
      ],
      [
        "Ġor",
        "ig"
      ],
      [
        "Ġt",
        "reat"
      ],
      [
        "er",
        "r"
      ],
      [
        "Ġcont",
        "ain"
      ],
      [
        "Ġre",
        "ce"
      ],
      [
        "Ġb",
        "al",
        "ance"
      ],
      [
        "Ġre",
        "ason"
      ],
      [
        "Ġmod",
        "el"
      ],
      [
        "Ġe",
        "at"
      ],
      [
        "Ġdi",
        "et"
      ],
      [
        "Ġw",
        "ays"
      ],
      [
        "en",
        "e"
      ],
      [
        "iv",
        "ity"
      ],
      [
        "Ġch",
        "all",
        "en",
        "ge"
      ],
      [
        "ru",
        "ct"
      ],
      [
        "u",
        "le"
      ],
      [
        "an",
        "n"
      ],
      [
        "Ġp",
        "at",
        "ient"
      ],
      [
        "Ġ",
        "["
      ],
      [
        "er",
        "y"
      ],
      [
        "Ġa",
        "ge"
      ],
      [
        "t",
        "le"
      ],
      [
        "Ġ",
        "ir"
      ],
      [
        "Ġv",
        "ir"
      ],
      [
        "Ġcal",
        "c",
        "ul"
      ],
      [
        "Ġp",
        "e"
      ],
      [
        "Ġun",
        "ique"
      ],
      [
        "iz",
        "ing"
      ],
      [
        "Ġm",
        "ind"
      ],
      [
        "Ġsk",
        "in"
      ],
      [
        "Ġan",
        "al",
        "y",
        "z"
      ],
      [
        "Ġo",
        "c",
        "c"
      ],
      [
        "il",
        "ities"
      ],
      [
        "Ġinv",
        "est"
      ],
      [
        "at",
        "ory"
      ],
      [
        "Ġpro",
        "g",
        "ress"
      ],
      [
        "Ġst",
        "y",
        "le"
      ],
      [
        "Ġac",
        "ross"
      ],
      [
        "if",
        "ied"
      ],
      [
        "Ġm",
        "us",
        "ic"
      ],
      [
        "Ġproduc",
        "tion"
      ],
      [
        "Ġin",
        "n",
        "ov"
      ],
      [
        "Ġsp",
        "eed"
      ],
      [
        "Ġw",
        "rit"
      ],
      [
        "2",
        "5"
      ],
      [
        "Ġimm",
        "ed",
        "i",
        "ately"
      ],
      [
        "Ġg",
        "re",
        "ater"
      ],
      [
        "Ġpre",
        "d"
      ],
      [
        "Ġcr",
        "it",
        "ical"
      ],
      [
        "ail",
        "s"
      ],
      [
        "Ġth",
        "ing"
      ],
      [
        "Ġbu",
        "il",
        "t"
      ],
      [
        "ĠJ",
        "o",
        "h",
        "n"
      ],
      [
        "Ġprin",
        "c",
        "ip"
      ],
      [
        "Ġl",
        "if",
        "est",
        "y",
        "le"
      ],
      [
        "Ġin",
        "it",
        "ial"
      ],
      [
        "re",
        "t"
      ],
      [
        "ĠY",
        "our"
      ],
      [
        "Ġsc",
        "ient",
        "ific"
      ],
      [
        "Ġre",
        "ach"
      ],
      [
        "Ġd",
        "one"
      ],
      [
        "ro",
        "om"
      ],
      [
        "Ġre",
        "as",
        "ons"
      ],
      [
        "ch",
        "es"
      ],
      [
        "th",
        "ough"
      ],
      [
        "Ġval",
        "ue"
      ],
      [
        "Ġne",
        "ver"
      ],
      [
        "Ġn",
        "et",
        "work"
      ],
      [
        "Ġf",
        "our"
      ],
      [
        "Ġg",
        "as"
      ],
      [
        "Ġab",
        "s",
        "or"
      ],
      [
        "ĠS",
        "ome"
      ],
      [
        "Ġm",
        "ot",
        "or"
      ],
      [
        "Ġcomp",
        "an",
        "ies"
      ],
      [
        "4",
        "0"
      ],
      [
        "ap",
        "s"
      ],
      [
        "Ġh",
        "im"
      ],
      [
        "Ġcont",
        "ro",
        "ll"
      ],
      [
        "Ġbre",
        "ak"
      ],
      [
        "Ġs",
        "ays"
      ],
      [
        "ĠB",
        "e"
      ],
      [
        "Ġhelp",
        "s"
      ],
      [
        "Ġreg",
        "ular"
      ],
      [
        "Ġf",
        "ru",
        "it"
      ],
      [
        "Ġinter",
        "n"
      ],
      [
        "Ġpro",
        "t"
      ],
      [
        "der",
        "st",
        "and",
        "ing"
      ],
      [
        "anc",
        "ed"
      ],
      [
        "Ġl",
        "oss"
      ],
      [
        "w",
        "e"
      ],
      [
        "Ġp",
        "ast"
      ],
      [
        "Ġbenefit",
        "s"
      ],
      [
        "Ġc",
        "e",
        "le",
        "br"
      ],
      [
        "r",
        "al"
      ],
      [
        "Ġpop",
        "ular"
      ],
      [
        "Ġco",
        "ol"
      ],
      [
        "Ġhe",
        "art"
      ],
      [
        "Ġmain",
        "ten",
        "ance"
      ],
      [
        "Ġfl",
        "u"
      ],
      [
        "Ġen",
        "h",
        "ance"
      ],
      [
        "ul",
        "es"
      ],
      [
        "Ġc",
        "all"
      ],
      [
        "Ġtr",
        "y"
      ],
      [
        "Ġl",
        "ive"
      ],
      [
        "Ġm",
        "ar"
      ],
      [
        "Ġv",
        "ac",
        "c"
      ],
      [
        "Ġm",
        "en"
      ],
      [
        "T",
        "o"
      ],
      [
        "Ġst",
        "e"
      ],
      [
        "av",
        "or"
      ],
      [
        "Ġb",
        "it"
      ],
      [
        "!",
        "ĊĊ"
      ],
      [
        "Ġl",
        "aw"
      ],
      [
        "Ġwh",
        "ite"
      ],
      [
        "ĠW",
        "or",
        "ld"
      ],
      [
        "ĠC",
        "on"
      ],
      [
        "a",
        "ff"
      ],
      [
        "Ġelectr",
        "ic"
      ],
      [
        "Ġb",
        "ab",
        "y"
      ],
      [
        "Ġpar",
        "ts"
      ],
      [
        "ĠA",
        "ustr",
        "al"
      ],
      [
        "Ġimp",
        "ort",
        "ance"
      ],
      [
        "Ġab",
        "ove"
      ],
      [
        "Ġrec",
        "ord"
      ],
      [
        "s",
        "c"
      ],
      [
        "Ġ",
        "Q"
      ],
      [
        "Ġwork",
        "s"
      ],
      [
        "Ġ",
        "Z"
      ],
      [
        "Ġlook",
        "ing"
      ],
      [
        "iv",
        "ed"
      ],
      [
        "Ġpre",
        "t",
        "ty"
      ],
      [
        "Ġeff",
        "ects"
      ],
      [
        "Ġapp",
        "re",
        "c",
        "i"
      ],
      [
        "Ġresp",
        "ons"
      ],
      [
        "Ġd",
        "ang",
        "er",
        "ous"
      ],
      [
        "c",
        "o"
      ],
      [
        "Ġrep",
        "ort"
      ],
      [
        "ĠD",
        "ep",
        "art",
        "ment"
      ],
      [
        "ĠB",
        "l"
      ],
      [
        "Ġle",
        "ft"
      ],
      [
        "Ġl",
        "and"
      ],
      [
        "ff",
        "ic",
        "ient"
      ],
      [
        "Ġne",
        "g",
        "ative"
      ],
      [
        "Ġf",
        "ar"
      ],
      [
        "Ġunderstand",
        "ing"
      ],
      [
        "Ġcl",
        "a",
        "im"
      ],
      [
        "ard",
        "s"
      ],
      [
        ")",
        "ĊĊ"
      ],
      [
        "Ġdesign",
        "ed"
      ],
      [
        "ce",
        "p"
      ],
      [
        "ow",
        "s"
      ],
      [
        "Ġfact",
        "ors"
      ],
      [
        "um",
        "e"
      ],
      [
        "Ġ",
        "ut",
        "il"
      ],
      [
        "u",
        "th"
      ],
      [
        "Ġen",
        "g"
      ],
      [
        "Ġf",
        "ab",
        "ric"
      ],
      [
        "s",
        "o"
      ],
      [
        "Ġw",
        "r"
      ],
      [
        "ĠâĢ",
        "Ķ"
      ],
      [
        "ect",
        "ed"
      ],
      [
        "Ġres",
        "ist",
        "ance"
      ],
      [
        "it",
        "ud",
        "e"
      ],
      [
        "Ġl",
        "ands",
        "c"
      ],
      [
        "in",
        "t"
      ],
      [
        "en",
        "ing"
      ],
      [
        "Ġn",
        "um",
        "er",
        "ous"
      ],
      [
        "p",
        "e"
      ],
      [
        "ress",
        "ion"
      ],
      [
        "Ġan",
        "x",
        "i",
        "ety"
      ],
      [
        "Ġf",
        "arm"
      ],
      [
        "Ġgr",
        "ap",
        "h"
      ],
      [
        "Ġthe",
        "r",
        "m"
      ],
      [
        "p",
        "ro"
      ],
      [
        "Ġdis",
        "pl",
        "ay"
      ],
      [
        "Ġtr",
        "aining"
      ],
      [
        "Ġcomple",
        "x"
      ],
      [
        "ain",
        "ed"
      ],
      [
        "u",
        "tions"
      ],
      [
        "ec",
        "k"
      ],
      [
        "Ġon",
        "ce"
      ],
      [
        "ĠR",
        "e"
      ],
      [
        "Ġto",
        "day"
      ],
      [
        "y",
        "st"
      ],
      [
        "ĠO",
        "r"
      ],
      [
        "Ġp",
        "et"
      ],
      [
        "Ġh",
        "old"
      ],
      [
        "lec",
        "tion"
      ],
      [
        "Ġw",
        "ood"
      ],
      [
        "Ġpro",
        "duce"
      ],
      [
        "Ġallow",
        "s"
      ],
      [
        "!",
        "Ċ"
      ],
      [
        "end",
        "s"
      ],
      [
        "Ġsm",
        "o"
      ],
      [
        "Ġpre",
        "g",
        "n",
        "anc",
        "y"
      ],
      [
        "h",
        "y"
      ],
      [
        "ac",
        "y"
      ],
      [
        "Ġst",
        "ress"
      ],
      [
        "Ġen",
        "s",
        "uring"
      ],
      [
        "Ġev",
        "al",
        "u"
      ],
      [
        "m",
        "it"
      ],
      [
        "Ġcon",
        "c",
        "re",
        "te"
      ],
      [
        "Ġper",
        "cent"
      ],
      [
        "Ġget",
        "ting"
      ],
      [
        "m",
        "on"
      ],
      [
        "F",
        "or"
      ],
      [
        "ens",
        "ive"
      ],
      [
        "Ġpl",
        "at",
        "form"
      ],
      [
        "Ġab",
        "ility"
      ],
      [
        "Ġad",
        "ap",
        "t"
      ],
      [
        "Ġst",
        "op"
      ],
      [
        "our",
        "n",
        "al"
      ],
      [
        "Ġm",
        "ass"
      ],
      [
        "Ġprovid",
        "es"
      ],
      [
        "p",
        "or"
      ],
      [
        "Ġs",
        "at",
        "is",
        "f"
      ],
      [
        "Ġro",
        "c",
        "k"
      ],
      [
        "Ġam",
        "ong"
      ],
      [
        "ĠD",
        "r"
      ],
      [
        "Ġbl",
        "ack"
      ],
      [
        "Ġf",
        "all"
      ],
      [
        "ĠU",
        "S"
      ],
      [
        "row",
        "n"
      ],
      [
        "im",
        "e"
      ],
      [
        "Ġnut",
        "ri",
        "ents"
      ],
      [
        "Ġeffect",
        "ive"
      ],
      [
        "E",
        "R"
      ],
      [
        "Ġsu",
        "it",
        "able"
      ],
      [
        "Ġ",
        "Ġ",
        "Ġ"
      ],
      [
        "Ġ",
        "vers"
      ],
      [
        "Ġb",
        "reat",
        "h"
      ],
      [
        "Ġvari",
        "ety"
      ],
      [
        "Ġh",
        "ar",
        "v",
        "est"
      ],
      [
        "in",
        "ation"
      ],
      [
        "f",
        "ore"
      ],
      [
        "Ġm",
        "atter"
      ],
      [
        "An",
        "s",
        "w",
        "er"
      ],
      [
        "Ġre",
        "fer"
      ],
      [
        "Ġbr",
        "ain"
      ],
      [
        "ĠA",
        "ll"
      ],
      [
        "Ġsc",
        "ience"
      ],
      [
        "en",
        "er"
      ],
      [
        "Ġdiffer",
        "ence"
      ],
      [
        "Ġpr",
        "im",
        "ar",
        "ily"
      ],
      [
        "Ġnut",
        "r",
        "ition"
      ],
      [
        "Ġro",
        "om"
      ],
      [
        "ific",
        "ation"
      ],
      [
        "ers",
        "h",
        "ip"
      ],
      [
        "Ġair",
        "c",
        "ra",
        "ft"
      ],
      [
        "Ġh",
        "ot"
      ],
      [
        "in",
        "a"
      ],
      [
        "al",
        "es"
      ],
      [
        "ĠC",
        "O",
        "V",
        "I",
        "D"
      ],
      [
        "Ġy",
        "ell",
        "ow"
      ],
      [
        "Ġhe",
        "av",
        "y"
      ],
      [
        "ist",
        "ic"
      ],
      [
        "Ġn",
        "oth",
        "ing"
      ],
      [
        "Ġt",
        "ell"
      ],
      [
        "in",
        "ing"
      ],
      [
        "Ġsaf",
        "ety"
      ],
      [
        "Ġn",
        "at",
        "ur",
        "ally"
      ],
      [
        "ag",
        "ed"
      ],
      [
        "Ġg",
        "ame"
      ],
      [
        "ĠI",
        "m"
      ],
      [
        "in",
        "c"
      ],
      [
        "ĠO",
        "ne"
      ],
      [
        "Ġst",
        "at"
      ],
      [
        "2",
        "1"
      ],
      [
        "Ġbel",
        "ow"
      ],
      [
        "ib",
        "r"
      ],
      [
        "f",
        "or"
      ],
      [
        "ly",
        "ing"
      ],
      [
        "Ġperform",
        "ance"
      ],
      [
        "av",
        "ing"
      ],
      [
        "Ġneed",
        "ed"
      ],
      [
        "Ġperson",
        "al"
      ],
      [
        "f",
        "l"
      ],
      [
        "ugh",
        "t"
      ],
      [
        "Ġsaf",
        "e"
      ],
      [
        "Ġcommun",
        "ity"
      ],
      [
        "Ġ",
        "ill"
      ],
      [
        "ĠA",
        "I"
      ],
      [
        "Ġh",
        "or",
        "se"
      ],
      [
        ",",
        "Ċ"
      ],
      [
        "Ġresearch",
        "ers"
      ],
      [
        "Ġp",
        "ot"
      ],
      [
        "Ġhy",
        "d"
      ],
      [
        "Ġf",
        "ul",
        "ly"
      ],
      [
        "Ġev",
        "ent"
      ],
      [
        "Ġo",
        "ce",
        "an"
      ],
      [
        "Ġdo",
        "ing"
      ],
      [
        "Ġind",
        "ic"
      ],
      [
        "as",
        "k"
      ],
      [
        "Ġst",
        "or",
        "age"
      ],
      [
        "a",
        "e"
      ],
      [
        "Ġt",
        "ree"
      ],
      [
        "ore",
        "s"
      ],
      [
        "Ġm",
        "om",
        "ent"
      ],
      [
        "se",
        "m",
        "b"
      ],
      [
        "Ġl",
        "it",
        "er"
      ],
      [
        "id",
        "er"
      ],
      [
        "Ġstruct",
        "ure"
      ],
      [
        "o",
        "le"
      ],
      [
        "Ġst",
        "ra",
        "ight"
      ],
      [
        "or",
        "ing"
      ],
      [
        "Ġe",
        "ver"
      ],
      [
        "Ġins",
        "ide"
      ],
      [
        "Ġm",
        "ix"
      ],
      [
        "ack",
        "s"
      ],
      [
        "Ġpro",
        "f"
      ],
      [
        "re",
        "am"
      ],
      [
        "m",
        "ing"
      ],
      [
        "Ġex",
        "act",
        "ly"
      ],
      [
        "Ġsec",
        "ur",
        "ity"
      ],
      [
        "Ġr",
        "ap",
        "id"
      ],
      [
        "Ġcont",
        "ent"
      ],
      [
        "ĠN",
        "O",
        "T"
      ],
      [
        "6",
        "0"
      ],
      [
        "Ġw",
        "ond",
        "er"
      ],
      [
        "Ġag",
        "ric",
        "ult"
      ],
      [
        "ĠC",
        "ol"
      ],
      [
        "Ġch",
        "ar",
        "ge"
      ],
      [
        "Ġbe",
        "a",
        "ut",
        "y"
      ],
      [
        "Ġsit",
        "u",
        "ation"
      ],
      [
        "ĠF",
        "l",
        "or",
        "id",
        "a"
      ],
      [
        "Ġf",
        "at"
      ],
      [
        "ĠN",
        "o"
      ],
      [
        "Ġm",
        "i",
        "xt",
        "ure"
      ],
      [
        "y",
        "cl"
      ],
      [
        "m",
        "an"
      ],
      [
        "Ġas",
        "k"
      ],
      [
        "Ġapp",
        "l",
        "ied"
      ],
      [
        "Ġon",
        "line"
      ],
      [
        "ens",
        "ion"
      ],
      [
        "Ġactiv",
        "ities"
      ],
      [
        "Ġim",
        "age"
      ],
      [
        "Ġex",
        "ist"
      ],
      [
        "Ġex",
        "per",
        "t"
      ],
      [
        "Ġexc",
        "ell",
        "ent"
      ],
      [
        "2",
        "4"
      ],
      [
        "Ġlong",
        "er"
      ],
      [
        "Ġd",
        "em",
        "and"
      ],
      [
        "Ġar",
        "r"
      ],
      [
        "Ġcomm",
        "erc",
        "ial"
      ],
      [
        "Ġmo",
        "ist",
        "ure"
      ],
      [
        "Ġbuild",
        "ing"
      ],
      [
        "ĠT",
        "ech",
        "n"
      ],
      [
        "Ġa",
        "ff"
      ],
      [
        ".",
        ","
      ],
      [
        "is",
        "es"
      ],
      [
        "Ġrequire",
        "d"
      ],
      [
        "Ġcirc",
        "u",
        "it"
      ],
      [
        "Ġse",
        "en"
      ],
      [
        "-",
        "ter",
        "m"
      ],
      [
        "Ġp",
        "ath"
      ],
      [
        "th",
        "er"
      ],
      [
        "ac",
        "ed"
      ],
      [
        "re",
        "l"
      ],
      [
        "Ġdo",
        "ct",
        "or"
      ],
      [
        "d",
        "ing"
      ],
      [
        "Ġb",
        "ir",
        "th"
      ],
      [
        "Ġexp",
        "os",
        "ure"
      ],
      [
        "Ġpre",
        "fer"
      ],
      [
        "ful",
        "ly"
      ],
      [
        "Ġfun",
        "c",
        "tions"
      ],
      [
        "ver",
        "t"
      ],
      [
        "Ġcomp",
        "any"
      ],
      [
        "Ġl",
        "ove"
      ],
      [
        "if",
        "t"
      ],
      [
        "Ġmin",
        "im"
      ],
      [
        "Ġint",
        "ell",
        "ig"
      ],
      [
        "Ġant",
        "ib",
        "i",
        "ot"
      ],
      [
        "Ġcont",
        "ribut",
        "e"
      ],
      [
        "-f",
        "ri",
        "end",
        "ly"
      ],
      [
        "ou",
        "se"
      ],
      [
        "un",
        "g"
      ],
      [
        "ĠG",
        "o",
        "og",
        "le"
      ],
      [
        "Ġp",
        "ay"
      ],
      [
        "Ġenvironment",
        "al"
      ],
      [
        "um",
        "b"
      ],
      [
        "Ġde",
        "ep"
      ],
      [
        "Ġr",
        "ate"
      ],
      [
        "Ġadd",
        "ress"
      ],
      [
        "Ġs",
        "yn"
      ],
      [
        "ĠA",
        "p"
      ],
      [
        "Ġs",
        "elf"
      ],
      [
        "Ġthe",
        "rap",
        "y"
      ],
      [
        "Ġf",
        "le",
        "x"
      ],
      [
        "Ġl",
        "a",
        "un",
        "ch"
      ],
      [
        "Ġt",
        "aking"
      ],
      [
        "Ġpre",
        "c"
      ],
      [
        "Ġb",
        "ec",
        "ame"
      ],
      [
        "Ġl",
        "iving"
      ],
      [
        "Ġmethod",
        "s"
      ],
      [
        "Ġtyp",
        "ically"
      ],
      [
        "Ġp",
        "ict",
        "ure"
      ],
      [
        "ec",
        "tions"
      ],
      [
        "Ġinst",
        "all"
      ],
      [
        "it",
        "es"
      ],
      [
        "Ġt",
        "iss",
        "ue"
      ],
      [
        "Ġus",
        "er"
      ],
      [
        "Ġide",
        "a"
      ],
      [
        "Ġis",
        "n"
      ],
      [
        "Ġsome",
        "one"
      ],
      [
        "Ġcap",
        "ac",
        "ity"
      ],
      [
        "b",
        "y"
      ],
      [
        "Ġmonth",
        "s"
      ],
      [
        "al",
        "ing"
      ],
      [
        "Ġf",
        "ert",
        "il"
      ],
      [
        "Ġse",
        "ason"
      ],
      [
        "Ġse",
        "lect"
      ],
      [
        "Ġag",
        "ain"
      ],
      [
        "w",
        "ay"
      ],
      [
        "ib",
        "ility"
      ],
      [
        "Ġwho",
        "le"
      ],
      [
        "âĢ",
        "Ļ"
      ],
      [
        "Ġactiv",
        "ity"
      ],
      [
        "-",
        "t"
      ],
      [
        "ĠAmeric",
        "an"
      ],
      [
        "ill",
        "ed"
      ],
      [
        "ur",
        "s"
      ],
      [
        "Ġbe",
        "y",
        "ond"
      ],
      [
        "er",
        "ve"
      ],
      [
        "ĠP",
        "e",
        "op",
        "le"
      ],
      [
        "Ġb",
        "ar"
      ],
      [
        "Ġeas",
        "ily"
      ],
      [
        "ĠC",
        "ent"
      ],
      [
        "Ġn",
        "ature"
      ],
      [
        "Ġf",
        "it"
      ],
      [
        "in",
        "ary"
      ],
      [
        "ad",
        "es"
      ],
      [
        "ur",
        "b"
      ],
      [
        "2",
        "2"
      ],
      [
        "ie",
        "f"
      ],
      [
        "Ġrem",
        "ov"
      ],
      [
        "Ġcons",
        "ump",
        "tion"
      ],
      [
        "Ġob",
        "ject"
      ],
      [
        "Ġ",
        "."
      ],
      [
        "Ġbehavi",
        "or"
      ],
      [
        "Ġch",
        "e"
      ],
      [
        "Ġs",
        "qu"
      ],
      [
        "Ġsub",
        "st"
      ],
      [
        "Ġcol",
        "d"
      ],
      [
        "ang",
        "ing"
      ],
      [
        "Ġindividual",
        "s"
      ],
      [
        "âĢ",
        "ĵ"
      ],
      [
        "Ġn",
        "uc",
        "le"
      ],
      [
        "Ġse",
        "ver",
        "e"
      ],
      [
        "Ġgener",
        "al"
      ],
      [
        "Ġo",
        "l",
        "der"
      ],
      [
        "i",
        "ke"
      ],
      [
        "end",
        "ed"
      ],
      [
        "Ġh",
        "arm"
      ],
      [
        "ac",
        "ts"
      ],
      [
        "ev",
        "el",
        "op"
      ],
      [
        "T",
        "I",
        "O",
        "N"
      ],
      [
        "Ġgrow",
        "ing"
      ],
      [
        "Ġdisc",
        "over",
        "ed"
      ],
      [
        "os",
        "ing"
      ],
      [
        "Ġbr",
        "ing"
      ],
      [
        "Ġp",
        "ack"
      ],
      [
        "Ġt",
        "as",
        "ks"
      ],
      [
        "Ġj",
        "ob"
      ],
      [
        "m",
        "er"
      ],
      [
        "Ġimp",
        "ro"
      ],
      [
        "Ġin",
        "j"
      ],
      [
        "ĠG",
        "r"
      ],
      [
        "Ġcons",
        "erv",
        "ation"
      ],
      [
        "u",
        "ff"
      ],
      [
        "Ġem",
        "iss",
        "ions"
      ],
      [
        "Ġc",
        "ases"
      ],
      [
        "Ġsl",
        "ight",
        "ly"
      ],
      [
        "e",
        "xt"
      ],
      [
        "Ġcreat",
        "ing"
      ],
      [
        "Ġl",
        "arg",
        "est"
      ],
      [
        "d",
        "d"
      ],
      [
        "Ġent",
        "ire"
      ],
      [
        "A",
        "l"
      ],
      [
        "Ġf",
        "ig",
        "ure"
      ],
      [
        "Ġmed",
        "ical"
      ],
      [
        "-",
        "l"
      ],
      [
        "S",
        "o"
      ],
      [
        "Ġm",
        "agn"
      ],
      [
        "Ġme",
        "et"
      ],
      [
        "ol",
        "es"
      ],
      [
        "Ġg",
        "ot"
      ],
      [
        "Ġw",
        "all"
      ],
      [
        "en",
        "n"
      ],
      [
        ".\"",
        "Ċ"
      ],
      [
        "Ġpro",
        "te",
        "ins"
      ],
      [
        ")",
        ".Ċ"
      ],
      [
        "Ġst",
        "ay"
      ],
      [
        "Ġval",
        "u",
        "able"
      ],
      [
        "Ġres",
        "ources"
      ],
      [
        "Ġad",
        "ul",
        "ts"
      ],
      [
        ".\"",
        "ĊĊ"
      ],
      [
        "Ġover",
        "all"
      ],
      [
        "ĠCh",
        "r",
        "ist"
      ],
      [
        "Ġal",
        "tern",
        "ative"
      ],
      [
        "ell",
        "ing"
      ],
      [
        "Ġconsider",
        "ed"
      ],
      [
        "i",
        "ans"
      ],
      [
        "ĠA",
        "c"
      ],
      [
        "e",
        "at"
      ],
      [
        "ĠWh",
        "ile"
      ],
      [
        "if",
        "y"
      ],
      [
        "Ġvol",
        "t",
        "age"
      ],
      [
        "Ġus",
        "es"
      ],
      [
        "Ġf",
        "as",
        "c",
        "in",
        "ating"
      ],
      [
        "Ġf",
        "em",
        "ale"
      ],
      [
        "or",
        "k"
      ],
      [
        "Ġh",
        "u",
        "ge"
      ],
      [
        "Ġcont",
        "act"
      ],
      [
        "Ġn",
        "et",
        "w",
        "or",
        "ks"
      ],
      [
        "Ġs",
        "olution"
      ],
      [
        "I",
        "N"
      ],
      [
        "er",
        "ed"
      ],
      [
        "ul",
        "ations"
      ],
      [
        "Ġa",
        "ud"
      ],
      [
        "Ġr",
        "ather"
      ],
      [
        "is",
        "c"
      ],
      [
        "os",
        "is"
      ],
      [
        "Ġthrough",
        "out"
      ],
      [
        "Ġt",
        "ren",
        "d"
      ],
      [
        "Ġrel",
        "at",
        "ively"
      ],
      [
        "en",
        "g"
      ],
      [
        "Ġcho",
        "ose"
      ],
      [
        "Ġcharacter",
        "ist",
        "ics"
      ],
      [
        "Ġadv",
        "ant",
        "age"
      ],
      [
        "Ġl",
        "ater"
      ],
      [
        "Ġto",
        "ol"
      ],
      [
        "Ġtechn",
        "olog",
        "ies"
      ],
      [
        "8",
        "0"
      ],
      [
        "Ġset",
        "ting"
      ],
      [
        "Ġbird",
        "s"
      ],
      [
        "Ġprofession",
        "al"
      ],
      [
        "Ġc",
        "ate",
        "g"
      ],
      [
        "ĠF",
        "e",
        "b",
        "ru",
        "ary"
      ],
      [
        "ĠF",
        "ir",
        "st"
      ],
      [
        "Ġinf",
        "lu"
      ],
      [
        "m",
        "s"
      ],
      [
        "Ġp",
        "an"
      ],
      [
        "Ġsw",
        "e",
        "et"
      ],
      [
        "o",
        "ol"
      ],
      [
        "Ġcon",
        "n",
        "ection"
      ],
      [
        "-b",
        "ased"
      ],
      [
        "are",
        "n",
        "t"
      ],
      [
        "Ġinf",
        "l",
        "amm",
        "ation"
      ],
      [
        "Ġmo",
        "lec"
      ],
      [
        "iv",
        "al"
      ],
      [
        "Ġch",
        "oc",
        "ol",
        "ate"
      ],
      [
        "Ġar",
        "ch",
        "it",
        "ect"
      ],
      [
        "Ġme",
        "as",
        "ures"
      ],
      [
        "Ġan",
        "n"
      ],
      [
        "Ġcl",
        "ose"
      ],
      [
        "Ġs",
        "ch"
      ],
      [
        "ĠC",
        "ar"
      ],
      [
        "Ġph",
        "ys"
      ],
      [
        "Ġhow",
        "ever"
      ],
      [
        "en",
        "ed"
      ],
      [
        "Ġt",
        "akes"
      ],
      [
        "Ġdist",
        "in",
        "ct"
      ],
      [
        "Ġback",
        "g",
        "round"
      ],
      [
        "Ġop",
        "tions"
      ],
      [
        "Ġw",
        "or"
      ],
      [
        "ur",
        "th",
        "erm",
        "ore"
      ],
      [
        "Ġthough",
        "t"
      ],
      [
        "Ġw",
        "ar"
      ],
      [
        "Ġse",
        "par"
      ],
      [
        "Ġserv",
        "ice"
      ],
      [
        "Ġb",
        "ad"
      ],
      [
        "Ġf",
        "oot"
      ],
      [
        "O",
        "n"
      ],
      [
        "Ġcap",
        "t",
        "ure"
      ],
      [
        "Ġpract",
        "ice"
      ],
      [
        "Ġcre",
        "ated"
      ],
      [
        "Ġas",
        "p",
        "ects"
      ],
      [
        "Ġpop",
        "ulation"
      ],
      [
        "Ġt",
        "w"
      ],
      [
        "ac",
        "tions"
      ],
      [
        "en",
        "se"
      ],
      [
        "s",
        "p"
      ],
      [
        "ĠN",
        "orth"
      ],
      [
        "Ġh",
        "ist",
        "or"
      ],
      [
        "Ġf",
        "ash",
        "ion"
      ],
      [
        "p",
        "s"
      ],
      [
        "Ġn",
        "ight"
      ],
      [
        "Ġind",
        "ep",
        "end"
      ],
      [
        "Ġfe",
        "et"
      ],
      [
        "Ġt",
        "end"
      ],
      [
        "Ġfood",
        "s"
      ],
      [
        "le",
        "ase"
      ],
      [
        "ill",
        "s"
      ],
      [
        "Ġcaus",
        "es"
      ],
      [
        "Ġacc",
        "ur"
      ],
      [
        "Ġmod",
        "ern"
      ],
      [
        "Ġdevelop",
        "ed"
      ],
      [
        "ĠD",
        "o"
      ],
      [
        "Ġref",
        "r",
        "ig",
        "er"
      ],
      [
        "ĠJ",
        "ap",
        "an"
      ],
      [
        "*",
        "*"
      ],
      [
        "Ġro",
        "b"
      ],
      [
        "t",
        "i"
      ],
      [
        "Ġd",
        "rop"
      ],
      [
        "Ġc",
        "op"
      ],
      [
        "Ġch",
        "ick",
        "en"
      ],
      [
        "Ġcons",
        "ist"
      ],
      [
        "Ġw",
        "aste"
      ],
      [
        "Ġm",
        "ult"
      ],
      [
        "Ġfin",
        "anc",
        "ial"
      ],
      [
        "Ġbre",
        "ed"
      ],
      [
        "Ġsl",
        "ow"
      ],
      [
        "Ġac",
        "id"
      ],
      [
        "Ġ",
        "X"
      ],
      [
        "Ġm",
        "iss"
      ],
      [
        "os",
        "p"
      ],
      [
        "Ġf",
        "ast"
      ],
      [
        "o",
        "id"
      ],
      [
        "Ġj",
        "o",
        "in"
      ],
      [
        "ĠS",
        "ep",
        "t",
        "ember"
      ],
      [
        "Ġs",
        "il"
      ],
      [
        "Ġserv",
        "ices"
      ],
      [
        "i",
        "ation"
      ],
      [
        "Ġrel",
        "ated"
      ],
      [
        "ri",
        "ed"
      ],
      [
        "Ġincreas",
        "ed"
      ],
      [
        "Ġinclud",
        "es"
      ],
      [
        "ĠP",
        "r"
      ],
      [
        "l",
        "er"
      ],
      [
        "Ġcomp",
        "et"
      ],
      [
        "Ġinst",
        "ead"
      ],
      [
        "es",
        "p"
      ],
      [
        "in",
        "ce"
      ],
      [
        "Ġd",
        "yn",
        "am"
      ],
      [
        "Ġreg",
        "ion"
      ],
      [
        "Ġwe",
        "ather"
      ],
      [
        "E",
        "S"
      ],
      [
        "ĠS",
        "outh"
      ],
      [
        "Ġspec",
        "if",
        "ically"
      ],
      [
        "Ġt",
        "in",
        "y"
      ],
      [
        "Ġpartic",
        "ip"
      ],
      [
        "Ġop",
[...]
